#version: 0.2
Ġ e
Ġ s
h t
Ġ d
n i
r e
n a
Ġ t
n o
Ġ ,
Ġe ht
n e
Ġ y
r o
r a
Ġd e
l a
Ġ o
i t
Ġ f
u o
Ġf o
Ġ a
e r
g ni
Ġd na
Ġ re
Ġ .
Ġ ni
t s
Ġ gni
Ġ no
Ġo t
c i
Ġs a
m o
t a
s e
l e
Ġe h
i h
Ġs e
c a
t i
Ġ na
l o
l i
s i
Ġ la
m a
Ġt a
Ġ ro
s a
r u
h c
o r
Ġ ht
Ġsa w
e l
it a
Ġs i
Ġ n
w o
c e
Ġ ne
9 1
i r
r i
m e
Ġ l
d a
Ġ h
Ġ k
i s
n u
s u
0 2
Ġy l
Ġ i
t ne
g a
h w
i l
i w
i d
p o
Ġeh T
a h
Ġro f
t e
Ġe v
Ġe l
re v
Ġht iw
b a
s o
Ġ m
r f
Ġs ih
Ġ mo
Ġta ht
h g
n uo
p a
Ġy b
Ġt ne
l u
Ġe re
d e
l p
â Ģ
o o
Ġt i
e s
y a
no c
e d
c o
u b
ro f
re t
e b
Ġmo rf
r t
mo c
ra e
no ita
or p
d na
Ġ p
u s
Ġy a
x e
Ġe c
Ġno ita
r uo
w e
p s
v o
Ġ )
Ġre h
âĢ ĵ
v e
Ġde t
e ht
' '
l c
` `
Ġ ``
k a
d i
r g
m u
ni a
r ts
s er
Ġd l
Ġ g
Ġs re
Ġ hc
s re
c u
Ġ |
u q
o n
Ġno it
h s
Ġl la
f f
Ġ ci
t S
g i
m i
1 02
Ġre ht
0 02
Ġeh s
no it
Ġre t
ra p
Ġe ta
Ġt uo
l la
c it
t o
Ġd ah
Ġ uo
Ġe no
Ġe ra
Ġ wo
Ġy ti
Ġe m
Ġt s
i n
p e
Ġs t
v a
Ġde ta
Ġt hg
Ġe b
Ġ :
Ġuo y
Ġere w
h C
Ġo s
c ne
l b
Ġ ra
Ġ ri
d u
c er
Ġn I
e t
8 1
Ġt ub
ro w
Ġdl uo
Ġ we
Ġre b
d o
w a
Ġ "
Ġ 0
Ġt e
Ġy ra
re p
e h
v i
ts e
Ġh ci
f e
n I
Ġe ma
Ġ le
g na
d ne
ts i
t u
Ġt se
na m
Ġy m
Ġd a
Ġ| |
f a
g o
Ġn wo
Ġhci hw
Ġyl la
Ġt on
ro p
r p
re m
Ġh g
ri f
e w
h si
i a
u a
d ra
Ġ, )
ni l
e p
re s
o p
Ġev ah
Ġ ma
ru t
e m
Ġk ca
n k
r b
i la
l li
Ġ 1
9 91
ya lp
Ġd ra
Ġe ga
d is
Ġsi ht
c s
Ġni a
Ġ âĢĵ
i f
c na
Ġos la
ts a
Ġe H
Ġs ti
l le
d ro
b o
Ġde k
p moc
Ġg no
r A
w t
Ġ 2
Ġp u
Ġd nuo
i v
o g
s sa
Ġs u
ra M
Ġe s
Ġsa h
l A
Ġy eht
Ġ 5
Ġhg uo
Ġe k
Ġri eht
Ġm ih
Ġt na
Ġts rif
Ġreht o
Ġ ruo
Ġe g
Ġe mo
o c
d nu
ni m
Ġe ro
e n
Ġo hw
Ġ A
Ġt sa
Ġ Ċ
o b
Ġreb me
ih s
ht a
Ġse i
ni f
e f
n ret
cne re
Ġ ;
m rof
l lo
Ġgni t
Ġt su
cu d
Ġtne m
s se
Ġ 4
no i
Ġ -
Ġe u
Ġne eb
Ġs k
Ġ 3
Ġna ci
Ġl le
rae y
rem A
ce b
Ġt so
n A
r d
Ġla noita
p ma
Ġs se
fe R
Ġ 6
li a
t ta
tne c
er p
Ġde n
Ġe ca
Ġot ni
Ġe ci
cnere feR
8 91
h T
ra m
l g
si d
Ġla i
Ġs tne
Ġna i
l f
u t
g no
Ġdluo w
r F
p p
Ġ 7
Ġs uo
o hc
d nuo
Ġh si
ce s
Ġde ti
lo c
e ra
ser p
h ca
Ġd ia
g e
o t
li f
se d
Ġt I
Ġec ne
m moc
Ġla ci
s na
Ġ me
lb u
Ġre vo
Ġne hw
se cnerefeR
Ġ lo
Ġe ni
Ġ Ġ
Ġno i
s rev
Ġgni k
Ġy t
s k
n U
Ġ 8
Ġe da
u A
h p
mo C
u g
Ġel ba
c ni
Ġo wt
Ġ x
Ġt si
Ġk oo
7 91
n E
f o
Ġy le
Ġnaci remA
lc ni
ro t
re b
s t
Ġtuo ba
Ġret fa
t noc
y e
Ġe ka
x E
Ġ li
ff o
ti r
Ġe ru
it s
w or
b u
Ġero m
ih c
li m
Ġo d
ra P
z a
Ġem it
Ġna m
v res
in U
Ġa i
re ht
Ġe er
y t
Ġta hw
Ġec na
Ġe t
n na
Ġe se
p u
du lcni
Ġd oo
Ġde sa
Ġne ht
Ġl li
Ġdia s
Ġgni ru
ro ts
Ġre ta
no m
po ep
co l
ro b
Ġd lo
rev e
Ġere ht
Ġ 9
ih w
Ġs noita
6 91
Ġe so
Ġo n
Ġe su
Ġwe N
r ht
Ġde re
g er
e L
p pa
Ġ ''
o d
te b
ce ps
Ġe d
Ġd id
Ġ ?
lo p
z i
Ġgni ht
le h
Ġyl no
Ġya w
m er
y s
Ġe r
Ġek il
no C
no is
Ġkca b
0 0
Ġdluo c
Ġe w
le s
y ti
it ne
Ġna c
Ġde hsi
Ġse ta
Ġere hw
dna l
Ġs gni
n gi
Ġde su
Ġno is
t oo
d no
Ġy na
d ni
h o
i ra
y l
lo C
p i
Ġf i
ra ts
o l
t na
it i
Ġh ca
ne g
k ca
e mo
Ċ Ċ
ma n
ir c
go lo
Ġl l
nuo c
Ġgni n
g ne
Ġe rof
Ġtso m
Ġs noit
ri a
u r
4 91
er c
nuo C
Ġht uo
srev inU
or P
Ġdeti nU
s uo
Ġlla b
li ub
i co
5 91
Ġs na
7 1
a r
Ġ po
i m
Ġme ht
ro N
Ġy r
li ma
a i
Ġm u
Â ł
Ġ I
ca f
Ġre ve
ret ni
e S
Ġde l
Ġna ht
Ġd ne
tne m
y o
ce le
i D
k s
Ġe sa
Ġeda m
Ġd no
Ġla nret
d lo
ce d
e k
ra l
ro W
Ġ '
i L
s la
ta m
Ġ. )
Ġ rae
ru s
Ã ©
lbu p
Ġe ti
r T
le v
c A
r G
s ne
Ġtsu j
h S
Ġe dis
Ġne ew
Ġs la
Ġemo s
ir t
p m
Ġerof eb
n wo
rev o
o m
Ġhguo rht
ra c
s it
0 1
ir B
Ġyra u
g ro
t ni
cud orp
r c
sa es
so p
Ġec ni
pa rg
Ġ cit
s s
v orp
ra hc
Ġgni ta
Ġs p
b us
j a
su m
p S
Ġwo n
Ġnoi si
Ġlanret xE
Ġneew teb
Ġn rob
Ġe la
Ġwe n
e ni
Ġs ya
t hg
tir w
e v
wo llo
si m
Ġdna l
l ba
ru c
Ġev it
r B
Ġs er
Ġn O
i da
Ġ C
g is
Ġgniru d
ru tnec
ri b
emo s
3 91
nia ga
b me
ci rts
Ġs m
ru b
too f
ir p
k ci
ho J
Ġthg ir
el er
Ġn re
e g
lima f
Ġne t
Ġev ita
Ġlo ohc
Ġsih T
se i
vo m
Ġlle w
cu rts
Ġno t
Ġd i
ht iw
Ġnwo d
Ġyti srevinU
lg nE
gni s
Ġe f
c S
. .
y h
Ġ u
6 1
cer id
g eb
Ġde r
Ġgni eb
ro F
Ġy ro
ra C
Ġts niaga
l P
ci f
mu n
h a
f er
Ġ wa
ro n
Ġnwo nk
er g
Ġlli w
Ġno s
re G
or b
ce j
c el
l er
y na
Ġev a
v it
v ni
Ġhc us
Ġ âĢ
Ġeer ht
le b
c ca
Ġre dnu
i e
lu po
Ġgni v
Ġel b
Ġel t
eh T
m s
wollo f
Ġt rap
i b
Ġel ihw
s m
n ne
Ġthg uo
e ta
Ġdnuo ra
ni op
Ġesu a
ts is
Ġ S
pa c
u J
id nI
er b
5 1
e u
Ġte g
Ġl it
t uo
e ts
Ġy nam
m it
Ġda eh
ub la
d l
mo w
oo l
i g
Ġro t
Ġt u
lla c
ca lp
Ġs sa
l s
sk nil
Ġlanoita N
Ġla re
n ni
lba tse
Ġ %
li W
no t
Ġse l
er G
h sa
l C
Ġtne me
na C
Ġlit nu
Ġk row
Ġne ve
cit i
Ġes uo
Ġf fo
si r
Ġema ceb
Ġt f
d oo
parg o
Ġh sit
nu J
sre yalp
Ġel poep
re c
Ġreta l
Ġht ob
re po
c O
su M
k o
Ġk ci
si v
f A
h ci
uo rg
na J
e G
Ġde b
e D
Ġs raey
Ġp ihs
d A
Ġht a
Ġt o
tsi H
Ġwo nk
Ġdl roW
e P
Ġwo h
Ġl u
r O
Ġeh S
Ġgni ka
Ġde ne
Ġs dra
Ġ, "
t rop
t ro
ci ffo
Ġhguo ht
lo s
t pe
2 91
lupo p
Ġde nia
vo N
Ġdno ces
u m
Ġse ma
Ġ z
Ġs ro
l B
Ġruo y
Ġgni dulcni
rots ih
Ġ &
noi pma
ro Y
rb e
o j
Ġgni d
ir ts
2 1
r P
ce D
lo P
ti l
Ġe n
el poep
na i
gna hc
ro c
s ht
ff id
rae ppa
Ġgni y
el pmoc
Ġkoo t
Ġre wo
rt noc
u G
da er
Ġy rutnec
Ġs o
is op
e ga
Ġll its
Ġyl tne
rts uA
Ġeu ga
g el
lla b
Ġla u
sa b
Ġd ni
lev ed
s I
ra B
dna h
. )
s noita
Ġt ro
Ġy rev
ila rtsuA
p me
Ġya d
Ġe es
Ġe rut
sre p
t rap
Ġyl rae
s or
le if
ngi la
e c
Ġre d
Ġesua ceb
ir b
re S
ra H
Ġo g
ve le
ts o
Ġde llac
tpe S
lo ohc
ti s
Ġhtuo S
1 2
tne C
se ta
rev es
Ġm lif
gi ro
Ġse it
Ġema s
rev og
t xe
4 1
Ġlanoita nret
e B
Ġk ni
citi lop
Ġhsit irB
ni tnoc
Ġde v
Ġret fA
Ġde dne
e R
x a
t er
3 1
Ġn hoJ
p xe
i rep
o v
Ġden rut
Ġdra w
Ġk a
Ġf les
Ġgni vi
lu f
la t
Ġema n
ru E
Ġde yalp
Ġri a
Ġ w
Ġya m
Ġdnuo f
ra w
Ġs no
" =
tne serp
do m
ne v
Ġt rop
Ġecni s
c ita
Ġe i
Ġeca lp
id u
m ih
no M
re dnu
e ro
c us
Ġs d
na M
Ġse v
po leved
ni giro
ce n
s ser
p ed
Ġde p
Ġse ye
Ġnia ga
rp A
Ġp e
e ps
du ts
ir f
dis er
ta ef
ne m
g u
sht rib
na gro
Ġma et
l ih
Ġt es
Ġgni og
ss A
Ġya M
da el
Ġdesa b
ts il
ruo c
Ġde hc
ce t
m moC
Ġrebme tpeS
Ġre m
Ġy limaf
hg ih
Ġreb mun
e H
ĠâĢ Ķ
Ġla noit
Ġs ret
Ġe si
nu mmoc
Ġyrau naJ
sna rt
Ġese ht
i B
Ġdesa eler
re d
0 91
Ġhc raM
hg i
Ġreb ot
da naC
e no
Ġrebot cO
Ġhc um
e cna
ts ys
n revog
ht o
Ġtf el
pe R
Ġhca e
Ġd leh
p us
e po
na r
Ġla reves
Ġk e
Ġe di
na w
Ġeca f
Ġy el
Ġ raey
ge R
Ġe eS
Ġe moc
u S
ra hC
la h
lu c
Ġs A
ro C
mo rp
re h
Ġna geb
id em
Ġe nuJ
dna ts
Ġe nil
Ġh a
re ta
dro cer
ce R
Ġt xe
- |
Ġre v
Ġtsu g
Ġef il
rae h
Ġde vi
Ġa ni
Ġya wa
ci v
o C
era c
ff a
Ġere h
uo s
Ġyl uJ
Ġno w
Ġlu f
Ġeka m
s tne
Ġli rpA
Ġe lo
ne G
ru p
Ġ bu
Ġnia t
Ġn gi
Ġs te
Ġe z
Ġtsug uA
s y
v id
Ġruo f
na b
so lc
ira v
Ġgni re
Ġn reht
e T
reve wo
k co
Ġt no
ni M
Ġrebme voN
o R
Ġgno l
Ġtsa l
Ġ 02
Ġ. ..
ra b
re f
uq er
Ġrebme ceD
Ġ. "
Ġeka t
su b
Ġreve n
Ġde si
s noit
Ġre mrof
Ġt ca
Ġs nia
dnuo f
no s
rbe F
e M
do b
irc sed
ih W
Ġm rof
d E
no saes
de m
y ts
pa J
Ġreht a
Ġde c
f orp
ro tsiH
Ġrehto na
e a
er t
rts i
Ġ b
ĠĠ ĠĠ
e cer
ir P
Ġsei res
nu r
ed i
Ġel po
me d
it ra
Ġgni wollof
hg ua
y S
o s
Ġseta tS
' t
9 81
su R
sse c
Ġs wo
Ġs sor
' re
lu ser
Ġeso ht
el b
sa c
Ġ0 00
noipma hC
Ġde di
p ihs
Ġloohc s
1 1
u gna
Ġs ma
m A
rg orp
Ġde ir
o B
ce S
Ġemo h
Ġy rt
lli v
ri ht
te m
u nitnoc
hg uo
c nu
li F
Ġt el
ut its
Ġtne w
h W
Ġo ot
I I
Ġde man
bo R
Ġema c
Ġd ro
ci M
re B
Ġht roN
u d
ne rF
Ġgni nia
Ã ¡
Ġdna h
ps er
la v
s gni
l l
Ġy ehT
Ġeta tS
s ro
ca r
Ġyrau rbeF
ra W
te d
Ġmo or
' d
Ġev is
Ġeta ts
t te
Ġe tu
e i
cit rap
rev oc
Ġno saes
il liW
yt nuoC
re P
m il
Ġde ni
Ġs ser
Ġylla u
i nu
Ġllab toof
Ġsi H
ra h
Ġdehsi lbatse
d da
na c
bme m
Ġtna w
Ġgno la
ga nam
l F
Ġt cirts
Ġde g
el loC
ssa p
se R
k i
Ġs ni
Ġdeta col
nois se
er u
c M
Ġyl ra
Ġdoo g
Ġde vres
mu h
ne s
Ġde m
Ġhsi lgnE
ja m
Ġnoisi vele
re ffid
rf A
y ra
la w
k na
Ġde mrof
ka t
Ġloohc S
Ġy e
ca rahc
Ġstne m
Ġs ne
y m
Ġs ci
Ġeuga eL
Ġst na
r D
Ġkni ht
wo t
hta ed
Ġlla ms
r ruc
Ġ V
ff e
p moC
Ġ D
li s
Ġse iti
Ġrebme m
Ġdek sa
Ġthg il
ga m
t el
Ġra lu
Ġm i
ma g
Ġsse l
mo R
f i
91 02
re neg
Ġla ti
Ġs le
Ġt A
Ġla r
Ġk roY
Ġdek ool
Ġ" .
Ġk co
8 81
lo v
o sla
ir d
Ġwe f
Ġesuo h
h pargo
epo ruE
s ci
da eh
Ġde id
Ġthguo ht
we n
dno L
cu de
ni mo
e cne
w S
Ġa era
Ġ ru
Ġ !
ts u
oo b
va D
Ġgniht emos
vi g
e hc
Ġse ga
el c
te k
y r
Ġema g
ro loc
em it
ts er
yl O
me da
ci remA
se l
Ġthg i
Ġy dob
Ġyti la
me ht
sm lif
Ġt pe
Ġna is
Ġde if
Ġreht e
Ġy re
la W
l ihc
kca b
llab toof
k e
ra es
re H
pm ylO
Ġyti c
ht ua
sa er
Ġelt til
Ġhc nerF
idu ts
Ġm ubla
Ġhg ih
Ġra W
hc s
le f
Ġgni l
Ġy li
Ġt og
Ġp uorg
Ġtxe n
seta tS
Ġsya w
e W
Ġe ri
Ġt liub
ih C
n hc
Ġde s
Ġyti li
0 3
Ġser u
Ġgni su
k row
ugna l
Ġf e
Ġk na
di m
Ġre tsi
lp xe
Ġde vom
Ġy te
mi a
lu p
f ed
Ġ0 1
Ġyra ti
we iv
dis noc
Ġni htiw
Ġere hT
Ġre n
gno s
0 5
Ġnwo t
Ġ P
Ġdet rats
w s
Ġeu d
Ġse mit
ra g
ca rt
Ġ lia
ci p
na paJ
Ġhc ru
pp ah
ne t
es uo
Ġro od
Ġde z
Ġdluo hs
Ġre g
lu m
Ġdevi ecer
0 102
a ni
Ġdehsi lbup
Ġci sum
u Q
da rg
rd lihc
Ġtuo htiw
gno l
Ġgnivi L
ico ssA
ts id
uq e
Ġnam reG
c or
Ġdna b
Ġro F
Ġ cita
Ġyle ta
le d
ta n
Ġyl suo
no n
Ġya lp
dlo h
âĢ Ļ
e N
ru f
te P
to cS
Ġla ru
dra w
gna r
6 81
Ġre dro
Ġev if
ta p
a w
d d
hc S
li M
Ġde hca
Ġla col
Ġe na
mo no
er d
or d
Ġeg ral
it ep
Ġre p
Ġse hc
dne ped
Ġne m
Ġnre tse
Ġde ru
h su
Ġe p
Ġy reve
Ġkoo l
de M
t ca
Ġs ta
i cs
ff O
Ġy golo
er ts
7 81
no srep
el p
Ġlanoitanret nI
zi nagro
orp pa
m ma
ta w
Ġgni ne
ru a
Ġthg in
Ġelpo eP
nu a
i W
Ġ L
Ġnoisivele t
us si
d id
v da
c xe
t A
co d
e ci
Ġgnin ni
Ġreta w
Ġg na
nuo y
vi D
Ġgni dro
Ġa na
loohc s
ci nu
Ġse c
y reve
ssa lc
ni sub
nia p
Ã ³
uq s
ra d
Ġ pa
Ġdet ce
Ġno il
revewo H
Ġs tsi
Ġci lbup
ts et
Ġtu p
Ġde ro
i R
go t
g re
u B
Ġtse b
to t
Ġy daer
ts ir
Ġd o
Ġtne reffid
a c
Ġe po
Ġde wo
Ġy hw
la M
ba b
Ġn rut
to N
Ġtse W
nuo nna
Ġla cit
Ġgniru D
Ġt n
ila C
le B
t it
1 102
Ġeg d
Ġde calp
ro h
m us
se D
Ġrae n
Ġyti C
Ġ R
vo n
S U
id da
Ġrehta f
Ġd leif
Ġden gis
l G
Ġeru s
ro M
Ġde ri
Ġde lli
or B
il er
uq es
y b
Ġkoo b
nia t
Ġnia m
in rof
Ġt cej
Ġev o
ri g
Ġgno s
Ġro ta
Ġdeb ircsed
Ġdet naw
Ġde en
h eb
o N
9 002
n ruo
s raey
it na
2 102
pma c
Ġnoita lupop
ah s
Ġtnem nrevog
5 2
ri v
Ġpo t
i ci
li v
Ġro i
Ġgniv ah
e ca
Ġwa s
k cu
i p
Ġse od
inrof ilaC
s ni
3 102
dl uo
n y
8 002
Ġlanoita n
Ġ T
Ġgnid liub
ni F
Ġelb is
uo S
si rp
ne r
Ġwe nk
Ġde pp
Ġec no
4 102
yo R
Ġh gi
Ġtsi L
Ġel gnis
cel loc
Ġdene po
nia m
ya d
er ut
Ġla nif
7 002
Ġt lef
Ã Ń
Ã ¼
wor g
no h
ta c
er ht
Ġnoit isop
Ġs dne
Ġya s
me f
wa l
Ġsre bmem
Ġs n
Ġy ek
Ġ2 1
" .
sa B
Ġyna pmoc
b A
Ġeta l
lbu peR
curts noc
Ġd riht
Ġt ce
lu a
5 102
gni K
ya w
si M
Ġ, .
Ġnet fo
Ġ M
i na
Ġssor ca
Ġ 81
Ġgni r
t on
Ġe do
mi T
Ġdni heb
Ġdl row
Ġe uq
ru T
lu ci
we N
Ġst hg
Ġde dulcni
Ġa r
Ġela m
ru B
Ġwo hs
y el
Ġne vig
Ġm si
Ġt ra
lim s
u lf
revo G
g b
me D
y lla
6 102
tneserp er
Ġy en
ed iv
Ġnoita ts
ruo t
t I
roloc gb
diser P
4 2
o M
i M
ssec cus
y c
la P
ti b
dnuo rg
rev a
Ġne mow
re n
re boR
Ġma illiW
Ġp leh
r I
ni g
Ġ1 2
k u
7 102
ah C
Ġeva g
Ġdnuo rg
Ġa ta
6 002
er tS
Ġde de
or t
Ġy cne
dnuo r
ro m
Ġla nigiro
p so
il s
Ġtse w
Ġa ma
t cirts
Ġega lliv
Ġnoita mrof
er f
Ġdlo t
Ġgnika m
lo vni
2 2
hta C
Ġeg ro
Ġna ilartsuA
Ġtno rf
ĠĊ ĠĊ
Ġgniv il
tsa c
rtsi nim
pa C
Ġgni s
Ġy no
Ġel p
ma d
Ġgni hc
Ġsei ceps
8 102
Ġ5 1
s no
n O
ta ts
ss or
. "
iv erp
Ġro jam
s le
g g
ya m
Ġnet tirw
i V
ra uq
Ġne po
Ġgni dne
Ġdet rop
Ġ K
Ġeci ov
Ġ F
mo hT
ico S
Ġfles mih
Ġd rof
e re
hsi lbatse
Ġdek row
Ġla noisse
s p
tu a
Ġla itne
me tsys
Ġhta ed
g nA
Ġne hW
Ġemo ceb
ts op
la V
trop mi
ma C
ef il
ih sre
ub ir
Ġdet niop
mu S
nuo M
s tsi
r C
ngi sed
Ġna idnI
eu Q
vo l
na lp
dis erp
sa e
so l
mi na
d liub
ri F
Ġa ci
Ġylla i
rt S
Ġd nif
ihc ra
si pe
Ġde unitnoc
pp us
l lA
w T
ve R
Ġylla er
e ne
Ġht la
Ġde cudorp
Ġ B
it sir
Ġi a
Ġne v
i F
i cS
er cs
Ġna eporuE
ka m
Ġlai co
ne S
Ġeti s
s htaed
Ġs dnah
na rt
lbu P
nam rof
c nuoC
raes er
Ġe dulcni
Ġbu lc
si D
m ra
Ġ r
Ġ O
el yts
el A
Ġdeir ram
Ġo ida
Ġla yoR
Ġrehte got
Ġlare neG
ruo C
Ġna S
ruo f
Ġne es
Ġel tta
l E
Ġesuo H
Ġen O
lp me
mo W
cna rF
b mu
Ġ wor
mo m
Ġ 91
Ġtso l
b ew
Ġla rut
Ġrewo p
Ġgno ma
or ts
Ġtsu m
no pser
mo d
0 002
Ġeg elloC
o P
reb me
noi si
Ġt niop
s ret
Ġhgi H
Ġse ni
iti ni
la S
Ġde raeppa
5 002
Ġdenrut er
itep moc
o J
b ma
Ġdec nuonna
wo p
t ra
Ġhguo ne
Ġnai danaC
Ġ1 1
Ġx is
so J
no d
Ġlle t
pi cinu
loohc S
Ġdeni oj
e z
Ġgni wo
3 2
Ġsema J
t t
mia lc
0 4
Ġ ih
Ġsuo i
Ġthg im
Ġ E
ba l
c cA
Ġnot gni
ts ni
u ce
too F
Ġni w
uo L
c co
tne ve
c sid
hgua d
Ġt fa
er F
n re
nam reG
Ġm k
5 81
se it
m E
hci R
âĢ Ķ
or tni
ca rp
Ġwe iv
Ġyt nuoC
Ġn ur
Ġdeta erc
h P
va N
t its
Ġegro eG
Ġrehto m
se uq
ila tI
tne me
Ã ¶
esuo h
me es
Ġ bo
rts u
tte s
Ġme tsys
Ġec it
n revoG
Ġnre tsa
Ġtsom la
Ġsse n
t f
m si
k roY
Ġe gnahc
o lf
e la
Ġlanoitanret ni
Ġa n
02 02
Ġdet cele
Ġ0 3
Ġ6 1
gi f
Ġ4 1
Ġse no
cen noc
y golo
v el
Ġde ga
Ġsyaw la
Ġsuo irav
Ġnoita icossA
Ġev ol
Ġse ci
ne H
Ġsya d
Ġsp ihs
Ġla citilop
Ġev ig
dro ceR
b mo
na v
g nu
ga M
Ġmo rF
Ġs rot
lim is
ico ssa
6 2
Ġeso lc
hc ti
Ġtnem trap
va el
Ġda or
Ġre vi
Ġs ht
co v
it se
Ġtsa E
Ġnoil lim
Ġde zi
meda cA
ci lp
itsir hC
Ġs cit
or w
ta l
gni S
p er
uo d
Ġgni ti
g ral
vit se
Ġa c
Ġyaw lia
Ġlaci golo
er ga
le c
ra t
Ġeci vres
ri c
Ġtro hs
ri V
ro lF
te n
4 002
uo rG
Ġega ugnal
Ġre tsa
re erac
Ġts riF
lo r
7 2
e tis
Ġa l
Ġtrop pus
Ġdro cer
Ġna mow
ti m
Ġne kat
u c
ci V
Ġgnik row
noi ger
pme tta
Ġf lah
Ġkca lb
ro P
ma et
h pe
Ġn wor
Ġgni ya
y re
va eh
uo t
Ġra c
8 2
Ġev il
ca M
xe M
te g
re J
Ġdi vaD
Ġtsa el
u L
Ġre k
Ġyrati lim
Ġ3 1
Ġnois rev
Ġsk row
Ġt ser
ro me
ce p
rt cele
r w
ĠV T
Ġo i
ir ra
va rt
Ġlare neg
cud ortni
nwo t
y rotsiH
se c
Ġx a
Ġtse B
la e
cet orp
uo c
Ġ ir
Ġet ihw
Ġde il
Ġret teb
Ġre erac
id e
ne d
la s
Ġese hT
Ġ7 1
ef ed
re T
Ġydaer la
et ti
Ġla tot
r E
p y
ih P
dra wa
t to
yh pargo
i vo
Ġyl t
dni w
ra K
Ġo ga
namrof rep
lle w
# =
vit ca
ve D
Ġm ra
0 991
r co
la B
Ġs ruo
fo s
b moc
so pmoc
u darg
di M
Ġre i
ta M
Ġo r
di vid
hsa W
l y
Ġnois sim
Ġra w
ne p
Ġa m
no r
Ġgniht on
u h
er C
tne mu
Ġelo r
ri A
Ġta erg
la c
tsis noc
Ġtsi la
Ġs y
ru h
Ġdehca er
ro s
ah S
Ġl lA
Ġesa c
re tnec
u D
ta P
re V
i me
po c
no D
Ġgniht yna
Ġdra h
ih S
ida rt
ra hs
Ġy B
mu la
Ġym rA
Ġkca rt
A C
e nil
dna b
f les
Ġyro tsiH
Ġlanoisse forp
so R
me t
Ġsse c
Ġh sa
n hoJ
Ġs l
Ġg nuoy
Ġt ni
re M
Ġser ut
Ġre yalp
Ġgni yalp
Ġsgni ht
Ġy rots
i S
mono ce
Ġdra ob
Ġreht ie
y rutnec
Ġhsi na
Ġnoit ca
3 002
Ġs ts
Ġedis ni
Ġde revoc
Ġgni p
Ġgnik ool
ma il
e suM
Ġri A
nwo d
k ram
Ġle ah
Ġese napaJ
Ġ5 2
Ġpu C
ro htua
ti ug
li b
Ġsema g
dno ces
Ġre dna
go cer
4 81
Ġgni dnats
ĠI I
Ġelt it
Ġ ga
ge L
Ġle ef
Ġsk nil
Ġdere disnoc
Ġo ediv
Ġy rotsih
ru m
f noc
Ġt reboR
co f
Ġtne diserP
pi citrap
Ġl ua
e da
Ġse di
uq ca
nhc et
it lum
Ġtna tropmi
âĢ ľ
Ġl luf
Ġde sop
llo c
Ġelba t
ro ps
ra el
Ġna r
9 2
nia S
Ġde ma
Ġ Ã©
k S
Ġhguoht la
ni hC
Ġel d
Ġpe ek
er cni
a ci
ets ni
Ġdetniop pa
Ġtne s
wa rd
a na
Ġse su
Ġde dnuof
Ġg nu
itne di
v irp
Ġlo rtnoc
xe T
n s
Ġci fi
suo h
rec noc
no dnoL
Ġe il
Ġreht ruf
Ġst rop
Ġda el
lih P
e reht
mi S
na pmoc
Ġgnika t
n nu
Ġma h
cud E
Ġht iW
lo V
Ġtcirts iD
Ġci lo
i P
Ġhtuo m
ro ta
divid ni
Ġtcirts id
lo iv
ro T
ma h
a is
Ġse il
Ġgnidro ccA
te M
e rof
Ġdet cerid
Ġli vi
Ġde ve
Ġetu tits
ir T
Ġyt raP
Ġet orw
da M
g A
ya M
Ġgni moc
cif in
de ta
2 002
a ilartsuA
lu r
v orP
we J
Ġra f
el ba
Ġ0 102
s ita
el loc
1 002
nuo m
Ġde wollof
Ġn A
Ġa t
Ġstne me
no sre
Ġs po
Ġsm ra
yti srevinU
Ġd row
0 891
sei res
ico s
Ġ ua
lo H
ro B
Ġdlo h
Ġna muh
e tS
Ġse cnerefeR
elb orp
si a
| |
Ġdoo ts
i li
Ġne rdlihc
noipma hc
to v
na p
gro eG
c noc
Ġde solc
Ġ N
nois sim
i ceps
di a
ulf ni
Ġna ilatI
Ġwa l
Ġn u
lev el
12 02
Ġde drocer
Ġse cna
Ġssa lc
j ni
yo lpme
du j
Ġden gi
ru S
Ġlai ciffo
Ġci suM
sy hp
mo h
Ġgni lle
Ġeno d
Ġgni hca
tne v
Ġa k
d leif
Ġsre yalp
ci ffO
ce ffe
Ġ /
pe ts
Ġno os
gni f
Ġdraw A
ne mow
Ġdehsi nif
nif ed
lia f
Ġnoit cudorp
Ġtsa c
yti C
Ġllab tooF
ti L
a inrofilaC
Ġeer f
da orb
Ġti b
Ġevis ne
Ġs ra
bu lc
eu ga
eni gne
lia va
Ġnais suR
la C
Ġht ron
Ġde cna
nruo j
rep orp
Ġdna ts
Ġse y
te pmoc
Ġeti p
i G
nua l
Ġs dnal
Ġgni K
serp xe
pa p
ret nI
m lif
Ġ2 2
Ġnretse W
irep xe
re fer
Ġrevi R
ro ba
ut ca
it er
Ġsdra w
de t
Ġlar tneC
ff us
ci sum
Ġrem muS
Ġsse nisub
lo h
dl row
Ġde ret
y rt
doo w
t raM
g il
Ġes ruoc
Ġd nim
Ġa L
i re
ci lbup
Ġsel rahC
ĠS U
re hta
Ġylra E
Ġhcru hc
Ġtne serp
Ġk cu
Ġhtuo s
Ġde poleved
Ġsd row
se v
Ġtnem poleved
Ġthg ua
Ġd r
i leb
mo ceb
ra E
Ġedis tuo
ih ca
' m
Ġreht O
le D
tsis sa
Ġde tse
Ġpo ts
po t
Ġte m
Ġde i
Ġdoo w
nia r
rtsinim da
Ġp ihsre
Ġ8 002
Ġyl luf
Ġytili ba
m I
Ġgni hsi
Ġe rif
ĠC B
ce pS
Ġri ah
fa s
ruo s
Ġ6 002
Ġdet elpmoc
re de
bab orp
Ġdra wot
Ġs de
Ġse tu
Ġdnuo r
u H
dneped ni
Ġs lle
Ġeno emos
rap es
to hp
il ihP
Ġra limis
Ġsa mohT
Ġ1 102
Ġeci ffo
ssor c
cnu f
e ma
na g
Ġyti nummoc
Ġd raeh
Ġnoisi viD
el s
0 791
na l
Ġno dnoL
s noc
Ġse u
Ġ =
d rof
Ġe ne
Ġgniy rt
Ġthguo rb
Ġeru ta
su s
ta L
da l
le gnA
Ġgni le
Ġda er
tsir hC
ci d
cet ihcra
ya lP
cifin gis
9 991
hc ru
in mula
Ġdne irf
Ġs ria
se ni
Ġyt rap
Ġ4 2
Ġtub ed
nu mmoC
pma xe
lae Z
c rem
Ġtne mom
ero K
r y
Ġle vel
draw A
pm is
Ġed iw
cel E
n gis
ma S
Ġlua P
Ġro sse
tro ps
ila uq
x o
Ġel ihW
ecna rF
Ġyra m
e uq
Ġes ne
Ġdelli k
in gocer
Ġlaico s
e es
Ġla tne
Ġleah ciM
u lo
dnuo s
Ġre l
re til
0 6
Ġno pu
u M
e y
d er
ĠC F
re ts
Ġeb yam
Ġk sa
Ġot no
s cit
3 81
k il
po ts
t ub
ubir tnoc
Ġo ni
no riv
Ġde irt
Ġtsi l
Ġt raeh
Ġli cnuoC
Ġs rae
f il
rco meD
dluo hs
eta ts
Ġyrt nuoc
Ġhcru hC
rev iR
Ġt rats
m y
Ġsi r
Ã ¤
Ġa y
gg us
Ġe e
h po
ceps er
Ġs to
Ġno mmoc
t no
Ġe du
Ġllab tek
Ġev om
w sna
d el
Ġy rot
Ġe a
Ġ2 102
d ir
Ġylla nif
cer iD
Ġeva el
Ġtuo hguo
Ġhc raeser
im S
Ġstnem hsilbatse
Ġe li
s rot
Ġstne duts
picinu m
Ġo c
tsi xe
cud noc
Ġde ppa
Ġse cne
Ġdedi ced
v rus
no H
Ġef iw
Ġa ne
nni w
de wS
ra n
Ġht e
Ġta erG
le M
Ġra lupop
Ġyllau su
Ġelbis sop
ce ip
Ġ0 01
p mi
Ġwo lle
Ġte y
ci hC
a rt
ir cs
f ni
ja M
Ġno srep
k ni
tcirts iD
Ġt ol
Ġgni dael
p O
Ġdenia mer
not gni
Ġda etsni
Ġ ba
va f
er I
il rae
gno C
Ġlla c
lu b
Ġnrut er
re g
Ġtsa e
ru C
a pmac
Ġese nihC
dnu f
or ht
Ġlare de
Ġna moR
Ġto hs
Ġet uo
8 991
Ġdez ila
x elA
Ġtsa p
ht A
le R
Ġt reb
pa hc
tso h
pa r
Ġ) (
ne b
0 8
Ġt ih
Ġreht ar
o morp
ca J
hc ra
se mag
Ġtne rruc
Ġla er
Ġ7 002
ye k
f orP
sm ubla
cej orp
Ġreht orb
f if
Ġret hguad
ca b
se iti
Ġa iv
y ro
lo raC
Ġgniht yreve
ri m
llo r
ht e
Ġ9 002
Ġnoit ne
dna lgnE
Ġeci v
d iw
ru F
d li
Ġela mef
lla f
lu B
Ġyti ro
Ġde tsil
hgi H
a idnI
Ġdo irep
ĠĊ Ċ
Ġm ret
Ġse calp
Ġk raP
pu r
z ti
Ġera c
ne B
Ġgni od
Ġk rad
d nA
ei leb
Ġnoitamrof ni
Ġdengi sed
7 991
Ġh o
ht ron
Ġemo S
kci uq
ci r
Ġgnin nur
Ġyl baborp
ra S
ruc co
Ġht gne
a ma
la na
Ġsuo re
Ġk cor
b b
id noc
a danaC
Ġhc tam
nwo T
Ġ3 2
Ġse g
Ġy hpargo
ra D
nu H
Ġde dda
do ht
Ġ0 5
era C
tf el
nig riV
Ġyle v
Ġ4 102
ma c
Ġs si
is sa
do t
s ma
Ġs nois
ar sI
Ġbu lC
Ġle u
Ġlai ceps
Ġf le
ne rdlihc
tsa C
Ġsre hto
nu h
cni rp
Ġeuga el
se ga
fe D
Ġy ca
Ġwo l
Ġnaci rfA
Ġe nim
tne g
sre h
Ġde gnahc
el f
Ġtne i
Ġd n
Ġylla nigiro
ivo S
Ġa lle
Ġna e
Ġd la
Ġdna rG
uce xe
Ġdemrof rep
Ġnoit cele
Ġ it
u tis
Ġyllau tneve
e mag
Ġdeta ler
6 991
Ġdlo s
dra h
idu tS
Ġtnemtrap eD
Ġno inU
te em
0 691
Ġevo ba
p A
id ua
ru M
Ġ" ,
ci dni
Ġdede en
Ġde noit
re te
Ġevit ca
ci xeM
Ġde lle
Ġo T
Ġdewo lla
ruo b
mi x
Ġnev es
rc ria
Ġecne ref
Ġseci vres
y namreG
rep us
Ġdel lup
Ġci pmylO
Ġs tse
za rB
za gam
Ġso L
Ġte ef
Ġnoita ni
ni W
Ġ ]
wo hs
na hc
wo l
ir g
Ġnretse w
Ġcilo htaC
t erp
Ġsma et
Ġde dna
Ġre ts
ro H
Ġdoo lb
o wt
g ur
Ġgnik ni
nne P
g itse
Ġega reva
z z
revewo h
Ġy de
Ġel c
i N
lat I
Ġ3 102
Ġtse gral
Ġden wo
h K
a ta
Ġgno rts
s te
Ġs noi
ir F
na P
Ġhsina pS
Ġa edi
Ġ6 102
s A
Ġ Ã
li S
lli V
Ġsya s
a era
Ġyr neH
e sa
l I
Ġre H
Ġdni k
Ġl rig
Ġoida r
k raP
e na
5 991
Ġrot cerid
Ġdnuo s
Ġeci lop
Ġe id
Ġsdra wot
s ts
ĠĠĠĠ ĠĠĠĠ
Ġetutits nI
Ġt ruoC
Ġrae Y
Ġgni lli
Ġse dulcni
Ġde mees
s ta
Ġ5 102
Ġylla ci
Ġro olf
to p
ra G
Ġs lli
Ġthg ie
Ġw erd
ht uos
ret fa
Ġd le
Ġp uorG
Ġ- |
Ġstne ve
Ġde x
a ciremA
orts ed
man ruot
tse W
s ti
* *
Ġla tnem
Ġelba liava
Ġyltne rruc
Ġeno ts
Ġe etti
Ġnre dom
se b
Ġde cne
sre llabtoof
Ġa re
Ġ: )
se ma
Ġsht nom
le t
Ġs mrof
y te
Ġsemit emos
su h
Ġ G
pihs noipmahC
u rt
Ġtne ve
Ġdetrop er
Ġna em
Ġdra hciR
ri B
Ġ c
Ġtuohguo rht
Ġllab e
Ġy medacA
Ġeta virp
cep se
Ġdev lovni
su B
Ġt S
Ġ0 002
Ġst niop
Ġa is
Ġnoita cif
Ġno sa
tro hs
Ġpihs noipmahC
Ġse lc
Ġht rib
Ġf f
Ġtne diserp
Ġde hsu
so M
x es
lo S
Ġna itsirhC
Ġesa eler
i ro
Ġsp il
noita ler
dna rg
b is
Ġre teP
e ka
4 991
Ġde ya
rae n
Ġderu taef
Ġretsi niM
s si
eg elloC
Ġci rotsiH
Ġseru taef
Ġstsi la
Ġte ivoS
ra tiug
Ġy gre
Ġde drawa
Ġni l
rof fe
Ġtro ps
Ġyllai cepse
ew s
Ġep yt
Ġt rA
x is
reta l
Ġ6 2
l ys
Ġte ertS
Ġt caf
ev er
Ġ8 2
Ġy duts
Ġgninni w
y rotsih
tu f
uq S
tir B
Ġlar tnec
sci pmylO
yti la
po h
Ġy ks
Ġret carahc
E N
v E
da or
A N
Ġde ssap
nimo n
Ġg ib
Ġe gna
Ġm liF
Ġkca lB
d le
Ġna b
Ġdecalp er
ci lop
lu ger
Ä ģ
Ġec rof
Ġa ra
er B
hg if
re ted
Ġecni S
rep O
Ġta es
Ġ7 2
Ġeca r
Ġma rgorp
dnal sI
2 991
yti c
la b
Ġgnit teg
Ġsuo iverp
la m
g nE
m ubla
pu cco
vitse F
e cni
e man
Ġre dne
ĊĊ Ġ
Ġega ts
Ġnoit curtsnoc
na moR
utits noc
Ġmo d
ne D
bu S
g id
ci h
0 7
3 991
sa em
ir C
lu C
ir O
rap moc
ri ps
Ġde R
pe ek
Ġsk e
irt nuoc
ca tta
Ġde la
Ġyl kciuq
ti de
Ġsa era
oo B
Ġhguoht lA
Ġdna lgnE
z ila
Ã ¨
do M
Ġ5 002
Ġtne ps
Ġd nu
mail raP
tu D
Ġse ca
ne moW
Ġecne di
pu S
Ġre fer
Ġeso hw
Ġsgni dliub
Ġre tse
Ġdero cs
Ġde cudortni
Ġdev il
Ġ4 002
caf u
Ġde vorp
uqes bus
Ġlla f
Ġdec rof
ruo T
Ġegd irb
n ys
Ġt luser
ihc rA
i uq
O C
rot ciV
ĠĊ Ġ
di rolF
rep xe
er T
Ġyti ru
ed is
w w
Ġtpe k
Ġa id
va l
o G
irts id
ih sa
Ġne k
idem mi
Ġnoit ces
Ġst I
d erc
Ġpe ed
nosre P
Ġfle sreh
yrt nuoc
Ġngi sed
Ġdraw rof
Ġgni ro
cud orP
a k
ca P
Ġre gnol
Ġ U
pa ps
na rT
thg ir
5 3
sser P
ro cni
te s
0 9
hgi en
lo f
did nac
Ġt oo
Ġsei napmoc
ne M
Ġk lat
0 81
Ġyek co
re wop
Ġyro ta
hgua l
nuoc ca
Ġi na
Ġer itne
pm E
Ġde rut
1 991
ssec orp
do irep
Ġsp uorg
d du
Ġek o
mo r
lla G
Ġt cA
la p
Ä ĩ
Ġgni na
Ġse lp
Ġ8 102
ssa M
uo D
Ġgni vael
Ġnreht roN
mu H
rap erp
Ġdedi vorp
Ġsetu nim
Ġde mialc
ub irtsid
reb iL
Ġedo sipe
y limaf
sna i
ta lp
Ġe gnar
C B
Ġdno ceS
cer p
wo nk
id los
ke ew
pu C
Ġde ra
o ga
Ġes le
er i
Ġgninia rt
dlo G
" (
a S
dne irf
Ġe lims
mo or
gni l
se toN
dnuorg kcab
Ġdesi ar
Ġs us
Å į
g ed
nhc eT
nav lys
Ġylla utca
mil c
u R
Ġfles ym
Ġ vo
or T
Ġyl ba
Ġeno g
er P
noit cele
Ġlla w
dno w
Ġ xe
Ġniat rec
ih T
nu t
pso h
Ġel liv
Ġtcej orp
Ġeca ps
ĠâĢ Ŀ
ih xe
Ġ7 102
itne ics
Ġn ug
Ġelo hw
Ġ9 2
Ġx o
ht la
Ġsro ta
it rA
rae seR
Ġna v
Ġhsi rI
ci l
reht o
Ġye nom
gitse vni
Ġyl thg
Ġev eileb
Ġgnin rut
citi loP
Ġyl tna
p ircs
Ġci no
Ġlla H
Ġec ud
Ġgni ni
navlys nneP
na e
na rb
r M
il E
Ġne et
Ġtso M
Ġsna em
Ġ 9102
o re
ret carahc
ral C
tne ser
Ġyte icoS
Ġyra rop
g ga
vo mer
Ġred rO
rp S
ni w
Ġsm liF
Ġo wT
Ġda ed
pma C
mix orppa
ci m
nu g
ĠK U
Ġdek law
ne P
weiv er
Ġgninni geb
Ġ ca
.. .
li ba
le m
Ġta s
noita n
Ġhca oc
Ġpo hsi
srev inu
lih p
Ġs di
Ġ02 02
Ġt nuoM
ba L
Ġht ruof
ni dro
re ser
st na
dnuo F
Ġyl gni
l si
m m
reta w
ni t
Ġy ru
ta C
Ġthgi ew
Ġdeta ts
9 891
Ġci lbuP
6 3
nu p
Ġeno hp
Ġnoi ger
Ġsnoita ts
Ġdere tne
la G
Ġs dna
1 3
Ġkca tta
ir ram
l snart
Ġedi vorp
Ġnoita cude
Ġre tnec
Ġre pp
Ġf lo
mo t
b i
0 591
lla w
Ġda oR
Ġeg elloc
Ġtno d
Ġse nil
Ġno m
Ġri S
bme M
it ua
nimo d
rg im
Ġy da
Ġno r
hc rup
re yalp
no ts
Ġre tneC
euga eL
Ġe mu
Ġci lbupeR
sre tirw
sse nisub
cna c
c rep
Ġrae h
lu citrap
S I
d irb
Ġel yts
Ġdlo g
Ġlai ciffO
s dra
tni op
nna hc
ts om
Ġthg if
Ġh su
Ġwo lla
txe t
crem moc
dnuor rus
rop rocni
Ġmu esuM
Ġne d
si mmoc
Ġla gel
utits ni
li p
sa m
lla ms
c nuoc
Ġs yalp
uqer f
m ron
y C
Ġtnem nrevoG
ri G
Ġlaru tan
nuo Y
me hc
Ġeta ir
is rev
y M
li zarB
sse n
tta b
sa C
Ġluf sseccus
it ca
Ġralu ger
wa L
go l
Ġtse t
ta b
Ġeka L
e hs
te p
cud er
Ġret u
Ġdoo f
Ġgnine po
Ġs loohcs
Ġdeta efed
kci rc
Ġst rap
ts ug
ih p
Ġya ts
etis bew
Ġeer ged
Ġno ts
Ġdedne tta
z ne
noriv ne
ra tS
ani hC
Ġse d
Ġy ob
Ġsdne irf
Ġdl ihc
Ġya ko
dd us
Ġse s
Ġa tna
cit irc
lupo P
g rub
cih ev
Ġylsuo iverp
le H
Ġnotgni hsaW
paps wen
Ġsruo h
Ġde dd
Ġsthg ir
Ġno sre
p yt
luci ffid
Ġ X
Ġse kam
Ġgni vom
Ġeno la
ci de
Ġylrae n
dno pser
ma H
Ġdep pots
4 3
Ġlle f
i led
Ġ2 002
00 1
a M
Ġrewo l
Ġda b
Ġnoit idda
y H
Ġf fa
ĠA F
p irc
wo H
Ġy tu
Ġ W
no sirp
Ġsec rof
Ġyl ne
cafu nam
8 891
o L
meda ca
Ġa es
ka P
Ġde lb
la ti
wa H
Ġgnis sim
Ġtu c
Ġmo hw
Ġez is
x O
e F
hca m
il c
Ġllabtek sab
Ġswo hs
re k
Ġ3 002
Ġse kat
Ġre tirw
Ġke ew
er ihs
Ġrevo c
rb iL
Ġs gnos
Ġt ruoc
f lah
sa w
Ġgni tirw
wo h
co L
ls I
rtsu dni
yna pmoc
Ġsre ht
Ġet ihW
Ġnai g
Ġa d
wollo F
Ġsev ita
no il
o me
Ġnreht uos
g E
nuo ma
irts uA
ka erb
el liv
Ġgnivi g
Ġsei ra
Ġhsit tocS
se s
f rep
Ġgnin rom
7 891
Ġssec orp
r re
lli M
Ġh pe
3 3
ni L
pe D
Ġyawlia r
Ġde tneserper
wor c
cu L
l k
A R
lo hcs
po le
Ġdedd on
Ġnreht ron
z iti
Ġec namrofrep
ih ciM
si cnarF
Ġ1 002
a t
tir ret
pp ilihP
y en
Ġke erG
su csid
Ġyna pmoC
ts rif
pac se
Ġla nosrep
r ga
Ġde da
Ġdene ppah
Ġg rub
Ġrev ir
Ġdoo h
Ġa idem
Ġder ref
du J
Ġet elpmoc
no loc
to m
Ġde tne
Ġyawlia R
y raM
dra ger
Ġgni di
4 4
hsi lgnE
Ġhsi weJ
Ġgnidro cca
te B
Ġgni wolloF
Ġs droceR
ys p
Ġerut curts
i ni
Ġla ed
Ġtn did
Ġa idnI
ia rts
cna nif
Ġre tsis
saer cni
6 891
9 71
u p
k U
Ġ; )
Ġeltta B
Ġstne rap
Ġd uo
Ġlli k
a m
Ġnreht uoS
gnar ra
Ġa h
le arsI
gno S
u j
ih O
gni k
Ġde iduts
7 3
ut roP
Ġx es
noita ts
Ġgniya s
Ġdesu ac
Ġelpo eps
Ġtna cifingis
Ġsuo ig
ta N
ra F
ht roN
5 891
Ġyleta mixorppa
bmu loC
Ġtse retni
or C
Ġlu fe
Ġa inrofilaC
Ġrem mus
Ġf I
Ġde ka
ci lf
00 0
Ġsu ht
el po
les meht
thg il
e se
Ġy M
Ġdl O
t fa
mu j
Ġt er
t lu
wo ls
8 3
Ġhta erb
Ġna lp
s tnem
dnu h
nai p
Ġyl tsom
t noM
Ġgni mrof
Ġyrati liM
Ġsk oob
5 4
Ġer ta
Ġgni pp
Ġro jaM
A S
ruo y
tsu c
Ġgni de
tib ah
tnemu cod
Ġa no
Ġdep leh
ma xe
Ġyra ter
mer P
h R
ra L
u l
Ġeta d
Ġeru tuf
Ġata d
Ġst rA
Ġgni moceb
aci rfA
va s
u T
r K
Ġci r
m ys
ma rgorp
Ġdehc nual
sac co
Ġy vaeh
cni rP
i si
D I
Ġte em
ha M
cej bo
Ġdenia t
k oob
o S
Ġtfa rcria
Ġretsi geR
Ġka erb
Ġa ilartsuA
Ġgni dloh
Ġsre bmeM
Ġhc tuD
v noc
no p
4 891
Ġg reb
Ġet te
iw s
Ġdna laeZ
Ġsuo ma
Ġs serp
Ġde na
uo Y
ce hc
o va
te N
Ġre gna
lle c
hg ie
Ġuo Y
Ġre dael
re tsa
Ġtsa f
Ġre hgih
Ġsema G
Ġhpe soJ
po da
Ġes rev
Ġcita rcomeD
eni gnE
Ġlanoit idda
Ġs lia
o nil
Ġnoitne tta
mo T
e vi
Ġde ganam
Ġama rd
Ġ0 4
Ġ1 3
Ġg iB
Ġlai re
Ġyle kil
Ġre ilrae
Ġy k
dna L
Ġeno yna
li caf
cilp pa
Ġeu rt
Ġs rev
pole veD
Ġlanoit idart
Ġlivi C
Ġy rtsi
Ġe to
rbe lec
Ġyl bme
Ġgni vres
mu rd
Ġsk na
Ġlaci sum
Ġsre gnif
Ġse da
niar kU
ta ert
Ġyram irp
Ġe nif
lima F
su a
Ġo iduts
Ġs nur
Ġse moc
Ġla og
to h
Ġeu lb
Ġgni teem
Ġfe ihc
Ġgnit rats
rg et
co D
ce B
re l
re tse
Ġec roF
Ġy es
se do
va n
e erht
h parg
3 891
x ob
Ġtna em
Ġeno yreve
eh S
sna rT
Ġyra M
cit carp
u dni
Ġecna rF
gni t
Ġgnile ef
Ġgni si
Ġgni b
Ġsna i
u P
Ġhtla eh
Ġse ka
mod gniK
onil lI
Ġs me
se no
Ġtne dnepedni
tsi kaP
Ġdraw dE
Ġno si
pa ew
Ġa la
Ġsse ni
u lc
Ġwo leb
Ġde lims
ir A
Ġecne icS
Ġre f
lla hc
Ġy ev
tso B
Ġa ti
Ġetip sed
e K
nruo J
Ġtne di
pa da
ita p
Ġla noi
e hw
z A
su hca
Ġdere ffo
Ġret tam
Ġtse hc
Ġst rops
Ġdeir rac
Ġseta ts
Ġtca rtnoc
na S
o mo
Ġfe ihC
ta S
Ġylla reneg
Ã §
e ti
l it
te mo
nim ret
nret nI
Ġef iL
Ġdeta icossa
Ġesa b
Ġt niaS
Ġni ks
Ġa z
Ġgni la
c sa
tu O
E C
rts ni
Ġlaci dem
Ġsti nu
Ġhc raeseR
Ġcit si
hca oc
e si
thg in
y cne
p E
yo B
rts ehc
Ġy f
Ġsdraw A
te suhca
i ks
tneg rA
o V
Ġeta r
cart ta
Ġeld dim
Ġsnia tnoc
ma R
y eb
tne wt
Ġd og
ps ihw
2 891
tneser peR
Ġtsa eht
Ġes nes
k A
Ġa to
ne R
ci n
rome m
Ġdeve ileb
tesuhca ssaM
Ġs wen
Ġnoita cudE
Ð °
i T
ah T
Ġk ram
Ġrehte hw
iv itca
wo B
ne tu
Ġelp itlum
dnuo b
Ġe in
Ġnais A
im erp
tsug uA
i lo
ssa b
sse cen
Ġhca er
Ġa ciremA
Ġa danaC
lia R
Ġnretsa E
Ġtne mu
Ġderi uqer
Ġre nni
Ġylra lucitrap
Ġthgua c
Ġle von
s so
Ġde lia
il b
hc rA
za g
na rg
Ġbo j
ge ta
o D
Ġkoo hs
u dividni
ya l
nim reted
na ps
9 3
P M
u ga
Ġno v
9 791
rev noc
p U
de b
e vo
Ġro r
Ġm ia
Ġdeta repo
Ġeti uq
Ġlle h
ga mi
u gni
ts yS
tu m
ral ced
Ġs ub
Ġsnia t
Ġdet on
noc E
le da
p lu
Ġtse hgih
t elpmoc
Ġdnal sI
Ġle dom
Ġelp uoc
to b
pme t
Ġno saer
y ortsed
cita me
nu D
e sum
da r
Ġa lo
Ġtpe cxe
rb il
Ġhci r
s gnos
ya B
Ġdetce pxe
cit ra
sse m
Ġfles ti
Ġyna M
Ġgni nna
nret la
Ġoida R
Ġnoit celloc
rep uS
Ġk raM
la T
wo n
rif noc
Ġgni da
si uoL
Ġdet tim
Ġra elc
9 4
Ġsse cca
Ġgni g
Ð ¾
Ġhtgne l
no ga
ne et
I F
Ġha ey
Ġyleta idemmi
Ġgni rb
f noC
Ġt il
Ġse b
1 891
tne s
Ġygre ne
se ht
Ġne erg
Ġreht ruF
Ġ9 991
Ġra tS
Ġy vaN
ta W
p uorg
R A
mi L
Ġgnit rop
5 7
Ġeta erc
r U
Ġsm lif
mo nocE
suo ht
tek ram
tto b
doo W
ta ht
ea di
Ġnoita ti
Ġdere dro
a C
Ġpihs noitaler
y latI
Ġroi nes
nne T
Ġsuore mun
ga naM
Ġeni n
Ġci monoce
Ġlau nna
a n
se hc
Ġdetce les
ina D
m k
Ġani hC
Ġhc ti
Ġev res
Ġnoisi vid
0 491
siv id
Ġyle telpmoc
rem rof
se J
sse l
ro ht
Ġs sol
Ġwa L
0 391
Ġdev irra
Ġte erts
kco R
hpe tS
Ġna paJ
Ġecna raeppa
Ġnretsa e
Ġym ra
e calp
el pmaxe
r ps
Ġs raeppa
Ġse id
su sne
Ġeetti mmoC
ira t
Ġecit su
Ġecna tsid
Ġer ihs
Ġdnal si
da oR
Ġdeti mil
s dnal
si W
s d
Ġse va
Ġcifi caP
b O
Ġske ew
nar I
er if
Ċ Ġ
pso H
de R
8 791
el ttes
citame hta
Ġgni yl
le u
h se
Ġsu neg
ta erg
uo y
Ġla v
Ġa da
Ġx ob
Ġa dna
Ġa j
kna rF
b ed
rp rus
Ġdet ca
Ġria hc
re tne
Ġeciv reS
ub lA
netu e
de ti
py gE
Ġdepp ord
Ġsuoig iler
vres noC
roba lloc
y le
ep er
y R
civ reS
tcirts id
Ġs lo
Å ¡
8 4
ser u
Ġyl wols
Ġlai cremmoc
Ġ H
te ertS
Ġdesa ercni
4 791
Ġsi uoL
rehta f
Ġya dot
sa M
ne erG
ruo S
Ġma eT
Ġylla itini
ca F
li w
Ġo da
du lc
Ġdnats rednu
D C
Ġgnikni ht
Ġdet ti
Ġ v
Ġlau dividni
Ġtne mi
Ġtna lp
/ /
l U
rev O
si raP
Ġnoit seuq
5 791
Ġylt cerid
2 791
Ġssa lg
Ġro htua
Ġo N
Ġde sser
Ġre dluohs
Ġna it
y L
c nI
e e
V T
Ġdro L
Ġde eps
ci nummoc
te D
Ġla irts
y or
lli H
6 791
doo g
" ;
Ġw erg
Ġ) "
de hcs
Ġseca lP
Ġret pahc
ne K
7 791
bis sop
Ã ±
Ġmod gniK
mit se
ci lbupeR
Ġyr ros
no b
le tni
Ġht row
Ġnwo hs
Ġeru gif
Ġ +
nag rO
gne ssap
Ġse do
Ġder iter
Ġnoita col
ht uoS
ya laM
Ġde hsa
Ġlivi c
y T
s po
Ġnoit pe
y es
da orB
ria hc
dloh esuoh
dra G
dna S
Ġya D
Ġ (
Ġdetrop pus
Ġsla i
Ġhsi loP
llo H
5 491
Ġde erga
re tirw
ti K
el cu
ta pxe
la er
Ġte kram
Ġ12 02
Ġlati pac
Ġoga cihC
ir G
so m
tir W
Ġde tepmoc
Ġden rae
y la
Ġy n
Ġya B
pe cca
7 4
# :
hca et
Ġo k
gna B
Ġecne ics
Ġre dlo
C A
Ġk law
Ġdra oB
Ġa rt
tt h
Ġsuoma f
r ihs
Ġsp ah
Ġtneme vom
sema G
Ġla bo
Ġsa xeT
Å Ĥ
Ġsnia mer
3 791
tse w
Ġngi apmac
s ra
ni k
Ġse gnahc
Ġetuo r
g reb
lo B
o K
Ġht imS
g orp
Ġ8 991
ci P
noit isop
ziti c
Ġnoit ide
r m
ra f
Ġti m
hcru hC
Ġssa p
ire tam
Ġder refer
Ġeltta b
sk caJ
Ġeg de
l ya
se cne
pi cnirp
ram irp
s drawA
i k
Ġde tneserp
ro D
so hc
to M
Ġni traM
Ġ *
o ni
ma r
6 4
1 791
Ġnoit itepmoc
g ra
Ġnoisi ced
Ġtne duts
i c
mma rgorp
Ġk rap
nim irc
Ġnoita repo
Ġa mo
Ġri ehT
Ġreg ral
Ġecni rP
hs A
Ġcifi ceps
Ġrae ppa
sser tca
ida r
lu M
la H
s l
' s
Ġt is
rep met
Ġsev lesmeht
8 691
Ġne erG
Ġytiro jam
Ġlarede f
// :
Ġtrop er
du a
ni morp
pp A
na tS
Ġh se
Ġnoi nu
Ġl E
re D
y no
Ð ¸
kca lB
Ġ0 05
rap pa
n nosrep
Ġelt tiL
lp moc
ba B
rop roC
Ġecnedi ve
ime s
Ġn gis
Ġta hT
notgni hsaW
Ġi ra
c rof
yna pmoC
Ġgnit ca
me ni
Ġna g
Ġlaci rotsih
ge tac
lu caf
n wor
me m
Ġdnab suh
Ġstne mu
ci N
5 5
Ġyl pmis
Ġreve woh
Ġgnik lat
Ġre ka
le von
Ġecit carp
Ġeso p
Ġe ussi
Ġa lu
Ġrev lis
Ġgninia mer
gno rts
9 691
S A
rget ni
8 71
Ġdra dnats
Ġsn rut
Ġk cen
ir rac
tta B
re C
Ġt lua
cni tsid
se g
rob hgien
dra g
vo M
itua eb
Ġde so
Ġdehc taw
ta B
nu s
Ġde liaf
cel fer
nahc em
y lev
ug ra
go R
iv ah
d yS
ja R
rae Y
Ġgno H
Ġgno rw
Ġa nna
nai citilop
vitse f
Ġdeta roprocni
Ġe ceip
Ġlai cnanif
tnem nrevog
le T
ret nE
so lihp
Ġt pmetta
Ġl lu
Ġnoita zinagro
Ġeru taef
Ġst luser
ba z
Ġetu nim
b mun
Ġnoita zi
nois simmoc
me ne
Ġn Ã³
nom moC
lb me
Ġtnei cna
Ġser i
Ġti aw
li G
Ġtcej bus
dnal erI
noit pe
esuo H
Ġci f
re dna
it rap
da b
Ġ6 991
Ġde sopmoc
gu rts
ma T
li k
Ġse man
Ġderevoc sid
Ġgni rae
b reS
Ġyltne uqesbus
Ġi d
Ġdelli f
Ġe lif
Ġde le
ba rA
Ġra ts
Ġesua c
Ġero cs
Ġts itra
dni W
Ġrebme mer
Ġssec cus
Ġre puS
Ġevo L
Ġd loc
er D
Ġes nopser
Ġemoc ni
Ġde no
el htA
Ġe eL
h G
Ġyt reporp
Ġdem us
si nagro
el gnis
nu trop
sre bmem
el E
Ġffa ts
Ġnia p
Ġgniru taef
Ġde d
Ġtne mailraP
hg il
Ġnia rt
02 91
k ruT
gno leb
cide d
Ġderi uqca
Ġeda rt
ne po
Ġtso p
Ġylne ddus
rede F
Ġeta rapes
Ġserut curts
Ġp ets
r J
bu lC
n trap
nev noc
Ġyra noit
pa P
g en
lla H
g gi
Ġsev il
ev it
on A
Ġre ciffo
sa xeT
issa lc
Ġstrop S
Ġse e
Ġelbis nopser
rof moc
dl ihc
Ġgnina em
Ġgni w
Ġde ussi
Ġrosse forp
xa t
Ġgniy f
Ġgniti aw
Ġt cerid
Ġni oj
Ġte k
Ġruo h
o h
Ġi ks
sei ceps
ec cus
do G
lua P
Ġspah rep
j da
re F
Ġsm ret
il uJ
Ġto h
sre hto
7 691
Ġnoit ce
Ġeu nitnoc
sla cov
ecni vorP
Ġkca rT
Ġhsi dewS
Ġsret carahc
u gi
Ġegd el
in hc
ais suR
tu B
ta hw
v A
se mit
Ġhc ta
Ġse iduts
Ġst ca
Ġeu nev
Ġy lia
Ġesa ercni
lli B
lia r
Ġsk ool
pma v
c re
Ġgni gni
gno la
na f
re eraC
Ġyl niam
Ġesa e
fe neb
Ġecna hc
Ġe L
ep S
Ġelb i
Ġgni ma
Ġi k
ez C
Ġetip seD
ya D
Ġkci r
do T
Ġwo dniw
à ¤
Ġla noiger
Ġytiru ces
Ġem erp
mi xa
kca B
tsi nim
ht rA
Ġra b
Ġe ye
nni M
e j
8 5
sro ta
Ġkna rF
va rg
e lo
Ġse la
re dro
Ġy ug
Ġna ti
Ġyt nuoc
ni rp
Ġt nuoma
Ġste g
Ġdedne txe
Ġlli B
Ġyl er
Ġeru tan
lu da
Ġsnoit ca
s O
Ġf O
wo lf
o T
y ol
ba rg
Ġngi erof
Ġecaf rus
n g
4 6
Ġdek co
u lcni
Ġgni daer
s droceR
bu r
2 3
lc yc
Ġevita n
Ġdra y
o cixeM
Ġes or
Ġre wsna
y d
no B
de c
Ġti nu
Ġg nuoY
s ruo
Ġe W
cit on
o f
u K
Ġde daeh
Ġsei reS
Ġya p
Ġylev ita
a l
y wal
r tnec
Ġla nosreP
Ġre pap
Ġrot ca
Ġsei ro
Ġralu citrap
Ġse suoh
Ġo na
Ġi n
Ġde sse
Ġec ruos
Ġsna lp
id ep
Ġtne cer
te iV
tu c
noisi viD
Ġlaico S
Ġtu B
cirts id
vi c
Ġkca J
Ġkca l
lo W
ve L
irat nO
Ġla tem
I L
sts itra
rt celE
Ġpo T
ai nigriV
Ġepo ruE
lop or
Ġmo T
Ġy ppah
llo rtnoc
Ġ 002
Ġse irtnuoc
ĠL F
plu cs
Ġeld diM
5 691
lov er
Ġek orb
no loC
Ġsei limaf
Ġse sac
or g
Ġynam reG
i le
Ġeni gne
dnu S
Ġspihs noipmahC
e su
u ht
Ġre hc
me L
Ġdewo hs
ne cs
Ġhtla eH
picinu M
nia pS
reht eN
tsi m
ba c
tne K
Ġnoit u
Ġyte irav
Ġreta L
Ġyb raen
Ġthg iarts
A M
no med
Ġht nom
nutrop po
re K
Ġyl de
ni me
ĠI II
ca pac
rg orP
edi V
Ġnoit curts
sa eler
tt O
ssa lC
lla tsni
ba S
Ġylbme ssA
Ġt ruh
Ġe pa
yh P
Ġsu cof
4 691
b eW
ia T
o na
ĠA B
Ġeu lB
Ġdet omorp
Ġgni m
ri K
Ġs gel
Ġtso c
uo rt
r tne
6 691
Ġsedi vorp
Ġ2 991
yo j
Ġm elborp
gi N
ri C
Ġnoita tS
Ġwo llo
Ġs tsisnoc
rae H
Ġkoo B
Ġcit sa
Ġreht onA
la K
a no
Ġruo t
ru K
l tA
ra ps
Ġgni drocer
Ġyl remrof
Ġera uqs
Ġlai cepS
Ġdes serp
dneped nI
Ġle d
Ġredna xelA
Ġci rotsih
Ġre ganam
do g
du tS
pe ed
ilb iB
Ġnoit cerid
Ġe D
n reB
Ġdeta udarg
ihp leda
Ġlla h
tca xe
ts noc
i H
Ġlarut luc
ere hw
Ġsk cart
baz ilE
Ġdesop orp
âĢ Ŀ
Ġdel tit
Ġesa elp
mo tua
Ġdna mmoc
Ġkrow ten
Ġro irp
Ġtne v
Ġyekco h
ma lsI
Ġnoisivele T
Ġel pmaxe
er A
sy lana
Ġd nom
Ġecne irepxe
Ġylthg ils
Ġ7 991
rut cafunam
Ġden nalp
la g
nu S
Ġna eroK
Â £
r ra
dra ob
c sed
Ġren roc
Ġretu pmoc
Ġeer hT
noita cude
Ġsnoita repo
ht em
ser f
ulo veR
Ġtne manruot
Ġhc taw
hc na
Ġepo h
ffa rt
yt raP
Ġev e
Ġ) .
le w
x im
Ġeni zagam
Ġdnal erI
ko T
p sus
Ġni taL
sk oob
Ġdeta ngised
not nA
Ġgnit tis
p la
Ġeg rahc
Ġna M
se cna
Ġyrot civ
se ci
it nA
se nniM
Ġdedne tni
elpo eP
tu p
6 5
P S
Ġda d
re neG
Ġei vom
Ġyde moc
Ġse o
Ġlaci syhp
Ġs b
Ġre solc
a y
sk row
K U
nu M
C C
de p
Ġseit ila
Ġyl tcaxe
Ġsre dro
Ġsthg il
ihpleda lihP
a to
Ġro n
te me
nret ni
Ġt roF
Ġse og
snoc siW
l luf
te op
Ġnai rag
wo b
Ð µ
Ġdedi vid
rome M
Ġht oB
Ġmu ida
Ġyt terp
ti P
Ġna ir
Ġla vitseF
Ġdaer ps
Ġta eb
Ġedis gnola
ne ht
Ġlli H
Ġyllai ciffo
y k
nia rt
ri M
Ġluf ituaeb
snai citilop
dna ba
Ġlle c
Ġel le
in ne
Ġ4 991
el F
Ġderref snart
doht em
tser ra
Ġnaci lbupeR
mo tsuc
ht na
Ġevita rtsinimda
re serp
stne me
Ġgni ga
i z
sita ts
sne s
Ġse legnA
yh parg
Ġro nrevoG
Ġu d
cilf noc
dli uB
Ġtsac daorb
Ġe oJ
Ġlla hs
su S
Ġre gnis
Ġem irP
Ġret tel
ici sum
B C
Ġdia p
Ġlarede F
re j
geta rts
9 5
ĠâĢ Ļ
Ġde rats
Ġdet curtsnoc
nal tA
Ä į
ca s
Ġeer t
Ġ J
el hta
Ġse ussi
4 491
trop S
rts nomed
Ġtneme ganam
Ġ5 991
Ġd liub
ivah eb
nia M
s noi
tro P
do R
Ġde zinagro
7 5
Ġelba toN
Ġli o
Ġnoit cif
ff A
ud nI
T A
Ġtoo f
Ġro op
Ġdela ever
lla h
Ġre cco
i K
ci R
hc ysp
li pmoc
li B
Ġgni worg
Ġne euQ
si V
susne c
lo m
Ġ Äĩ
Ġetair tapxe
Ġs bulc
tse vni
Ġez no
Ġyel laV
Ġgnit hgif
Ġemerp uS
ata d
Ġev ird
gel la
lu fe
ne V
y K
Ġatna S
mo S
a L
te R
Ġdra wa
sne d
lo b
Ġdek ram
Ġse lim
kca lb
tsi D
Ġsl rig
us rup
ua l
inhc et
Ġsret rauq
la nruoj
k oo
Ġyb gur
bu C
Ġk o
n rut
3 691
Ġi ni
a p
Ġnoi pma
Ġllabe sab
tnec sed
Ġo re
Ġa ro
Ġht fif
hto lc
n nA
Ġnwo T
ai navlysnneP
lih C
Ġytila picinum
hcru hc
sop po
Ġsehc tam
2 691
Ġgni ees
elp mi
eru ta
ti w
pi uqe
Ġx elpmoc
li cnuoC
ro cs
ci suM
Ġek iM
Ġmo m
g irB
Ġrosse forP
Ġdema ner
Ġk nab
Ġdep pets
ta erht
Ġlaire tam
so B
Ġ5 6
p mu
tso P
hta erb
eci vres
tset noc
s pihs
Ġo w
ĠCB B
Ġecneref noC
eg dirb
Ġdno yeb
ero m
wo lle
Ġria p
Ġs metsys
se nod
Ġreh ca
Ã ¸
Ġtce ffe
Ġngi e
gre me
senod nI
Ġsus ne
Ġi ma
ew roN
gni daer
Ġdehsu p
cit s
vol S
i ne
we L
sna K
Ġdezila er
ra T
r hT
Ġne moW
Ġz za
Ġyrtsi niM
Ġlati psoh
Ġre dnuof
erd nA
dna m
Ġecne serp
utits nI
Ġro nim
il suM
Ġde ria
ya p
no inU
y rots
a re
Ġi j
Ġeko ps
Ġretsa m
calp er
et orp
Ġyli ramirp
ro d
ev ita
Ġlaci p
Ġdez ingocer
y ks
Ġyrater ceS
yra u
stne ve
9 9
Ġevit isop
dna tS
Ġs pa
Ġtna tsissa
F F
S C
Ġ0 6
mu esuM
rots er
i sa
Ġsi raP
a dirolF
7 71
Ġse miT
Ġetuo R
le S
Ġla rot
tsa p
Ġrot ceriD
Ġgnihc taw
si ht
Ġyl hgih
noita icossA
Ġyle vit
Ġev orp
Ġrei merP
vorp mi
Ġla ni
lya T
Ġnab ru
uos siM
Ġsi nne
Ġgni sol
ti n
Ġecna d
ro loC
i veR
rtsinim dA
s draw
t cA
Ġsir hC
Ġeli bo
Ġlle s
rua L
Ġe zi
Ġaci rfA
ser ut
gna h
noissim moC
1 691
uo H
tsa l
sne euQ
ruo ser
Ġtna netue
Ġtnem poleveD
Ġre ffo
Ġse moceb
Ġsa m
za N
re tneC
yl tne
Ġdel ttes
Ġsser gnoC
Ġlaru r
ro r
Ġre llams
Ġera hs
la i
ru P
s nosaes
re gnis
Ġy rub
dna loP
ci ped
Ġlaci deM
mra f
Ġe zag
re disnoc
le C
Ġse vig
Ġse ti
Ġde llor
Ã £
p ahC
Ġk col
emo h
reht om
Ġyti srevinu
nam rep
or G
Ġevita lsi
ta s
Ġevit ucexe
Ġde vomer
Ġla mron
Ġreve tahw
Ġya l
Ġdes sim
ed ni
Ġy do
ie cer
2 491
lla W
me tnoc
g ua
' ll
se laW
tsac daorb
Ġllabe saB
Ġ q
Ġni ht
Ġt luciffid
na ci
v er
n ga
Ġwolle f
Ġnet to
k sa
Ġdei rub
Ġecud orp
ret rauq
Ġdel t
me rec
Ġtxe t
Ġe fas
sa elp
h A
Ð ½
gna d
wt fos
o lpxe
Ġdenoit nem
xe t
tra pa
y B
ya H
yte icoS
Ġnoissim moC
Ġla ut
va H
Ġgniy r
Ġhc uot
siv da
a b
bmo b
Ġeg ne
ddu B
u e
T S
ne txe
n roC
rot cerid
Ġsts itra
Ġnek orb
il O
Ġse hca
z e
i ht
ib ihxe
Ġdeta cided
Ġ1 991
la vi
utits noC
Ġsla og
Ġrae f
Ġ0 991
Ġy sae
cel loC
Ġdaeh a
Ġy cna
ani loraC
Ġecne ulfni
Ġne dloG
tser w
Ġsre idlos
mi le
Ġdeta picitrap
Ġ3 991
da uqS
el C
e fe
Ġse lba
ĠD C
Ġs revoc
Ġgni hsu
Ġeni ram
Ġna hta
tu A
id ra
nu P
Ġla dem
3 4
Ġne g
to H
gni dliub
nne K
Ġek uD
bo t
Ġka eps
Ġai nigriV
Ġma erts
Ġtnemtrap ed
l uo
Ġse hsi
Ġw erc
Ġetis bew
Ġgni cna
Ġ Â
ca m
Ġkna B
Ġruo T
Ġla itini
Ġlau su
ca R
Ġde caf
a ne
Ġci rtcele
tsa E
ruo cne
Ġka eP
hc o
Ġred nU
sa g
nu b
Ġel citra
Ġ8 891
Ġdet cennoc
Ġe miT
go la
Ġse si
Ġnois serpxe
8 8
t L
rua tser
Ġsu tats
Ġhsi f
v raH
b uod
Ġdet cudnoc
ef iw
ca pS
Ġspo ort
Ġre te
wo P
ts ed
Ġgni tse
Ġdek cip
Ġeci loP
Ġs gnoS
Ġhtla ew
Ġwa rd
si k
Ġsuoi res
cen noC
Ġtso h
oo hs
Ġrepp u
f ihs
hta p
8 591
ger O
9 391
Ġnwor B
e car
Ġgnita repo
Ġa v
9 591
va S
Ġde tsoh
ru D
tnem trap
Ġdex im
Ġthgil f
Ġru htrA
Ġelb uod
revo cer
Ġs li
Ġdet pecca
Ġst el
hc naM
Ġde rapmoc
Ġlla revo
Ġelba ton
ili ffa
reht e
Ġnai citilop
Ġs mees
gu R
niat rec
re hc
re sed
Ġret tal
Ġthgua t
Ġnaig ewroN
Ġt rihs
a da
Ġev etS
Ġli cnuoc
y ob
elcu n
ru H
Ġenil no
na B
Ġdengis sa
Ġder dnuh
Ġde hgual
Ġegdel wonk
Ġtne nimorp
Ġytila uq
Ġla citiloP
ngi apmac
Ġe ria
Ġega ti
cu l
ih po
Ġta ob
ter ts
ht gne
ugi bma
sp uorg
or c
Ġylla cip
Y N
Ġy bab
rot ca
Ġemo H
di R
Ġtu hs
Ġtn dluo
Ġni g
tro m
ro L
tsa oc
3 491
6 6
ur c
mo lp
Ġreb ma
gne llahc
ar I
ff oc
Ġsei rots
tsis er
Ġdetse ggus
Ġt tocS
Ġa wa
7 591
mu loc
rtsu lli
Ġel g
ma j
reb mun
ww w
Ġer tnec
6 591
re ti
ll E
Ġseiti nummoc
Ġt fos
Ġs wor
Ġyra tne
Ġg u
Ġse vael
red erF
Ġta orht
Ġp mu
p uorG
Ġs pets
Ġhtuo y
Ġeci ffO
1 491
Ġe tsa
Ġmia lc
nig irO
Ä ±
Ġdni w
li ug
Ġro rep
Ġreg nuoy
Ġylno mmoc
Ġnia mer
Ġniat paC
Ġm m
Ġlo op
Ġnaci xeM
Ġ j
Ġde lu
or tnoc
Ġpe els
Ġsnoit isop
luci rga
Ġega p
Ġde ralced
ps ni
mi repxe
hcti k
Ġy rtsudni
mu c
Ġti siv
ht nA
Ġwollo f
ar G
âĢ ĺ
mail rap
Ġthguo f
Ġega irram
A EN
da hs
sa p
gi L
eu lav
Ġ ita
Ġkco R
Ġelba nu
AC N
4 5
t rA
Ġsse le
A A
s n
Ġera wa
Ġse lur
se n
mo ts
mo H
Ġs rats
pma H
sa tna
Ġlai rep
thg i
lu seR
Ġdesu cof
Ġweiv er
red nU
to l
pme T
Ġre cudorp
se nneT
se la
fe f
sse v
Ġyt la
6 491
Ġdesa hcrup
Ġle inaD
ci dem
Ġbo B
Ġene cs
reve S
Ġslle t
Ġno tsoB
c si
ma L
rts a
Ġseit ivitca
xa T
P E
tsa e
re seR
lla g
Ġssi k
Ġy cilop
ir i
Ġlaitne top
efe fef
fe irb
Ġgniwo lla
et nu
Ġoc sicnarF
ne ercs
Ġdere ffus
Ġs it
Ġno d
Ġdenia g
Ġniat nuom
Ġdeta lupoP
Ġluf rewop
ur T
Ġdem rifnoc
citamehta m
Ġt cetorp
ko ps
re iP
na rF
Ġgni lb
Ġse vres
u ts
Ġpohsi B
ht imS
cna rf
Ġy kcu
Ġecitsu J
Ġla niF
Ġhsi nif
Ġna V
t or
Ġ0 0
Ġeta udarg
8 6
r ruC
Ġle vart
Ġsm elborp
Ġs drocer
ef iL
s de
Ġel pmis
Ã ī
Ġa ru
a ra
z irA
Ġdet ov
Ġsa g
iv bo
Ġyti nummoC
l lu
Ġgni dnuorrus
vres noc
Ġsre bmun
Ġyda L
Ġerof eB
srot ca
7 6
| "
da uqs
Ġssor C
Ġro loc
II I
s pihsnoipmahC
o z
5 591
po C
lg nA
Ġsy ob
yoj ne
S S
co S
Ġn ward
Ġtce frep
Ġtsa oC
Ġse cnere
Ġyllacip yt
yti nummoc
a d
gi D
lu J
b e
Ġerus serp
tna vda
ro ced
Ġnoita utis
Ġylev is
i j
ur B
rop roc
gni m
ces noc
8 491
eta tS
Ġre papswen
re tiL
5 6
Ġn y
p or
no S
noil lim
sno ps
ne h
e eps
Ġdeta mitse
nev es
srev noc
Ġdere psihw
y dob
sa P
reb il
Ġhte bazilE
dl roW
Ġeni L
dni L
ra hS
ĠĊĠĊ ĠĊĠĊ
Ġdeif itnedi
la noita
Ġderut pac
Ġmi J
le k
y hp
Ġai bmuloC
v nI
Ġniat pac
w O
za gaM
ts bus
Ġeu lav
Ġlati gid
Ġse dis
Ġpihs noipmahc
Ġci medaca
Ġeta g
Ġero ts
hguo ht
Ġthguo b
Ġgnik law
Ġerut luc
Ġe sir
Ġdecna lg
Ġel tsac
Ġle nnosrep
Ġedi seb
Ġle nnahc
la nif
Ġnati lopor
ca t
Ġa dirolF
7 491
Ġnoit rop
cer roc
Ġeva s
rt rop
Ġdek nar
doo h
Ġ9 891
Ġstsila dem
c soM
Ġega mi
Ñ Ģ
nois rev
ub ed
Ġyrarop met
ro da
u F
Ġdeso ppus
Ġla nruoJ
Ġ5 4
s to
Ġno ga
h k
mi nA
tset orp
y ca
Ġeci n
Ġsria ts
re hS
dnuo w
Ġta efed
ylev it
rtnec noc
Ċ ĠĊ
Ġni geb
s yad
Ġne pO
Ġde vol
or f
nut rof
Ġre tne
Ġhca E
Ġngie roF
Ġtnem niat
ym rA
t ih
Ġna gro
Ġtneme erga
Ġyro eht
Ġya r
Ġd nA
o lc
ts y
Ġ is
Ġeta didnac
Ġes roh
Ġsk co
Ġse vit
Ġmo de
Ġi la
el tit
8 7
4 591
ir ba
o da
Ġe ir
tne di
Ġt ihs
de v
tam it
3 5
Ġsei cne
Ġk nu
Ġwerd nA
ho M
Ġygolo nhcet
pa gniS
Ġs llaw
3 591
ni n
Ġsseni suB
no J
Ġs weN
a rp
hg is
Ġs ol
Ġo ediV
rev E
hci r
Ġdeil per
Ġerta ehT
sev ita
na D
sel gnis
Ġtca tnoc
Ġta eh
ed ulcni
l S
Ġsma rgorp
Ġtro s
Ġde rahs
cej bus
Ġyle gral
L M
Ġnwor b
Ġne r
Ġde yortsed
gna R
Ġeci ohc
noit idda
curts ni
Ġyra rbiL
Ġgnille t
Ġredro b
Ġhg rub
Ġy er
mixa m
Ġ4 891
Ġy rg
ru j
Ġse ir
Ġk sir
in k
cni vorp
ta r
g es
Ġnai lizarB
2 591
Ġdia l
Ġy d
Ġre nwo
la F
Ġse ert
Ġde ruo
st tesuhcassaM
e noi
ep pa
Ġyro mem
si pE
ser P
Ġgnilli k
Ġer tneC
le wt
dlo g
dnal tocS
Ġdet poda
Ġme es
Ġroi nuJ
re giN
Ġna idem
Ġdeni bmoc
ro tS
Ġa ka
et ihW
Ġesop rup
9 491
Ġesi w
Ġsde en
Ġder rucco
Ġret niW
Ġsre ffo
ed o
it civ
nwo nk
Ġcit naltA
Ġeno n
Ġkna ht
Ġgni ra
Ġgni ppa
ais A
Ġpo p
is si
Ġa ya
ĠA N
ug utroP
Ġe lim
ma s
Ġs I
reb lA
Ġeta neS
sei limaf
b or
dna s
ma D
Ġyl lufe
Ġseno J
la og
Ġpohsi b
yhpargo iB
ba C
hsi f
Ġlaci ssalc
Ġdena el
Ġlacit irc
hc tam
Ġo cixeM
mi nim
Ġsecna raeppa
s siM
Ġgno L
le hca
Ġre nniw
Ġema G
naf nI
yo lp
Ġtil ps
rf a
cif iceps
tniop pa
Ġir S
ri ahC
l O
Ġyl bissop
sa hp
Ġseiti c
m S
ruob leM
ret nuoc
vres bo
rot civ
Ġgnir rats
Ġa ri
il li
Ġek iL
gnu H
Ġyra dnoces
we capS
P A
Ġe y
ĊĊ ĠĊ
Ġdeta cude
gni re
in na
Ã ¢
Ġre llabtoof
Ġnoit cnuf
noita lupop
noisi vele
rev da
mi J
erut luc
Ġthg is
Ġseit rap
Ġssa m
9 6
hc raeser
Ġo los
Ġstneme le
mmoc er
eri pmE
Ġla deM
Ġn mad
Ġyra ssecen
Ġhc narb
Ġp il
Ġyle diw
2 4
Ġeda rg
Ġyli sae
Ġreta erg
Ġsni geb
rev iled
it S
rebme mer
wo I
Ġev iL
ega ugnal
Ġs dloh
Ġse laW
id dA
Ġdlo G
a H
tuo r
k rA
ni d
o ihO
Ġyr tne
re zti
ya W
Ġnai ra
e cnere
Ġsse ug
Ġt te
Ġgninrut er
a id
se u
Ġgnirae w
Ġe tov
da R
le K
Ġeri pmE
d irB
pa N
il it
om s
sop rup
id om
Ġht urt
Ġde nil
o k
Ġs rac
Ġnos nhoJ
Ð¾ Ð
Ġylla cit
Ġelba ti
Ġe is
Ġsi cnarF
dni H
Ġm raw
ro vaf
Ġ ve
sop orp
Ġdeb barg
Ġsre ciffo
ihsa f
Ġswo lla
Ġdeta nimon
dna laeZ
Ġtsu rt
la u
1 591
Ġse lb
Ġmo c
a R
ca p
nu rB
Ġhca orppa
ib ih
Ġsnoita N
Ġnoita icossa
Ġlau xes
Ġro ti
Ġgnir ps
se ira
Ġdet luser
ts oc
nimo D
Ġgno S
Ġgni ssap
lle W
Ġgnihca er
Ġgni dna
7 7
Ġgni llac
dra C
m rA
re me
n Ã¡
w ah
d I
Ġ7 891
Ġa lli
Ġdra ug
Ġai rotciV
ita orC
tsa ny
Ġgni peek
Ġt roffe
Ġy limaF
Ġsk sa
Ġeg uh
lu G
Ġse k
âĢ ł
Ġdesu fer
Ġdet narg
Ġev iecer
lum is
gil letni
noita mrof
c te
ru n
na pxe
Ġdle iF
Ġm rif
Ġderi psni
Ġhcta wecapS
Ġgnit luser
Ã º
V D
yt rap
Ġel ur
Ġhc raes
Ġe Ã©
nna hC
Ġter ces
Ġelpoeps tropS
Ġmo ttob
Ġyrarop metnoc
tsi ger
Ġti us
Ġst ceffe
Ġot o
Ġdek ci
Ġn nam
di k
dia s
Ġsp roC
Ġhsi rap
gi T
lo t
e li
st niop
h ka
Ġne hctik
ca l
vi vrus
Ġ, (
Ġgnidi vorp
Ġro da
Ġ â
Ġsma illiW
Ġeci wt
Ġwo ls
Ġtse rof
si onillI
Ġai raM
Ġ0 891
ha B
Ġ6 891
Ġn roB
ene V
htla eh
ma K
Ġse m
Ġse unitnoc
Ġn na
Ġre lli
rgim mi
Ġdeta d
kca rt
ca v
R E
yes reJ
gni n
Ġne ercs
Ġcit se
sita s
ce pxe
Ġno sir
Ġlai ro
Ġnom meL
Ġani loraC
tsa m
Ġsse ne
ki N
Ġtne crep
Ġt tiK
Ġse uq
Ġht worg
id ni
ht rib
r yl
naci rfA
g iler
8 9
s E
81 91
ene b
uo B
Ġnois ses
ia f
Ġne sohc
Ġdei pucco
Ġto ps
Ġyltne cer
o i
Ġai groeG
ko orB
Ġe it
Ġst naw
da B
va w
Ġgni tsixe
a B
il la
dnopser roc
se irtnuoc
Ġt nuocca
ec orp
Ġde nimreted
Ġskna ht
tnem elpmi
Ġhsi kruT
Ġsse nk
re cudorp
Ġsni k
ugibma sid
Ġgniro cs
de w
Ġne hpetS
rehte got
Ġg el
se k
Ġde nifed
y koT
Ġezno rb
noita cudE
h z
uce xE
Ġstne diser
ra s
e caf
Ġna me
dulc noc
Ġst roffe
ra v
Ġsnoit cele
Ġa eS
cif it
ta eht
noit ca
A B
sla nif
Ġro tide
Ġyl wen
Ġtnem taert
s ya
or cim
Ġde ts
noit cudorp
Ġez irP
Ġse pyt
s sop
1 4
Ġyb guR
po hs
C I
hta b
re llabtoof
Ġdet fil
va C
p sa
p tth
rap ed
Ġerof ereht
Ġyti ra
no pmoc
Ġylsuo i
Ġs dnoces
Ġse tis
man ruoT
ts noC
tsa f
Ġssor c
Ġsre dluohs
Ġna muH
Ġgnika eps
Ġs siM
Ġselc itra
gno t
tro s
ce erG
Ġnetto g
Ġsnoit seuq
Ġl A
Ġll ih
c c
Ġhc ezC
c se
so t
Ġo Ã£
z za
rezti wS
ht nom
8 391
rua M
gne B
ĠĠ Ġ
Ġtpe cnoc
ylevit cepser
Ġdedna pxe
dro G
hc uot
Ġs ka
Ġrebme M
Ġecneref noc
Ġsu i
N I
dni k
reht orb
Ġyti capac
Ġl lup
Ġtro P
Å «
Ġnag ihciM
t niaS
oga cihC
Ġtne lis
mi ger
Ġgni pe
la vitseF
Ġtsa oc
yh po
loc niL
Ġdeya ts
g noc
Ġssi wS
Ġf a
Ġdnuo b
Ġt id
Ġdek catta
Ġrev O
weiv retni
kca p
ba lA
lk O
doo lb
M A
ht row
dna H
Ġyr raH
se lc
Ġde cuder
Ġkca j
Ġdeta ni
Ġdem ra
Ġnia tirB
Ñ ģ
na H
Ġne z
ha lkO
a wa
nem rA
nu l
Ġre eraC
Ġn rub
e tam
ti T
s maet
Ġdi ova
p orp
lima H
ma rd
se da
ga N
kci w
Ġret laW
Ġyno T
Ġgni suoh
Ġeka l
ria F
Ġe ruoy
Ġy ret
Ġa b
Ġcif itneics
cet ihcrA
Ġ, '
yre llaG
la f
trop er
Ġn us
7 391
Ġnoit nev
Ġ5 891
Ġra tiug
Ġke erC
6 391
reta W
it og
sa era
Ġyra tnemucod
ro hs
Ġseid ob
r h
ig leB
Ġci n
Ġkco lb
1 5
ria f
hta eD
Ġgni car
molp id
s tse
Ġeta tse
Ġtse dlo
Ġs level
Ġrem roF
Ġden rael
u rf
k c
noita ugibmasid
Ġyr rac
ve N
7 9
cirts er
Ġi learsI
Ġsno saes
Ġkci p
ics noc
yt lucaf
rd lihC
ru taS
Ġp mac
cud ni
ya R
Ġsrae t
e lor
Ġ5 3
erg ed
Ġdra c
Ġci hpargo
lg gurts
le gna
g ir
Ġez ila
Ġno o
Ġy nne
se legnA
me R
cej er
Ġero c
Ġo lle
ny L
Ġedo c
ni lc
Ġgnita erc
gni w
mo D
A SU
Ġneew teB
Ġlai romeM
uo m
Ġsdra y
ila ttaB
Ġde citon
lla F
Ð° Ð
Ġssa lC
Ġdro l
Ġgninia tnoc
ru jni
da rB
t U
Ġylluf sseccus
s loohcs
civ noc
Ġla ve
ord yh
Ġgno K
Ġnre doM
Ġni ve
T I
Ġyti ni
Ġno D
Ġl raE
la ed
ni po
Ġtnem elttes
Ġreh po
Ġeuq inu
Ġeta m
Ġni k
si L
Ġpo leved
Ġhtgne rts
Ġega mad
Ġel it
na T
Ġdede eccus
Ġsre dael
ssor C
Ġruo F
H N
Ġem irc
Ġdet pmetta
nwor B
p ircsed
t niap
Ġgno mA
dlo f
se h
a G
Ġ2 791
Ġthgi not
Ġs sim
Ġdecna vda
Ġla ro
Ġgniwo nk
tnem poleved
Ġdne s
n K
Ġlanoisse forP
D A
5 9
Ġton nac
u C
nil C
hta g
ra N
Ġhta eneb
rg A
Ġyti vitca
ulc xe
E S
a la
Ġgnit tes
Ġdeti siv
Ġs nwot
li uB
Ġtnev erp
Ġesua ceB
yhpargo ilbiB
Ġhte et
se man
Ġgnini oj
g rus
Ġela cs
hsi b
Ġ3 891
mu r
Ġy rd
seci vres
hc raM
Ġred rum
Ġde rf
B G
Ġdeil ppa
Ġse tel
Ġsi sab
Ġdeniat bo
id E
Ġretsi nim
Ġsehc ru
Ġecna rtne
Ġti f
Ġde dnah
Ġroi neS
Ġdr ihT
te kcirc
trops narT
doo G
Ġsro od
e sac
k roW
st hg
Ġ2 891
hc nerF
Ġ za
Ġgniy lf
Ġe tirw
Ġgni lia
y A
Ġk lof
nag ihciM
Ġnoisi v
Ġse ceip
Ġnia M
Ġa nne
Ġai navlysnneP
Ġe pacse
co vda
Ġde li
d ub
Ġhsina D
Ġna irB
hci N
noisi ced
ci lbuP
ts itra
ed iw
Ġyen dyS
Ġe M
Ġ6 791
ci deM
Ġt nia
Ġne ppah
dro J
Ġdeti b
Ġeer F
Ġci ffart
Ġg o
Ġ) %
i va
Ġniat nuoM
re dne
Ġthg it
Ġy nna
Ġweiv retni
el d
Ġy za
gno L
Ġ,) (
5 391
Ġnosa eS
Ġsel gnis
Ġyrt nuoC
Ġyt pme
Ġecni vorp
nim er
hta f
Ġstne serp
Ġretsa M
ra uQ
Ġt cudorp
ci syhp
no eL
kco p
pm ys
Ġs mialc
Ġde noissimmoc
ceb euQ
Ġtse ug
c ser
m yS
Ġdeta utis
Ġtca pmi
Ġgnisu ac
Ġla vaN
2 5
ro G
Ġsre krow
Ġe paC
Ġtrops nart
Ġlanoi geR
Ġhta p
Ġmu i
ra k
Ġaid eM
A P
lg uoD
Ġot re
Ġno sirp
cit cennoC
Ġerut cip
nor hc
rtsehc ro
Ġyl trohs
sro h
b re
rd nA
Ġra g
Ġnois u
pirc seD
u E
Ġt to
pp issi
mer txe
41 91
sae sid
ve ihca
Ġy hp
Ġni v
Ġyl f
Ġsla udividni
rebme tpeS
Ġsnoit idnoc
y D
Ġle toh
Ġel u
Ġylevita ler
Ġthgi N
va eH
lp i
Ġtreb lA
da eH
Ġdrof xO
na ciremA
ts E
ta K
gni tsil
Ġst hgi
lli W
Ġo o
ssa m
Ä ĥ
Ġsnoita zinagro
Ġ; (
za K
Ġevita N
Ġssa b
la D
Ġta hW
lo M
cid erp
stne duts
t ihW
Ġdeti derc
Ġgni revoc
bmo loC
Ġnia r
Ġpo hs
Ġswo nk
ugni tsid
Ġs llac
Ġtne ici
dra c
esa eler
Ġrewo P
Ġrehca et
ĠA ACN
oc siD
Ġyte fas
Ġgnihca et
Ġruo Y
Ġsta ht
3 6
Ġla yor
il le
Ġnoita dnuoF
ro l
nop po
Ġnoita erc
Ġdesop po
Ġ9 791
kna L
nni F
nai siuoL
Ġla mrof
Ġmu esum
y W
Ġyler itne
Ġdo htem
na ts
Ġdenia rt
lu S
Ġst cudorp
Ġnoit ulo
Ġyte icos
no R
Ġyti sned
dra H
da h
Ġeu D
i pi
Ġ8 691
Ġllabtek saB
Ġse ton
Ġte n
dna M
y g
Ġxa t
Ġeetti mmoc
Ġlacip ort
se M
Ġdla noD
ma id
Ġtn saw
llo d
nu f
Ġe nna
Ġy loH
Ġecne lis
Ġyli vaeh
ri d
nu T
Ġnae J
m mi
lla B
Ġhca mots
yh r
Ġor ro
Ġp ih
e gnahc
r Ã©
Ġsgni dliuB
Ġegnahc xe
Ġlaci rotsiH
s v
da eL
Ġse htolc
Ġwolle y
e ciffo
Ġnam riahc
t ruoc
Ġsreht orb
y tnewt
id i
bo B
ro od
s yaw
ve ileb
cnu j
91 91
Ġdeg rahc
ni v
Ġsser P
ppissi ssiM
Ġgnit niap
a lo
Ġdevorp pa
Ġdeif ilauq
Ġte iuq
Ġlairts udni
tno rf
itog en
Ġnoit cennoc
C S
k nab
Ġt nuoc
e reh
tamit lu
Ġdeta r
is nart
nwo D
Ġp ord
Ġdek il
dna R
L F
us noc
Ġero M
ke eW
Ġgni tneserper
C F
Ġeno t
i raM
Ġeni raM
Ġeni hcam
Ġy tnewt
Ġyli ra
Ġnairag nuH
Ġgniv ird
Ġylra elc
Ġyra rbil
Ñ Ĥ
ffe J
Ġ- -
Ġlaru R
Ġci me
Ġdetse retni
Ġste s
h Z
d la
Ġecne refer
ba R
ht rae
Ġe ig
Ġhtlaew nommoC
Ġo ihO
ega lliv
Ġa g
Ġeca lP
5 8
noriv nE
omo col
or teD
7 8
Ġs dnuos
lle B
Ġdenia lpxe
Ġ2 3
Ġdeti vni
3 391
Ġna irtsuA
Ġno b
Ġee ffoc
Ġht xis
na is
Ġera f
9 8
na muh
Ġg od
st luser
t luser
Ġsser d
Ġtsi golo
Ġel li
go d
Ġla reveS
y tse
rt noC
se od
Ġotre uP
a eroK
pa lloc
Ġgniwo hs
evi f
Ġ1 891
Ġos lA
ro hT
de su
c raM
Ġsa lo
Ġmrof rep
Ġet on
Ġdeg rem
o iratnO
y luJ
Ġgnille s
Ġd worc
Ġtne tnoc
Ġs daeh
V OC
ts us
Ġnoit ubirtsid
oo ms
Ġl lor
inu j
ci F
Ġkci uq
le W
Ġgnigni rb
ã ĥ
Ġf fe
Ġgnivi ecer
7 0
hpo solihp
i cer
Ġo ge
Ġyra tnem
Ġese ugutroP
i limaf
Ġgni ret
ro tom
Ġto H
ir ret
Ġde yolpme
Ġeca ep
Ġtuo bA
Ġkni rd
Ġde tserra
y rtsudni
a j
Ġgnid nif
Ġda eH
tir reT
de hsi
rtsehc rO
y lop
Ġsre llabtoof
s yhP
) .
ere hT
mm iws
e nuJ
Ġgu rd
e etti
Ġemu lov
Ġmrof talp
Ġla m
re bot
Ġst hguoht
Ġre gnif
Ġstrop er
Ġdehc ti
Ġreht i
Ġde llortnoc
Ġw erht
ir D
nia tirB
Ġese co
val so
re w
Ġci malsI
Ġlle b
ka B
Ġp ma
Ġdnuo R
Ġla mina
dna B
Ġwo b
Ġcit na
t O
da ed
k cor
Ġevis ser
Ġyaw hgiH
Ġni ts
Ġlati psoH
ka T
Ġgnine ve
ĠS O
Ġla irt
ĠR AEN
h ne
st rop
Ġe row
Ġgniyr rac
Ġorro coS
ta h
u la
9 291
me hcs
Ġlli b
ugna L
Ġn ret
Ġnoipma hc
o ta
Ġdo G
Ġeti soppo
ĠRAEN IL
ht taM
Ġtne uqesbus
Ġdraob lliB
00 91
Ġsla cov
s ba
Ġylia d
sit revda
71 91
Ġena lp
tna lp
Ġrewo t
hcti p
Ġs moor
Ġevit u
ur cer
Ġtni oj
tal si
tso C
ger G
Ġthgir b
Ġde ssorc
Ġde tsisnoc
Ġdia rfa
Ġrae w
vi L
Ġtnem piuqe
ma J
Ġnoita rtsinimda
Ġhsi w
erut curts
n yS
e neg
lp s
Ġde ci
Ġsre l
Ġdeve ihca
le hs
el li
Ġa li
Ġsy ug
C U
Ġa le
nuo cne
Ġt recnoc
Ġredna mmoc
4 391
Ġyre ll
rebot cO
Ġyl feirb
y lloH
l rig
s metsys
Ġgnimrof rep
ar B
Ġstna lp
Ġkci ht
pa R
Ġga b
y n
suo H
Ġtne namrep
Ġeca pS
rf ni
v ed
Ġk nar
Ġeso l
sre ht
ba ta
Ġel pmet
se id
Ġeva w
Ġ8 791
va c
serp mi
nae J
Ġerut cetihcra
e J
ga E
Ġdenia tnoc
Ġyrt nafnI
uq il
Ġla it
Ġyaw yna
tibah ni
Ġde it
lla hC
lo pa
Ġy mene
Ġyltne uqerf
Ġyle rab
Ġdelu dehcs
kca tta
Ġdesi rprus
Ġre gnessap
sec ruoS
9 7
Ġci sab
Ġle ets
01 91
Ġdet revnoc
Ġ4 791
Ġesi morp
ur C
Ġst cejorp
Ġk curts
mo ttO
Ġy latI
Ġecni vorP
Ġsi sylana
se m
V I
na pmoC
Ġte ni
Ġgninna lp
nnu t
Ġla picnirp
Ġpihsre dael
ru en
ubir tta
ia waH
n nam
naps loc
si rc
le N
ih cnarf
evo L
Ġevit ce
a T
Ġsedo sipe
Ġlabo lg
i uqer
vorp pa
Ġsu lp
Ġyl ppus
8 0
Ġsci pmylO
Ġnia rb
n my
eru B
Ġevit ceffe
Ġylla noit
Ġygolo nhceT
pi p
vo k
l raC
cet orP
teme C
Ġyti nutroppo
9 0
Ġtne ga
Ġst pmetta
Ġe o
Ġsd nif
Ġevitalsi geL
hgi F
Ġse n
Ġyro tirret
ira V
Ġla rebiL
ita r
cu a
Ġta e
cna L
Ġrev ird
Ġs dnats
to P
Ġn rael
s ria
no K
luc ric
Ġsnoita ler
S P
Ġden ni
hguo r
2 391
noit itepmoc
DI VOC
Ġera wtfos
Ġ5 791
st tiP
Ġna y
da m
Ġ0 791
ya dot
Ġsk ni
Ġrehti en
Ġm rots
Ġsam tsirhC
ne ve
mu lA
Ġht rae
ni dE
tse laP
rag raM
Ġyno htnA
Ġdra vraH
Ġdelt itne
Ġde raperp
Ġsnoit utitsni
S N
Ġdere wsna
Ġt iri
Ġsdra wa
Ġeso hc
s di
sahp me
Ġa ÃŃ
Ġyltne rappa
snoit cele
Ġseru gif
à ¸
wo hS
Ġtneserp er
emo R
Ġgni drager
Ġrorep mE
Ġgni dnuof
ho j
Ġtnemi geR
Ġren trap
Ġlaitne diserp
suo c
Ġno ri
Ġre it
bo j
Ġyra retil
s nia
nil reB
Ġre gni
Ġyekco H
Ġev i
dna xelA
irp orppa
Ġsretrauq daeh
ys P
Ġdeif it
Ġp irt
Ġref snart
it pa
sna icisum
rede fnoC
tsi niM
i ma
ka D
s me
Ġ7 791
hpargo tohp
Ġnoit cetorp
Ġla coL
Ġy eh
Ġyl nO
lbu D
tu F
y eht
s sia
g nuoy
Ġgnika erb
muc ric
Ġcitse mod
dal gnaB
a P
Ġst cirtsid
ub irt
u Y
1 391
mu N
u lav
6 7
ht raE
Ġret niw
nab lA
y lana
Ġthguo s
Ġder ih
Ġs mu
Ġgni saercni
Ġwo lf
r Ã¼
Ġseta d
Ġde rebmemer
se nil
Ġnai niarkU
Ġla nois
Ġta lf
nu R
Ġyle tamitlu
8 291
Ġyra ni
Ġgnitrop pus
ĠS M
Ġgni rats
Ġevita nretla
ge v
llo p
no N
iw t
lu s
o H
Ġmu mixam
Ġel cihev
na em
7 291
Ġ0 03
b mys
tser W
Ġst rats
Ġ4 691
il A
Ġlanoita cude
2 291
Ġdettim da
Ġlla t
Ġyev ruS
Ġde h
Ġotno roT
5 0
lu sni
ert noM
no si
cinu mmoC
ret hguad
Ġne B
sna krA
Ġgni e
Ġsu pmac
Ġevisne txe
Ġevit ucexE
il lA
ne dewS
tap xE
noita cif
p ihsre
Ġsi sne
o hC
Ġ,) "
z eneV
Ġne ta
du S
Ġsk ram
Ġlaci nhcet
Ġs tsil
dna rb
hg fA
d liW
Ġyle solc
Ġdnuorg kcab
e lif
ka M
d uo
Ġra elcun
Ġ3 791
mo b
Ġgnihsi nif
Ġgnin rael
Ġi b
v irP
no G
kca j
Ġy oj
Ġs g
Ġsno s
tsa lb
kci rC
Ġnoita t
Ġe meht
Ġla utca
Ġfe irb
Ġlia r
Ġeg duj
S M
Ġfe iler
es ne
reh ni
Ġais suR
ruo j
ci me
Ġdet celloc
i ca
n rE
nem id
dnuo p
sei reS
Ġfles ruoy
Ġdloh esuoh
Ġseru ta
rop pus
Ġesi rprus
h pa
Ġno skcaJ
po p
a ira
cs dnal
o ib
ne k
e sab
Ġno miS
Ġai ra
Ġetair tapxE
sser gnoC
Ġla b
ih dduB
Ġt raP
li vic
Ġto N
Ġsnois rev
Ġnoita srevnoc
man teiV
ĠM F
Ġdevi red
sdnal rehteN
rg ime
lla D
Ġna lA
Ġevitu cesnoc
lavi uqe
a v
civ ed
Ġgni zi
pe N
re ma
Ġeso n
hc e
Ġgni llaf
Ġdeti aw
Ġsd leif
Ġsret tel
Ġnia g
Ġnoita zila
r waL
ka ew
sk ooB
nidro oc
et ihw
Ġev ila
ni snocsiW
Ġle bal
Ġegati reH
Ġlarut luC
Ġsro ti
en O
Ġdeg gur
Ġruo baL
no de
mo ta
doo lf
Ġst ra
so b
Ġnos liW
orht na
ga rf
Ġro lyaT
sre nniw
Ġ1 791
t cejorp
Ġsa snaK
Ġt re
Ġelc yc
Ġci nap
Ġeunev A
na j
ĠV I
se L
A L
Ġleu maS
sa vni
el ihC
etnu lov
gu rd
Ġgni wor
Ġytiru ceS
no rf
la r
s dnalsI
Ġdet ubirtnoc
Ġsi onillI
e te
Ġa ihpledalihP
Ġba rA
Ġne doow
Ġsega lliv
Ġn uS
g ru
nre F
Ġtnem trapa
Ġsta es
Ġdeno dnaba
Ġn Ã¡
lla rap
in I
I C
Ġne kops
le ef
Ġdet niap
meni c
Ġ @
Ġma n
de P
ega ts
Ġsno paew
Ġdek col
6 8
Ġhtuo Y
ro we
Ġm ilsuM
Ġyle ti
Ġne dd
Ġsk roW
Ġeri pmav
y lbme
Ġdecne ulfni
Ġsla nif
Ġt cnu
ĠLF N
Ġsser tca
Ġev lewt
Ġgnik sa
Ġno pU
Ġtnanetue iL
ruo F
tsis sA
Ġdna rb
la ci
Ġerta eht
Ġyalp sid
Ġle arsI
Ġtsi r
c ra
Ġeu gnot
Ġy dal
pu ts
Ġdere tsiger
Ġkci rederF
1 291
Ġsna muh
5 291
t ti
ri ah
Ġreta W
h B
lo F
ki M
s ru
Ġy rts
et on
gua ni
Ġesne fed
Ġdeg ga
Ġsk catta
Ġ9 691
Ġse caf
noisse forp
Ġdes serpxe
kco tS
e so
Ġlairep mI
tnemu rtsni
b lA
Ġsec ruos
Ġ5 491
na lP
6 9
Ġart xe
4 291
los ba
Ġse ssap
t ruoC
Ġsre fer
Ġkco ts
Ġtfa rc
Ġgni poleved
se tu
yek ruT
we tS
tne vda
na me
Ġro yam
Ġria f
lo R
r ran
6 291
noi geR
level C
yti liba
Ġnoita reneg
Ġsnia rt
sht nom
yaw roN
Ġegna rts
A F
6 0
li rpA
Ġega ssem
Ġro noh
gi leR
Ġ" ;
lo D
go L
Ġhc tac
tsa M
drof xO
Ġ7 691
Ġro nrevog
sle von
Ġse las
h ga
Ġk cehc
Ġa ht
Ġma S
cre xe
Ġnoitamrof nI
Ġsthg in
elba t
Ġse irt
Ġdna L
n yl
ro noh
Ġnai na
a z
Ġse lor
Ġci rE
wo C
ts eb
Ġs dael
Ġytu peD
uqes noc
sne cil
hc rem
Ġya rg
mo n
Ġdemus sa
il f
Ġdega gne
ec namrofrep
eca ps
Ġ0 691
te iuq
Ġlanret ni
ya wa
Ġdna suoht
Ġno on
Ġseiti licaf
Ġgninia t
Ġsega lliV
noita N
Ġsrot ca
Ġde rif
Ġse idutS
Ġslia ted
Ġep ahs
O R
a rb
ta ehT
Ġ0 04
Ġed ir
g la
Ġe ib
Ġtsi nummoC
s serp
E R
va R
eta d
du B
4 0
uq a
cit su
Ġde hgis
Ġa in
fa S
Ġyr row
do mmoc
wo L
se car
cni vnoc
Ġs da
Ġs wal
Ġelb uort
Ġyti rohtua
seta ts
H C
tne manruot
3 291
Ġdeti de
ng erp
Ġsre wop
Ġnoitisop po
Ġgnik cab
E U
d rum
Ġsel tit
Ġdep ahs
Ġyra srev
ruc ca
Ġslai ciffo
Ġnil reB
Ġtsa L
Ġnaig leB
21 91
st luseR
Ġdecne irepxe
Ġyaw hgih
ai groeG
Ġrot cod
Ġte ews
na y
Ġra er
Ġp ilihP
Ġnoita redeF
ca S
del wonk
Ġdnal tocS
3 0
P C
gni ta
li P
ne hp
tfa rcria
rb me
Ġtrop riA
00 5
Ġsser dda
Ġsle dom
du es
Ġde drager
pmoc ca
Ġnia lpxe
Ġsi weL
ne L
Ġa repo
pe c
n Ã³
ega p
Ġtne ca
u fer
Ġgni cudorp
sit ra
Ġsti b
Ġci gam
Ġnive K
ĠÃ© soJ
fer P
o hw
ru tan
Ġkcir taP
Ġsu ta
Ġsuo neg
Ġgnidnats rednu
mu ht
Ġse h
Ġgniv lovni
dli w
uo hs
Ġde lur
Ġgnire enignE
Ġeni le
Ġpa m
ti rips
t orp
sle W
Ġdetce ffa
lpi csid
eni L
ff uB
Ġthg iL
Ġtse roF
q arI
Ġhsi lbatse
nom rah
Ġgni hsa
Ġtne dnepednI
va rT
Ġhguo rob
Ġytila er
Ġdeta lsnart
Ġre lle
Ġyes reJ
se ssertca
Ä «
sa r
Ġ0 8
t nom
Ġa il
rebme voN
ffa ts
Ġnoit om
Ġtneme tats
Ġk sed
to ps
Ġecne reffid
to hP
Ġy nnu
s murd
xa S
Ġgnil lup
Ġhc nual
Ġt luda
pi cit
Ġde ugra
nni W
Ġdra woH
gna m
Ġdes sik
Ġteg rat
Ġdeta mina
61 91
Ġxo F
Ġsi vaD
Ġdehca tta
Ġ ub
Ġtcej orP
a idem
v dA
sse le
Ġse t
Ġn worg
Ġgnip leh
Ġmra f
Ġeci rp
dne tni
ni boR
Ġ Åį
bo l
Ġtndluo c
Ġse ssalc
leb er
51 91
snoita ts
yolp ed
4 7
Ġzza j
Ġswo dniw
lle b
y de
li ahT
no saer
el u
r cs
Ġd liw
Ġhc ni
Ġsre g
Ġra ilimaf
Ġro irP
Ġmi K
Ġeta milc
Ġeta mit
Ġgnita d
leu zeneV
Ġle noloC
bo N
Ġlaru taN
Ġevita tneserper
Ġrenni d
Ġnoit omorp
Ġytili caf
Ġto lip
Ġh sleW
hg rub
lli m
enoi p
si H
los noc
Ġtnem hsilbatse
ni S
id is
la taC
Ġmuida tS
Ġs llaf
Ġeva D
dna p
uo r
Ġlaci suM
Ġla vitsef
cna d
f ir
lo si
x if
Ġt cepser
no skcaJ
y vaN
Ġl raC
mu ida
Ġesiw rehto
d bA
Ġen nA
Ġde gnarra
no P
Ġdehc uot
du R
po H
noi sacco
sita tS
Ġeta repo
ge V
Ġte nretnI
Ġhg ual
luc lac
a mo
el t
gu Y
Ġy c
Ġfo or
Ġi ka
mu lov
sret carahc
ro lpxe
Ġepo P
Ġgnit ti
Ġeni w
hca M
rae P
Ġna uJ
Ġera r
Ġsla mina
pa reht
Ġtse taerg
oc la
Ġy nit
tneme vom
dnuo S
Ġma s
li K
Ġa va
Ġgni li
da P
Ġda ol
Ġtneme ganaM
Ġle nnahC
Ġytili bis
Ġna elc
Ġema rf
Ġnoil lib
I M
na K
Ġma dA
Ġwo hS
Ġta bmoc
Ġgni tsisnoc
Ġda uqs
to T
gna t
ea hcra
Ġre ga
Ġseiti rohtua
Ġtse ggi
luci rgA
pa t
ir taP
Ġya we
Ġe nia
Ġna w
ne tni
a eS
le p
Ġsm ubla
Ġ Ã¡
Ġais A
Ġ6 691
Ġro inuj
Ġgnire enigne
ron revoG
Ġsdnal sI
Ġe nu
tsany d
su H
Ġs rucco
Ġlaci mehc
a N
Ġsdi k
Ġdeniat niam
se sac
Ġsusne c
Ġelba pac
itep moC
R S
ht uom
rev iL
mi geR
Ġpa l
lu F
Ġnretsa eht
lo T
Ġtso P
Ġe neg
Ġssel nu
Ġnoita lu
Ġs wollof
Ġ6 3
ca ps
Ġti forp
za ma
a g
Ġde dnuorrus
ec roF
noit cnuf
Ġru O
Ġdere dnow
Ġtrop ria
llo C
Ġtra pa
n rA
Ġevita gen
ror ret
Ġnia pS
Ġrecco s
Ġsre tirw
Ġlaci hpargo
Ġgni ward
Ġse tov
Ġnoita repO
ge B
gni r
m ret
1 0
ssa P
Ġin mulA
el pmoC
red rum
Ġega tnavda
Ġeri sed
Ġ Y
Ġdoo G
Ġht raE
Ġedu tit
4 9
Ġnoitca er
dne fed
Ġn row
Ġsd rib
Ġ5 691
iw S
Ġlabo lG
4 8
y rub
Ġdevres bo
ht E
Ġsinne t
Ġdeggur hs
so c
trops nart
i ff
Ġre disnoc
Ġ0 7
se ka
te L
Ġl lif
Ġla uqe
hp ro
Ġnai breS
Ġy satna
Ġmsi la
Ġlatnem norivne
Ġ zi
Ġeto morp
rt u
Ġyle mertxe
Ġna mottO
Ġxo doht
dec orp
Ġser tem
ai na
Ġdengis er
gni ht
uht iL
kca t
kna B
Ġgni gnahc
31 91
ir uossiM
Ġthgi eh
Ġt buod
Ġnoita roproC
Ġo naip
z t
Ġegd irB
Ġdesu cca
Ġnois napxe
Ġ3 3
la dem
Ġdeppa rw
Ġgni caf
Ġsk ca
Ġnoita n
Ġde tsu
Ġo dra
Ġet erc
e hC
Ġd ils
ci us
et na
eh W
Ã ´
le dA
pur retni
sre tekcirc
2 6
Ġde lla
Ġreh si
Ġhta eD
Ġdet cetorp
uq noc
nab eL
Ġylla cificeps
Ġtna c
c nuonna
scit sitats
Ġna ol
Ġden recnoc
e kam
Ġesi ar
o hP
Ġnoita cilppa
Ġdesi arp
sre gnis
Ġevorp mi
idep xe
Ġni ets
fles mih
Ġnoit ibihxe
re dom
Ġnoit ingocer
Ġti uc
e V
a dna
Ġes row
Ġkrow teN
tne mmoc
Ġtnem er
Ġi lA
ira C
x elpmoc
Ġlati giD
Ġcino rtcele
Ġwor ran
wor ran
Ġsni w
ka eps
Ġtpe cca
Ġla picinum
Ġylla itne
Ġ8 491
Ð¸ Ð
v ren
Ġa u
Ġa ir
lli p
sa lG
Ġre goR
Ġla nimirc
mer t
noit u
na tsikaP
Ġi du
Ġelo h
a irtsuA
gno K
me hC
Ġsm ublA
Ġs nug
y z
rec noC
Ġse sser
p ih
Â °
Ġnoitani bmoc
eu nev
Ġnia tnoc
Ġwor ro
Ġnatilopor teM
Ġslle c
Ġci moc
rot ceriD
art rop
oo t
y gre
BG L
ssa lg
Ġma d
ge led
di S
k rap
Ġm ht
oo G
g or
car co
Ġi ro
pirc su
el ttab
Ġgnit tup
valso guY
nia mer
seno J
Ġya dnuS
Ġhguo hT
Ġdetti mmoc
itne icS
Ġde poh
Ġd rib
hto M
seni ppilihP
dne t
da L
Ġegdirb maC
Ġoi notnA
Ġse z
N U
Ġya R
u pmoc
Ġkca p
ni mef
s wohs
Ġev ord
Ġsec namrofrep
1 6
Ġgni raeppa
Ġnoita cilbup
ra lohcs
Ġpu c
Ġz ti
Ġl uos
Ġerehw emos
Ġecne tsixe
Ġre yalP
Ġstne di
Ġrot coD
Ġel dnah
llo R
Ġeruta repmet
Ġnia hc
i x
de irF
Ġa ga
Ġtnem tnioppa
Ġec nO
sgni dliub
Ġse L
p mohT
egdirb maC
Ġseit isrev
Ġa w
Ġsci ryl
Ġyl niatrec
d tL
Ġdene thg
Ġyl di
Ġma erd
z ah
Ġ us
Ġdet pada
Ġs ga
Ġna P
dna mmoC
ã Ĥ
Ġx irP
Ġdex if
Ġde dnuos
thg uo
Ġxa M
di v
dna rB
et te
Ġyrg na
le dom
Ġsa lguoD
lo rtnoc
Ġdehsi lo
Ġla vi
Ġgni sirp
ana idnI
re dlo
Ġdere imerp
ye K
se miT
dne r
hc ta
Ã ¥
Ġde reviled
Ġlo oc
Ġlaci pyt
eni zagam
Ġta mrof
Ġhc eeps
Ġgni raeh
Ġgnilli w
rem E
ma N
Ġelpoeps trops
t liub
Ġsuore gnad
Ġde ina
s weN
na itsirhC
de B
lle tas
dna mmoc
rebme ceD
Ġeni tnegrA
Ġ worg
Ġk nil
ida R
lo K
Ġcit eht
Ġgni gnis
Ġst tesuhcassaM
Ġnoit idnoc
noita dnuoF
ba r
Ġtseggi b
ce ferP
Ġdesser d
Ġwor ht
Ġseb ircsed
dna r
Ġgni dnuf
ta erT
se lb
ge M
lsi gel
ro S
gna L
htla ew
á »
rb A
11 91
Ġnu f
Ġemu loV
ce les
i bo
Ġytu d
sa l
sre ganam
Ġecud er
lo htaC
Ġna D
Ġrehta ew
hp so
da c
Ġkcu rt
gni rpS
e le
r hs
Ġp rahs
rep sed
Ġsne zitic
Ġror roh
Ġsna f
rab raB
Ġd ir
ssa ssa
Ðµ Ð
u N
Ġsd er
ps E
Ġse hsa
sma illiW
Ġe tepmoc
Ġnoita si
us sa
dnal reztiwS
st rA
Ġnoit cudortni
el ihw
Ġmi T
tnec rep
Ġdne ps
s dlohesuoh
yhpargo eG
Ġa giL
0 981
eni uG
Ġeri F
Ġsega mi
Ġo rP
Ġgni z
noitpe ceR
Ġecne idua
Ġato senniM
es le
Ġy ub
uq A
Ġleu f
Ġna J
ve tS
Ġde dulcnoc
Ġnai namoR
dnuorg kcaB
Ġ4 3
no gerO
Ġan nA
itpa B
ka O
Ġtnemniat retnE
itna tsbus
ro K
Ġme tsyS
ci D
Ġdeina pmocca
oc sid
ĠA SU
le n
Ġlar de
Ġy o
Ġn wa
Ġy tua
mu K
Ġ0 9
iv A
Å Ł
Ġ2 691
Ġel tsaC
rev ir
tsis ni
Ġ3 691
ri k
Ġnwonk nu
Ġci monocE
ne T
ai bmuloC
Ġder rats
Ġgni dnal
Ġelbat rofmoc
Ġevisne fed
Ġwoh emos
rim dA
ato senniM
E M
Ġs daor
ne euQ
Ġlia t
do D
nk cin
pu c
p morp
i J
Ġtni oP
Ġte op
Ġse vi
m liF
u tS
s mrof
Ġb ew
uo R
Ġh s
Ġdeta lu
Ġderu jni
Å Ħ
Ġde llatsni
nit noC
W W
po P
Ġte w
Ġngi seD
y loP
x ua
re di
Ġs noiger
Ġs dohtem
is sop
irts udni
ra cs
uq E
Ġgni to
Ġre cnac
ro ti
Ġx i
Ġt nom
temo lik
d riht
Ġesae sid
ru bus
Ġ6 591
Ġgni solc
Ġgni sir
fo S
los sid
kca J
2 7
lpmoc ca
k col
dne H
ya r
htgne l
ew S
Ġnosre dnA
Ġl er
Ġtneca jda
tro hS
gna hC
Ġy eno
noisse s
lli w
a K
Ġde hs
Ġevis sam
na R
Ġli maT
Ġsdna suoht
gi S
mma h
Ġym miJ
Ġdet nirp
Ġniat niam
Ġsre h
Ġno droG
Ġna tsikaP
Ġla eR
t rof
wo R
Ġtsila nruoj
Ġsna ciremA
C M
ro vid
ro bal
lu v
Ġro yaM
teg rat
Ġgnin rae
re i
naps wor
yra rbiL
ge S
cna s
Ġhsi nniF
Ġroi retni
nots E
Ġt cetihcra
ba f
rus ni
gi b
Ġsee nk
Ġerom yna
Ī Ĵ
Ġecalp er
i y
Ġgni tsac
hsi lbuP
ne me
Ġrehpo tsirhC
nep O
se hcaoc
C R
i uqe
Ġke ehc
sthg ir
Ġdi los
Ġsla iretam
ti lim
Ġmoor deb
Ġeni tna
Ġnor dauqS
È Ļ
Ġtrops narT
nret tap
Ġdet ubirtsid
Ġnoita gitsevni
Ġgnit oohs
Ġd roF
da ets
yte icos
x i
Ġgnik co
N A
ba F
Ġdeir row
niat nuoM
S B
Ġdrow s
Ġ8 3
Ġ Z
Ġt cilfnoc
ne di
ta lP
icer ppa
la reneg
er ter
Ġdoots rednu
uo C
Ġnoit idart
pihs nwoT
Ġyl teiuq
i nifed
u da
Ġgni rut
Ġt rahc
Ġecna ssia
Ġyrot caf
no rp
8 091
it inI
Ġ4 491
Ġnoita v
Ġx elA
dommoc ca
Ġeru sne
T U
bre zA
so K
ri P
Ġci re
Ġo S
du L
te gev
ia brezA
tsi na
Ġero hs
sei ro
rete v
dne tta
Ġna j
Ġda m
il g
Ġel cnu
s nois
Ġre sopmoc
Ġden rub
Ġdek nil
Ġylla mrof
Ġsei re
Ġte kcirc
Ġdelb mu
li H
cni V
Ġst cep
Ġscit si
stne mu
euga el
Ġna h
Ġse es
gnim riB
Ġh serf
Ġeno b
el P
p sid
re le
e Y
Ġo ci
Ġo j
Î ±
y P
sre teP
Ġhca eB
sega ugnal
Ġne euq
y medacA
no T
tu per
tse g
Ġta erht
ni ets
ol B
e erf
Ġte elf
we iveR
Ġs weiv
Ġa vo
Ġsecne icS
Ġenim reted
Ġff uts
v I
Ġni hc
ak sa
Ġa s
Ġgni mmargorp
Ġrev liS
ram s
Ġt taM
Ġsa edi
ylla noit
Ġwo H
Ġtse ilrae
Ġesa hp
Ġyra nidro
nu G
s drawa
Ġno te
Ġ2 591
ylbme ssA
dna rG
ni er
Ġdeta ti
Ġnedd ih
Ġt cnitsid
retsa m
ema G
Ġt eb
Ġseit reporp
Ġek irts
Ġla ngis
Ġ ĠĊ
ti M
Ġecna vda
wor f
Ġsgni w
Ġlau siv
eruta retil
a hc
Ġs dnab
Ġeri uqer
re hC
Ġne tsil
Ġoda roloC
sei napmoc
Ġsec roF
mu C
Ġylra luger
Ġla van
Ġz e
Ġri s
Ġlai noloc
Ġta oc
Ġno raB
Ġlo r
ros ba
Ġs fe
s wo
nia P
22 02
Ġstne itap
Ġdet fihs
na Y
Ġsel cihev
Ġdevorp mi
Ġretse hcnaM
Ġi m
Ġsei poc
Ġtu O
isrev ortnoc
Ġrepp U
se vit
Ġy eb
Ġsi o
nae cO
rop met
Ġdeta rapes
nosirp mi
Ġst uo
Ġlarut lucirga
Ġelibo m
Ġa erA
ya s
hp som
Ġderf lA
et utitsnI
ã ģ
Ġstne ipi
Ġs weJ
Ġyltne g
Ġdevi vrus
Ġela p
r Ã¶
Ġdne tta
t raH
mo P
Ġec urB
se ussi
3 7
lo ve
ulc noc
Ġte ragraM
so lihP
Ġse civreS
Ġyl dneirf
Ġyl liB
Ġtnemer iter
na h
ne go
Ġnoit nem
n did
Ġnre cnoc
Ġsevita tneserpeR
nar reti
Ġyti ci
nwonk nu
po ci
Ġsna ici
Ġylla cita
Ġgnu h
Ġed ih
dno ceS
2 0
Ġgni sa
Ġgnire ffo
Ġecit on
Ġcin hte
eb b
u f
va r
ie K
e civreS
noita zinagro
Ġs tsa
Ġgnita ts
Ġder it
Ġ2 491
Ġnoit cnuj
t raeh
Ġev iF
Ġka ep
Ġht neves
Ġnai rotsih
Ġdehca orppa
C D
Ġerut pac
rae p
na mow
doo f
Ġyl hguor
hto G
Ġsega ugnal
lo po
Ġyru jni
el g
Ġs htoM
to lP
Ġ1 691
Ġtni rp
Ġssenk rad
Ġgniy duts
ter ces
vo ner
Ġedi sa
ra r
Ġeru saelp
Ġdna rg
Ġgni poh
3 9
Ġret rauq
a ir
Ġsi seht
no sir
er tnec
R N
P I
vo L
) (
Ġrep orp
Ġecna tropmi
Ġyza rc
Ġsn gis
no tsoB
Ġgni rts
la id
thg iL
let nI
Ġht neet
Ġp U
rev op
Ġo iR
Ġne b
Ġ rucco
di b
Ġle hca
Ġesa hcrup
Ġylla mron
bu R
Ġel gna
Ġtahw emos
Ġo b
ĠA M
ni traM
} |
ro i
Ġs noipmahC
Ġni rg
Ġyn nhoJ
tpe cca
noi sivid
Ġevita vresnoC
m rif
Ġde siv
Ġsec ruoser
ni P
so C
Ġylt fos
Ġnev ird
o reh
S O
Ġsse cnirP
hcti M
u reP
ĠP M
kcu B
de s
Ġre di
ĠĠĠĠĠĠĠĠ ĠĠĠĠĠĠĠĠ
ĠAF IF
sla og
lle H
rop er
Ġi zaN
da rP
pargo tohp
Ġn yl
ees senneT
Ġgni ssorc
ee uqs
Ġsesu ac
le V
sa V
ni K
Ġte kcop
Ġgnid da
sre ciffo
lo ts
Ġpihs nwoT
0 881
ĊĊ ĠĊĠĊ
Ġdet ubed
nil loC
Ġnois ser
Ġdesi morp
Ġgni ri
e ceerG
Ġ8 591
Ġa it
Ġderet ta
naw iaT
Ġxodoht rO
eetti mmoC
Ġgnita r
Ġdet nuom
cilp moc
Ġt p
Ġw elf
Ġsre n
emo S
y do
no raB
Ġtse uqer
nai G
se su
sop xe
yel laV
Ġde dnal
n Ã¼
s rM
noita zi
2 9
xa M
Ġdi puts
edo sipe
ss E
Ġ rup
rts id
leh S
Ġesne feD
Ġtfa rd
- -
vi v
ht ym
Ġredne g
dnal yraM
y limaF
Ġdeif issalc
Ġegne llahc
Ġlai cnivorp
Ġgnid liuB
Ġse necs
Ġdet o
Ġre ciffO
n S
Ġtsu J
Ġseu nev
Å ¾
Ġlai car
Ġsa L
no rB
Ġs dro
Ġela M
h r
Ġne llA
Ġlli W
d nE
seit ivitca
eno ts
Ġ9 591
Ġoge iD
Ġna yR
g irb
Ġot a
Ġredna mmoC
Ġecne loiv
pa l
ĠD VD
y kcu
Ġdeta eper
no l
Ġsria ffA
Ġrewo L
Ġeso R
g eler
Ġre dnow
Ġsehcru hc
ro tta
Ġdna med
st rahc
go T
ti C
na pS
pm I
Ġse lu
Ġyt itnedi
Ġnoon retfa
Ġse ciffo
ru G
Ġseta repo
Ġli ve
na rG
Ġnam riahC
Ġwo csoM
Ġde lp
a et
lo op
Ġmode erf
Ġro b
Ġeno z
nia R
o ediv
Ġhguo rhT
Ġffe J
Ġtsi xe
la reneG
Ġa rb
trop riA
Ġezila er
Ġev reser
Ġgni zila
9 091
ir raw
Ġyra G
hp myS
Ġyllufe rac
la su
Ġano zirA
ra V
eka L
Ġdet fa
Ġtna rg
Ġsnoita col
mer iuqer
Ġsk ooB
ye R
s lia
my no
o W
pm yla
Ġsol raC
d O
Ġtna ig
Ġ Q
ne erg
Ġo hW
2 8
Ġre ir
Ġ3 491
meni C
Ġde lif
Ġgnin gis
k O
Ġhsu p
Ġgnita efed
Ġhca eb
Ġeci V
Ġtne laviuqe
maj neB
re a
Ġra eb
yr C
5 091
3 8
s raW
is nes
re lc
lle cxe
Ġs weiver
tsi L
Ã «
Ġo nai
Ġa ve
f lo
7 091
Ġnoit ceS
Ġno ihsaf
Ġworro mot
Ġo m
Ġem irp
hta M
g salG
sedo sipe
Ġla nruoj
sehc tam
Ġeso ohc
Ġ ce
Ġgni dni
Ġduo l
Ġstneserp er
Ġre ywal
T R
lo oc
tnev dA
to c
t rahc
Ġsre wolf
Ġkci N
Ġcitna mor
nos nhoJ
ev is
el rO
Ġen ruobleM
Ġer reiP
Ġne llaf
Ġste erts
Ġtna ruatser
Ġecne gilletni
ĠAF EU
ĠÃ ł
ila ttab
Ġ0 491
Ġs dnuf
Ġyrater ces
Ġe reves
Ġa te
Ġnoita lipmoc
ero pagniS
ot no
na V
nga id
Ġ0 591
Ġeru liaf
Ġsk ci
Ġec I
Ġa rolF
Ġ6 491
Ġs dnuorg
Ġnai narI
Ġs PM
Ġg ne
Ġsela mef
Ġdene taerht
wo T
Ġsgni leef
Ġei raM
ci loP
ceps ni
csa f
S AN
Ġnoita dnuof
Ġela s
yl suo
lehca B
Ġra m
Ġkci rb
Ġnoita lsnart
ro hc
Ġci hparg
er taehT
se ti
P L
Ġyleti nifed
Ġde yojne
dna c
pircsu nam
la ts
ie B
Ġsre pap
Ġlaci r
Ġdesu fnoc
Ġytu ped
Ġtsaeht ron
yl no
cej orP
Ġnoitce les
Ġelbi siv
narreti deM
Ġlai ci
dro N
k raM
Ġgnisi ar
eta ma
Ġdec nuo
tta h
Ġre po
Ġre y
Ġwe iveR
6 091
c nA
Ġ1 491
Ġha raS
yro eht
Ġyno merec
Ġne drag
va d
pmyla raP
Ġl y
Ġesi on
Ġde ye
sret niap
ca B
Ġelif orp
Ġdeta ert
gi le
Ġy mono
Ġeta lp
S R
lle cna
lla C
Ġeg A
Ġnois netxe
Ġre enigne
Ġro vaf
Ġna l
nor hC
C E
Ġke eW
Ġnait pygE
noita tS
Ġeta picitrap
a ka
Ġhc ra
krow ten
Ġygre nE
reta L
Ġlaitne diser
Ġe naJ
Ġela d
ht uA
Ġ9 391
va P
Ġseta didnac
Ġedi ced
Ġgnire tne
ngi seD
Ġs reviR
hs raM
Ġeda rT
Ġnosa J
Ġeruta retil
Ġtid erc
Ġde ef
Ġtcej bo
ani tnegrA
se ton
Ġnai ni
vo nni
ma l
hpargo meD
Ġ7 491
Ġna I
ilit u
g orP
sk e
Ġnoita roballoc
Ġeta h
Ġre lliM
ĠC D
Ġsno saer
ez is
Ġtnedi cca
Ġnot limaH
msi la
Ġ7 591
Ġa eroK
st uo
Ġe iD
yhparg om
Ġka ew
a ru
ĠAB N
erp retni
Ġno rI
thg iN
ts mucric
ula ve
sela mef
Ġkco hs
M F
irba G
1 7
Ġeno tS
noit pircseD
Ġht rof
Ġret niap
Ġsniat nuoM
Ġeru ces
st rops
ll I
Ġnoi geR
w erc
tset orP
Ġdedna med
tnem norivne
na eM
Ġare mac
Ġse sroh
Ġgnid dew
sec rof
e o
u n
ama J
Ġda orb
res sa
Ġni etorp
Ġsnoit cnuf
Ġa di
Ġ6 391
ke erC
Ġrot ciV
ir tS
o naip
mi eh
c rA
lo hcS
Ġteg rof
Ġa nu
Ġrecco S
e Z
Ġycne greme
cif i
ia H
n gocer
de en
Ġsre nwo
Ġtsew htron
Ġkci n
tsi la
di loh
Ġse car
pa K
Ġseu ga
C P
lia s
uT uoY
ni p
Ġtnedi cni
er tneC
1 8
ti H
Ġecne rwaL
tsi p
Ġ5 591
Ġy ni
ubir tsiD
Ġnam roN
Ġsnrut er
lo ser
ec noc
ua g
Ġez irp
Ġecna tsiser
we j
Ġytilibis nopser
Ġdere wop
b moC
ĠP E
Ġgnihsi lbup
Ġm lac
Ġylia D
rev er
pu p
Ġdetcele S
yrau rbeF
tnemtrap ed
Ġdooh robhgien
# "=
du H
ro noH
mu igleB
lla t
ebb iraC
Ġksa t
Ġeh ca
noisivele t
Ġdna loP
ruob hgien
niat nuom
Ġnois se
Ġsedi seb
Ġts row
Ġe B
ter ceS
leh ciM
wo leb
1 091
si me
Ġo la
ces orp
Ġel pmeT
Ġnoi savni
Ġsre yalP
me F
ce frep
Ġecne dnepedni
Ġdezi citirc
pur roc
Ġak sa
hsi napS
Ġylba ton
Ġdep muj
Ġeciv ed
ne rdlihC
Ġgninia rT
Ġeer ga
rot caf
Ġdega mad
tlu S
se t
Ġna f
uo cna
rtu en
man yd
Ġssa rg
Ġa ssi
ssen tiw
Ã© M
Ġo ri
Ġgni llor
Ġle ehw
Ġsder dnuh
gno M
ka L
Ġna hK
Ġstne mom
we ner
Ġsnoit ubirtnoc
lim E
fles ti
Ġs not
Ġdet cejer
1 9
Ġgnik ahs
Ġdesu ap
Ġai na
Ġti orteD
wo N
a rfni
Ġtrop S
Ġla tsaoc
Ġgnin rub
su crep
tsy rc
Ġdel ba
Ġyt riht
it luM
B F
Ġ8 4
otno roT
lanoita nretnI
3 091
Ġgnit tel
Ġsme ti
tna C
Ġn ni
sma rgorp
Ġylsuoi res
er ced
Ġret nuoc
Ġa si
idis bus
si ruj
Ġrota neS
tol rahC
Ġseg rahc
4 091
ecne ics
Ġnev E
Ġelc ric
hta c
za G
e moc
Ġpihsre ntrap
i ve
Ġyro getac
Ġna eD
ki V
noit seuq
Ġsthgi R
Ġk ralC
Ġhci w
ro sse
Ġgni nim
Ġnug eb
a lle
Ġt ter
s ih
Ġdna B
Ġman teiV
Ġyl keew
Ġn nA
Ġsu seJ
Ġd da
Ġra t
Ġeka w
Ġsgni tniap
il C
tne migeR
Ġdem ma
llab tooF
Ġnoita ru
Ġ" )
lo co
Ġts gno
Ġy dnA
Ġe rt
Ġlave idem
Ġyram irP
lu caF
a W
Ġlav irra
in go
Ġle toH
gel loc
mu t
Ġ4 591
Ġsle ef
Ġde dnopser
Ġa so
ah xe
se B
Ġ9 491
Ġev iv
nu K
Ġyl urt
dna hC
lis sim
Ġsetel hta
Ġde vas
ma rG
za mA
Ġa tte
tsi golo
lati psoH
kco lb
Ġre su
Ġlle ms
sei cne
Ġelbissop mi
pe cer
Ġde vo
Ġto lp
Ġyro tS
Ġana idnI
2 091
Ġecne diser
Ġega tS
Ġkci s
e niarkU
Ġecna D
Ġema F
Ġeru saem
Ġdeya rtrop
yrau naJ
tnemtrap eD
snoita zinagro
uocna V
rbe N
Ġylsuo ivbo
Ġgni htaerb
g U
Ġne ddus
noitamrof ni
tu n
sla i
Ġkna t
to B
u ca
Ġst ih
Ġdenia ter
m roF
Ġse to
tnev erp
s dne
Ġta c
ta eB
ga h
Ġcit elhtA
Ġht om
Ġy oR
eg reS
Ġde rF
ec rof
I R
hpsom ta
re pap
Ġh sid
Ġs noissim
Ġega lliV
Ġar re
cip sus
Ġs htaed
ar T
Ġa p
ce ffa
Ġe nummoc
Ġdesa e
uqca J
Ġgni daeh
Ġgnik rap
ll it
a woI
sti nu
ime S
Ġerut luC
namrof reP
Ġtna tsissA
Ġni giro
Ġlarot cele
Ġderaeppa sid
Ġ3 591
Ġgni gnah
Ġo idua
Ġtna tsnoc
ila uQ
0 781
a D
Ġreta erG
Ġha nna
ro eht
lasu reJ
rp er
snoita repo
Ġlanoita cudE
Ġsgni drocer
Ġtf ihs
s citilop
Ġ2 4
Ġai no
ykcu tneK
ecne icS
Ġ1 591
sa H
E L
Ġnai rotciV
stsi golo
Ġ5 7
Ġne s
Ġno paew
ma iD
Ġretsa f
Ġgni calper
Ġselp maxe
Ġf luG
ro tide
Ġ ÃŃ
Ġyel natS
Ġel bme
ot rac
Ġneet fif
Ġte kcirC
h serf
Ġdepp iuqe
Ġwe httaM
Ġ Ð
de if
Ġda lg
Ġeg duJ
Ġevita ler
Ġe le
ĠO EC
Ġn locniL
rae f
va p
Ġtnem tsevni
yen dyS
re enigne
Ġeta cidni
rome mmoc
Ġseiti liba
ra j
sa T
d nom
e miT
Ġcit sitra
ne volS
tsina hgfA
Ġdna le
Ġgnita eb
Ġgni rpS
Ġne dlog
Ġdere htag
gnis sim
E D
Ġsno srep
Ġyel lav
Ġsusne C
Ġseru saem
Ġscit elhtA
ba t
ici ffe
noita ni
Ġgna g
Ġgniyf ilauq
Ġdek lat
kci r
Ġseri uqer
Ġtse T
Ġsre gnessap
mmah uM
Ġtse irp
Ġa ila
Ġe ek
Ġsdra ug
Ġla oc
Ġem margorp
Ġgni unitnoc
nu B
na rB
O S
de saeler
no w
re hT
Ġamo halkO
Ġdele vart
Ġs citilop
y xo
pa m
Ġtsew htuos
Ġtro hS
Ġycne ga
Ġna ga
Ġtsaeht uos
rat nA
a ihpledalihP
ye M
noit ide
Ġni snocsiW
Ġne hT
sd row
Ġdeka ep
Ġnoit pircs
nai cisum
Ġnots uoH
Ġsdra c
xa s
ci b
vi oV
di ug
Ġneve le
Ġdek cab
Ġeva rg
sp tth
mi Z
Ġslli ks
Ġgni lims
Ġsi so
bu d
Ġecne uqes
Ġevisne ffo
Ġ02 91
Ġmuida ts
Ġdeta cidni
Ġlacit irC
Ġnoita cinummoc
Ġstse ggus
dne csed
Ġylla noisacco
le F
Ġ, %
Ġste em
secne icS
Ġdepp ils
ka S
ye B
Ġsre k
Ġeterc noc
ttah naM
Ġ. '
rtsu rf
Ġecna lab
Ġt cni
Ġtf il
l row
ssab mA
e is
Ġeti rovaf
roba L
Ġ7 3
ra wa
Ġgni mialc
Ġeda rG
Ġeh cs
Ġlle B
mi K
la niF
m is
Ġytili bissop
Ġtnem norivne
Ġtne rruC
zti F
Ġde mia
id eM
sk cart
Ġe us
Ġyre llaG
Ġeman rus
tlu snoc
kram neD
Ġdoow ylloH
Ġeni ppilihP
Ġs loohcS
a s
hgi ew
Ġst cejbo
t reb
Ġdeg reme
t pygE
dal V
Ġt rof
Ġgniti siv
Ġdeppa ns
tu citcennoC
cni C
Ġd yol
Ġsdnal rehteN
Ġi ah
Ġcit o
ti psoh
Ġse moh
tne diserp
ma rgorP
Ġy me
nne B
Ġgnin raw
bmo B
po T
y N
Ġyrasrev inna
e ir
tne mailraP
Ġef ink
Ġgnit naw
Ġo iratnO
Ġa voN
Ġtiri ps
sa ert
Ġde tsixe
sp roC
sni k
Ġde tsal
Ġde tsa
et orw
Ġnahta noJ
Ġl raK
Ġeta irporppa
noita roproC
Ġdem lif
Ġy ht
li bo
nu ts
v lovni
saer T
Ġswo lf
ih se
Ġse sirp
Ġdnal sneeuQ
ta f
Ġm ut
Ġdek ca
Ġro irep
co nni
de hcS
Ġtne manruoT
x oB
talsi gel
Ġgnine tsil
Ã§ narF
yllanoit iddA
y kS
x iS
Ġy go
k rad
Ġo idutS
Ġla vorppa
rot tA
Ġy sub
i no
na ht
de W
Ġsnoit ces
ron revog
Ġyl gnorts
setu nim
Ġe loc
itse t
Ġnwor C
tu hs
e to
tse R
erc S
L A
ama balA
Ġyre ts
Ġk raD
Ġeve ihca
Ġyltna cifingis
pa M
rim da
noita repo
fo or
hci M
si rB
Ġtnem hsi
Ġeca eP
x el
Ġwon s
ruo B
X X
na L
Ġtoo hs
tsa oC
Ġci ssalc
cer w
Ġsre tem
ga lf
Ġne T
er cer
r S
Ġnoit po
Ġses ruoc
lag utroP
pi liF
pi cer
Ġsre nniw
sedo vioV
su rP
Ġdi k
M B
Ġgnidne s
ne hc
Ġnoita tropsnarT
Ġylgni saercni
ru teR
Ġtnei cnA
ai rotciV
Ġemo R
noit curtsnoc
dno M
Ġsre tirW
doht eM
a vo
tnedi cca
Ġe j
muida tS
Ġkco lc
snoit ca
rac S
Ġke es
ff u
tneme le
Ġsre su
Ġneve S
ide moc
Ġt fo
hc ysP
Ġgni sse
Ġ4 6
sre sopmoc
Ġle v
ĉ ĉ
Ġyr ram
sevita tneserpeR
Ġnoita rtsinimdA
da C
co V
Ġlaci nhceT
le P
re tsis
se cnere
se lba
l lih
oo c
hc oR
D P
rt ni
da hS
Ġs mo
Ġgni tset
v laS
se lam
lu P
Ġde rotser
Ġreta eht
s wen
Ġdet cartta
Ġllab yel
Ġni majneB
fi F
ngis er
eg ral
ra A
se W
nia gA
dnal si
Ġle llarap
Ġlausu nu
Ġs tsoh
Ġgni crof
Ġma ets
Ġeta L
Ġnoitcurts noC
c ratnA
Ġgnidne ps
Ġeil rahC
Ġyen ruoj
Ġgnik nar
Ġeb ircsed
sre n
O N
Ġima iM
Ġdnuo S
Ġsdra ob
Ġyaw daorB
Ġde do
Ġdeti c
cni vorP
mu loC
Ġtso L
Ġtne bmu
na t
s ffo
8 981
uq ni
Ġsta ob
Ġega rots
Ġyraropmet noC
Ġgnitse retni
golo pa
oda roloC
Ġi L
Ġen rob
Ġnoi nipo
bu D
re sopmoc
ine ohP
se j
ma eT
Ġdedna mmoc
Ġ5 5
pe cnoc
Ġs ua
Ġyr la
pi cnirP
re dael
Ġel ca
ra J
ni D
re ciffo
ma hC
po s
Ġega nam
s b
Ġlanoit cif
e il
Ġev reseR
Ġeu gola
Ġf eileb
Ġ8 391
Ġse vom
d nim
gi van
me s
Ġsse hc
Ġgnit niop
na s
Ġde gnoleb
Ġx ua
node caM
cu B
Ġs doog
Ġelba ts
Ġsdnal si
Ġra cs
la d
roc se
ce lom
Ġgnita e
thg ie
Ġh p
Ġtcnu feD
Ġyratnem elE
k ce
ygolo nhcet
Ġy ortsed
e tov
ru tsid
so h
dle iF
terp retni
Ġyra te
Ġgnik ci
Ġdna levelC
na fni
Ġtnem yolpme
y p
Ġti feneb
Ġa nim
Ġyratne mailrap
Ġhgrub sttiP
Ġnret tap
yt nuoc
Ġeca rg
ru N
ib ma
oc sicnarF
nil yc
sruo noH
j ieB
Ġga lf
Ġytua eb
Ġnwot nwod
cid siruj
Ġera w
Ġyhpargo iB
Ġl lim
id o
Ġnoit cudorP
trop pus
Ġsei napmoC
Ġees senneT
Ġstcep sa
ne lG
f loW
Ġmoor htab
ro op
va J
si la
sk roW
e gna
Ġeu cser
Ġt nuoC
Ġht ne
yra gnuH
Ġeta idemmi
nni cniC
Ġeni F
Ġi lle
s nos
Ġyt liug
Ġsuo ivbo
lec raB
Ġd ua
Ġgni caR
9 981
Ġsee yolpme
ea eca
Ġnoit ila
snoit idnoc
hsi F
Ġk u
Ġla cov
Ġrot ces
Ġs soR
Ġ8 291
p il
elb uod
Ġde tset
Ġgnivi vrus
y ram
o ba
rips ni
ya J
lf ni
r hp
hsa N
Ġrot ce
Ġyhpargo eG
Ġkca B
Ġcit en
Ġseu lav
lli k
ger gga
ni hc
sna H
Ġno gerO
Ġstnemu cod
sdra ob
Ġp maC
Ġgnik ees
Ġidu aS
srev ortnoc
Ġena l
ya doT
Ġwa j
Ġdeta rbelec
Ġren raW
Ġde te
Ġdera elc
Ġdesop xe
dnab suh
Ġtset orp
Ġ ja
a reneg
Ġlles suR
ni V
hsi B
Ġeni gami
y lf
ĠA T
Ġt pircs
ces ni
Ġteg dub
Ġstse retni
Ġekil nu
ai senodnI
Ġdet ucexe
Ġel pma
A D
Ġnois simmoc
Ġy monoce
Ġpu ekam
Ġde lf
Ġsre nosirp
et u
ai namoR
Ġgni dneped
Ġse if
tne vni
Ġd nE
ĠT BGL
ngi S
noit cudorP
Ġelba redisnoc
t raP
Ġ9 3
re ff
Ġir uossiM
Ġtneici ffus
d row
Ġ81 91
Ġeta virP
kca M
dnu F
Ġdoo F
Ġt ob
citamehta M
snoit isop
se di
re A
v eler
Ġgnire ffus
E T
dno b
Ġevo mer
Ġyt lucaF
Ġt raeH
v ir
Ġ4 4
Ġyr c
Ġlia rt
Ġrebma hc
vo C
Å ł
Ġderu gif
Ġsk nab
poci leh
lec I
Ġsniat nuom
yaw liaR
Ġeta lu
Ġde dnuow
re htaC
Ġgni sser
Ġswo dniW
j nuP
Ġmi eh
Ġa de
lu T
Ġtse raen
ruo vaf
Ġnil knarF
z S
elihw naeM
Ġecna net
Ġdehsilbatse sid
Ġy erg
Ġel ytse
R I
s weiver
Ġdei ned
S D
Ġeda girB
Ġht ped
Ġp muj
Ġtsgno ma
Ġyti vit
Ġsehc narb
yhparg ocsiD
cel letni
gna hS
Ġo ira
s mu
Ã ģ
Ġx iS
suo ca
na idnI
idra uG
Ġ7 4
do ehT
sla udividni
Ġecne feD
lati pac
Ġluf re
Ġsre ts
el tsaC
Ġ1 4
Ġl woB
la deM
Ġevit ceps
Ġdnuorg rednu
er pmoc
Ġre idlos
Ġlai cif
Ġecna tsissa
Ġsnoi sivid
be ye
me T
Ġsn recnoc
Ġ: .
Ġh pla
Ġle b
Ġla nigirO
tnev es
Ġflo w
Ġna ya
Ġo dna
Ġ0 51
ĠAN D
le bal
lcyc nE
ecni vorp
Ġn hoj
rts A
tsalb O
mu D
Ġno nna
Ġsnoit itepmoc
Ġera uqS
er iF
go B
Ġdno pser
ihc S
evo ba
Ġtse gnuoy
Ġre gne
Ġro ivaheb
m raw
Ġdra uG
so j
z yB
ra haM
Ġam me
Ġs ri
c raG
x u
5 981
ye nom
a ti
Ã Ł
Ġkcu ts
Ġa hsa
Ġlait ram
ga L
reg lA
Ġne hc
Ġt cudnoc
s wollof
Ġde gella
Ġtsila icoS
Ġyr teop
l ihw
bo caJ
Ġ7 391
Ġstsila deM
Ġo ykoT
oc S
Ġrot caf
ano zirA
Ġtf ig
Ġev iti
Ġtsir hC
noit uloveR
to R
Ġt nua
v il
mi ceps
ta mrof
Ġno g
Ġgni cne
kco c
zi roh
re ganam
Ġti p
llab tek
a es
gni mmargorp
ret rauQ
Ġy poc
Ġgni tu
rd yh
eman rus
Ġdeif idom
Ġdero snops
hca eB
Ġzza J
Ġnoitu los
rets mA
Ġna itaorC
n reta
Ġts lihw
seit ila
Ġ4 291
ma Y
g nuoY
ea d
p lA
Ġy hc
Ġlaitne ulfni
7 981
ba H
cs E
Ġ Ñ
Ġh sac
vit luc
lo iV
Ġyldi par
Ġkni p
Ġtsi aw
Ġlairts udnI
Ġyoj ne
Ġyl peed
Ġse sse
Ġde snecil
ya rp
e citsu
Ġdeta iliffa
Ġetsa t
x ot
ne mo
Ġnoita ler
st reboR
op yh
C L
isi uqca
ĠR S
Ġs dlohesuoh
Ġd on
ena t
ea hcrA
z o
ma G
Ġsega p
e saesid
Ġnai no
ya P
Ġtna rG
Ġgni tepmoc
ni s
es rev
Ġdedne psus
y rts
Ġyt lucaf
vi C
tsu lc
a f
Ġg ia
na N
se iduts
Ġde tsop
Ġ0 391
tna S
d r
sop ed
Ġxe la
Ġsna icisum
Ġni suoc
se cca
ĠA L
ho B
Ġnab rU
Ã ª
Ġdnuo rA
Ġ.) "
delwonk ca
Ġyl leK
Ġytila col
Ġnois sec
Ġtneme le
Ġla picinuM
Ġn ÃŃ
Ġep yT
6 981
sed iw
ah ciM
Ġk ra
e pa
sruo h
Ġgnire disnoc
Ġ91 91
Ġtce pxe
eunev A
z noG
Ġtne loiv
Ġt op
Ġgnikni rd
Ġror rim
Ġa repO
Ġsi uL
Ġa et
a nne
y tS
me tsyS
Ġma rgorP
Ġeta rot
Ġek oms
serp ed
0 681
ret cab
Ġa xaT
el K
Ġstneipi ceR
de id
lpme t
Ġsel gniS
y li
po iht
Ġyad rutaS
s U
Ġsdra dnats
Ġdecne tnes
Ġsm itciv
erut ceferP
Ġyen siD
Ġdez is
Ġtne itap
Ġena cir
O M
nos liW
deti derc
stne rap
t cu
Ġ2 5
A T
Ġnoita tuper
re W
Ġgnid ir
Ġdenni rg
Ġde edni
reb A
ce L
bata d
se il
Ġnoit pircsed
Ġ0 06
Ġyr reJ
Ġsuo vren
ppa H
Ġy dda
ced erp
div idnI
Ġht ooms
Ġseni gne
e eL
Ġesi rp
ecne di
Ġekil nU
ĠoÃ£ S
Ġeseco iD
dlo H
Ġgnipe els
mo g
ua L
Ġecitsu j
t nu
za M
Ġru etama
Ġregna d
ylla u
Ġni b
yle ta
Ġgni hgual
Ġsp leh
Ġtca rt
Ġre eb
Ġnae narretideM
Ġeci r
Ġnae cO
era w
noi nu
se tis
ni mile
Ġti mil
Ġnai cisum
Ġne draG
Ġgni rutcafunam
Ġo h
tu H
Ġdehsi ugnitsid
ero M
y G
Ġsser gorp
yti lib
Ġsre taw
Ġp it
a pmaC
oo h
gna rts
Ġret uo
Ġdera cs
ah ni
erb eH
t nuoc
erof eb
Ġt leb
Ġnagro M
dnal sneeuQ
Ġrei sae
Ġmu minim
Ġlle hs
val S
Ġhguo roB
lum roF
noit cif
eg ufer
Ġno om
Ġde cnivnoc
Ġsa es
Ġsalo hciN
na lpxe
Ġno re
Ġna ts
Ġa woI
Ġden worf
fe L
Ġi ppississiM
Ġro bal
na n
Ġlati paC
Ġelt tob
Ġreve rof
hg uH
Ġsu c
Ġgnihsu p
sec ruos
Ġsa erehw
Ġts rub
Ġdeci ov
gna M
it laB
Ġretu pmoC
Ġf fi
Ġserut cip
Ġske ehc
noisi vorp
Ġse rots
Ġdra dnatS
Ã ¦
Ġm us
su f
wo c
go D
Ġse erged
Ġyllau darg
n dik
dl O
Ġdna mmoC
tne diserP
ca rahC
â ĪĴ
Ġ0 08
mrof rep
r da
Ġmah arG
Ġeu tats
A I
Ġle nnut
Ġrebma hC
or tsa
w erdnA
k ra
dra ug
Ġde dnuf
Ġdooh dlihc
is uht
Ġt ta
scit irc
Ġtsi ssa
lo d
Ġse suoH
Ġlagel li
es ruoc
Ġen yaW
Ġgnihsi f
sa K
ne hw
o ykoT
tu M
Ġla srevinU
er txe
Ġht hgie
Ġh gniS
gil letnI
Ġdehsi w
Ġseno b
Ġyr raB
Ġpihsre bmem
ti paC
Ġkci w
la k
Ġyf itnedi
Ġ5 391
lli G
Ġre z
Ġylla tot
li cnuoc
Ġa hp
nrut er
Ġnoitisop moc
uq htrae
ygolo nhceT
Ġtneme calper
Ġrek laW
siv dA
Ġdeta nod
Ġerehw yna
Ġdet civnoc
ais yalaM
Ġnaht e
tse T
Ġdet ubirtta
ga gne
Ġeni zagaM
trap ed
Ġecna lg
Ġya W
ir roh
Ġe nne
e groeG
Ġlufe su
Ġma il
Ġsir raH
Ġnia lp
Ġ9 291
Ġne i
Ġk c
Ġykcu tneK
ni eH
Ġhg uH
pihs noipmahc
Ġero pagniS
Ġnai nemrA
Ġ2 391
Ġnoita sinagro
yti srevinu
Ġd liW
Ġthgil F
eca F
rua so
Ġnois siM
Ġycne utitsnoc
di vaD
cna niF
Ġt le
Ġwo N
yre temeC
nre dom
Ġecni rp
ht iW
y rtsi
noisivele T
Ġde weiv
Ġs ff
Ġy oB
ila c
Ġgnita udarg
wa D
Ġtsu rT
Ġsehca er
Ġti urf
Ġa do
Ġeci lA
ri H
Ġselp i
ida rT
Ġpihsre nwo
poiht E
kci p
ĠCB A
Ġse sa
0 51
Ġderet tum
Ġua eruB
Ġtne ma
Ġet na
Ġscit irc
Ġgni calp
Ġa rabraB
Ġeta icossa
Ġsna H
kcu A
Ġlufe rac
ret po
00 3
ur U
Ġsus rev
Ġre peek
Ġgnil tserW
Ġme op
S T
ma xE
Ġtneme crof
do l
ro jam
Ġret nuh
Ġniht iW
Ġyr raL
st cudorp
lia t
m ht
Ġre nna
Ġd im
Ġna ed
sci hpargomeD
picit na
Ġno mmoC
enat lumis
ngis sa
Ġylla itrap
ega irram
dra oB
Ġl ihP
Ġdi par
C N
Ġthgin K
Ġo a
Ġda erp
Ġngi er
Ġre tso
mi D
Ġdet uohs
Ġpe el
Ġdekci k
ruo seR
ssa rg
eci ffO
Ġsecnere ffid
ru J
hsi lbup
Ġ4 391
Ġhse lf
vres bO
Ġs ngised
Ġ71 91
thgi ew
rre F
ksa S
i nim
Ġy hto
tsir hc
Ġ3 4
Ġya b
ed nI
bo H
ni ts
ym ra
Ġk ced
2 981
e ussi
Ġdeta nimod
9 881
Ġsei romem
3 981
m rum
s da
Ġdi b
Ġesuo ht
nmy g
Ġnoit pm
Ġskco lb
Ġ6 4
Ġdne keew
wo csoM
Ġero oM
Ġlatnem norivnE
nu d
ir raW
Ġro tom
ihpo s
id uA
cit rA
I V
s rm
ro toM
te eb
Ġne M
Ġyl trap
Ġo reh
uo l
Ġylevit ceffe
Ġse lam
da N
Ġo D
Ġro lehcaB
Ġll it
Ġdna s
wo ns
Ġro baL
hpe n
gni tirw
Ġseuq inhcet
ia F
Ġi l
tneme ganam
tnem niat
Ġgni gnoleb
Ġsei rutnec
len nosreP
Ġci rtcelE
Ġ3 391
ih so
Ġyru tneC
tu eD
no sa
) "
Ġt cerroc
x iM
sei rutnec
Ġlarut cetihcra
Ġtes pu
a ya
| ";
gni d
Ġsts oc
Ġ va
Ġor teM
Ġtse ggus
Ġffa tS
h ocla
ri ks
del lik
Ġtnanetue il
ru e
Ġi re
Ġna droJ
5 681
Ġeka j
Ġdemrof ni
ne tta
Ġde pacse
li miS
il u
kcu hc
se ir
Ġla nim
Ġkcu f
reht ruF
s lli
Ġy tne
sa h
nret lA
y ht
Ġi nna
Ġstna tibahni
Ġevita erc
ut riv
Ġlanret xe
ba K
no oM
Ġyle tu
lp xE
Ġllahs raM
Ġdega ruocne
hta K
Ġret hgif
yo v
ni rT
ra ug
ca lP
so P
ta rg
m mo
gi M
ni draC
4 981
dnu B
Ġnoita rtnecnoc
ecnere fnoC
Ġred niamer
Ġte nalp
Ġeviv rus
mi H
Ġ; "
vi V
Ø §
Ġgna s
Ġevisne pxe
le hw
n noC
a ht
y rota
Ġnois net
su tats
Ġgniy d
Ġsra lohcs
re ne
Ġdeti nu
Ġesne tni
y go
Ġyle rem
Ġ Î
rowe ma
y revE
secna raeppa
nac lov
Ġrehtaf dnarg
redro b
Ġgnip pohs
Ġtsi ratiug
ra lupop
Ġdaor liaR
Ġedi uG
Ġtneme vlovni
ve ihc
Ġytini rT
Ġnos leN
e saB
Ġseiti C
Ġek ahs
5 881
Ġdesi nagro
e va
Ġtse tnoc
cit ne
leh liW
Ġnob rac
Ġ41 91
Ġtca xe
lle K
htla eH
hci hw
z reH
Ġts ihdduB
fil C
Ġeta roproc
Ġseitisrev inu
ĊĊ ĠĊĠ
Ġdeta h
etis beW
Ġdaeh erof
Ġesa hc
ca L
rra bme
Ġsp ih
li V
Ġeca laP
lek reB
gni niart
Ġecna illA
Ġdaor liar
dne mA
Ġdekco nk
detiderc nu
Ġl riG
z zi
Ġcit irc
sel tit
gi g
Ġdra nreB
Ġgnidne fed
Ġeti lletas
gi p
eu lb
ylla ci
a lli
a naisiuoL
xa ler
no g
no ilattaB
Ġega ugnaL
elb issop
Ġseda ced
Ġnoitat pada
Ġcitsa lp
va B
Ġht iaf
tne iro
us rep
Ġseit ud
e gne
ti W
Ġk cits
sre dro
sk ca
Ġnoit uloveR
Ġdnal yraM
Ġnez od
Ġyde nneK
i C
Ġdlo raH
nime s
Ġse nummoC
ra leB
en ruobleM
1 981
teme c
á º
x uL
kna lb
yti ru
Ġwolle F
fi nam
Ġnwor ht
Ġe los
Ġre drah
Ġlau tirips
no j
Ġai re
Ġrehta el
st cejorp
Ġne dewS
n rub
Ġsrae Y
Ġtlua ssa
O L
Ġeta ti
mu d
Ġdelia ted
Ġdeta rgetni
Ġtnemi ger
Ġlaci rtcele
lo G
Ġyra dnuob
Ġytira lupop
Ġri mi
dues p
Ġeru p
isuht ne
Ġsci moC
Ġetsa w
Ġgnu s
lia rt
hs it
hpo solihP
ba si
Ġ21 91
elba liava
Ġno med
ts uG
Ġseta cidni
Ġsi la
Ġhc ne
Ġelg gurts
o idaR
me h
Ġyti lit
Ġyl taerg
Ġa tsoC
Ġyrev ocsid
ĠA G
Ġyar ruM
dno W
Ġa lumroF
Ġycne uqerf
a ga
Ġseri pmav
Ġde dlof
Ġsema j
Ġseta r
Ġseva w
nimirc sid
na hK
05 81
Ġgnili ec
eld dim
lu snoc
Ġgnid ih
wolle F
i ka
Ġykcu l
Ġdi ca
e toN
Ġtne b
dnal niF
Ġem ertxe
o ts
Ġse p
Ġsts itrA
Ġdedne mmocer
Ġdetce psus
Ġkci k
P U
Ġtsa v
nab sirB
en s
taef ed
na ira
Ġgnit nuh
Ġyb boB
st nalp
ri p
Ġgnit tuc
Ġl uo
Ġlav ir
Ġnairag luB
Ġyev rus
Ġnig riV
wor B
ren nur
su c
ret niap
Ġerom itlaB
Ġpo h
Ġsnoita mrof
hpe soJ
eta neS
Ġm lap
Ġse tuor
t h
s dneirf
sna M
elif orp
lia B
tne mom
Ġnoit utitsnoC
to C
Ġ2 291
Ġnoitnev noC
Ġera ts
: )
P G
seiti c
lc yC
dno H
Ġ. %
eg elloc
ce fni
Ġwo dahs
Ġdnuo w
Ġs noipmahc
Ġevit itepmoc
yo T
Ġatna ltA
Ġren nam
yhpargom liF
Ġle ina
Ġegd ir
ni b
Ġse ro
Ġnoita pucco
Ġgnine ppah
s lo
ske ew
Ġnor dauqs
Ġeci vda
ti nu
Ġne K
Ġsei golo
sa mohT
B I
Ġylbme ssa
Ġyle rar
Ġlanois ser
Ġseit e
mono rtsa
Ġsrev ir
P N
Ġs sucsid
Ġne e
Ġs pma
rep yh
Ġstneme vom
Ġ1 291
y cilop
Ġgnida rt
Ġselp uoc
Ġde irc
Ġelbati us
Ġnoitne tni
el tta
Ġtim da
co lla
A W
se va
Ġli os
Ġsre hcaet
ren luv
tse retni
Ġtsa rtnoc
ti mmoc
Ġniat bo
Ġde ff
Ġyl keeW
Ġtna nimod
sa snakrA
Ġlle ps
k in
E I
Ġsuoneg idni
noit ces
Ġsrot caf
Ġle t
Ġa mu
ti uG
l yS
Ġedo sipE
vit om
rebme m
Ġ9 4
rruc co
Ġdeka n
or F
Ġeca R
kco ts
Ġd E
Ġeltta eS
Ġsega ts
Ġtreb reH
ri ew
se tov
Ġega revoc
Ġ7 291
Ġlatne mirepxe
Ġ1 391
Ġeuq inhcet
Ġy taerT
Ġstrop pus
Ġysatna f
Ġu dniH
Ġsuo icsnoc
Ġna iv
Ġgni rahs
Ġgnit cennoc
wo D
eni zagaM
Ġht ieK
htgne rts
Ġa sse
ba s
tna c
o idar
s yalp
Ġp irg
Ġnoit cA
n ro
u gnil
Ġdehc terts
ec xe
Ġseno ts
gi c
Ġ1 5
dra hciR
Ġega ssap
le ehw
Ġno ilattaB
Ġderu ces
Ġy hposolihp
Ġgniht olc
g luB
Ġyl trohS
Ġdetti f
i ki
noita nretni
Ġmah gni
Ġlia R
rb iv
Ġdoo W
Ġy getarts
Ġla soporp
le hC
8 881
st rap
s drocer
O T
a so
Ġo G
ti p
Ã¶ K
itna uq
e id
Ġse rahs
Ġnoitpe cxe
Ġy ma
Ġner raW
za H
Ġd do
strop S
Ġdeta reneg
Ġgni te
Ġcime dne
Ġlai cnaniF
Ġeca lap
a ro
Ġmu ni
li o
kca P
il lE
sor ciM
Ġep y
A G
Ġdere drum
D M
ĠN U
eg dirB
Ġina tsikaP
Ġe lop
Ġsnoita cilppa
Ġi da
Ġb mob
sse M
Ġse ssenisub
Ġgnidne tta
sm elborp
Ġeso ol
Ġepa csdnal
te oP
gna g
Ġk s
Ġpihs nwot
me S
da ts
s g
Ġgni mo
erut cetihcra
Ġli eN
ĠC S
Ġediw dlrow
Ġnoi giler
ser F
thg if
Ġa naisiuoL
re if
Ġ5 291
ta R
Ġdenil ced
aid eM
Ġreve woH
Ġcinap siH
a tna
ibih xE
Ġstna rgime
krow teN
nna M
Ġsro htua
Ġdro ceR
Ġsk cor
Ġlia m
ir E
rah P
re gni
irt er
Ġez ingocer
Ġda r
lle s
g duj
Ġgnidnats tuO
wa rc
Ġyno hpmyS
sel gniS
f erp
ug urU
Ġ4 5
4 681
Ġx im
ro lyaT
sema J
Ġnoipma hC
Ġela Y
st rahC
Ġylde troper
Ġdne fed
Ġdev reserp
du A
o lgnA
ne l
Ġla rimdA
Ġsecne irepxe
Ġgniya ts
na ga
re ni
rae B
fe ihc
Ġytla nep
oo H
xo F
Ġla itnatsbus
iro gla
si B
Ġh parg
la iceps
Ġnait sab
Ġdeb milc
Ġoto hp
Ġswo lle
ta tS
gu S
Ġy hparg
Ġsret tam
Ġlit nU
Ġde tsetnoc
a sI
ma dnuf
Ġdetce re
Ġtndluo w
sre krow
ta ihc
la iretam
sa snaK
Ġes laf
Ġdaerp sediw
ma illiW
Ġnoita lsigel
Ġs doow
si b
Ġla ertnoM
la ht
te ks
Ġnoita ivA
ra elc
Ġteni bac
we f
Ġli zarB
Ġ3 291
se lp
Ġlo bmys
Ġs Ã©
Ġyr reT
noita col
Ġdetani mile
mra F
Ġya g
Ġeru solc
Ġre gnorts
Ġ6 291
do P
Ġwerd htiw
Ġtne diser
Ġyt revop
Ġs tset
Ġhca et
Ġegne llahC
a erA
noita ti
tu lc
yh R
Ġla nimret
eda m
re cnac
eru tan
Ġemoc lew
Ġdehsu r
Ġhguo r
00 4
Ġai le
Ġyda ets
Ġse sne
Ġs or
Ġp irts
Ġnoita picitrap
Ġ| "
Ġcit suoca
Ġderref erp
Ġmsi citirc
Ġtsaeht uoS
ssa bma
Ġee nk
lob mys
Ġrae nil
Ġedi ug
in s
sne pmoc
Ġdes sucsid
t lua
m O
ĠÄĩ ivo
Ġtne cs
Ġno sne
Ġhpla R
mo K
Ġde lggurts
Ġx u
Ġde tsissa
Ġna ps
crem moC
Ġsk cab
Ġrewo lf
cart xe
ta T
Ġnoit ubirtnoc
sse ni
Ġst nuocca
ma rap
Ġsthgin K
O D
hc raeseR
Ġdesa ec
Ġla eppa
darg pu
Ġsna ej
Ġkcart dnuos
Ġle doM
Ġg ur
Ġtno rF
Ġno R
ir tap
Ġstna p
Ġni lbuD
ua w
lehw revo
y rB
ka N
dir roc
Ġsre giT
Ġeta ig
7 881
se idutS
Ġst er
Ġgni tov
Ġs revo
Ġsa llaD
ssa rrabme
Ġde revocer
ht diw
etna raug
ecna raeppa
sei rots
Ġgniy lp
Ġll er
Ġtra wetS
Ġre cne
Ġek orts
da eR
Ġgnit rops
Ġle nap
te erts
Ġra los
yt reporp
Ġn muloc
Ġni wt
Ġeda lb
ĠeÃ© n
par cs
Ġnaci lgnA
Ġnoitces retni
tsi S
y erf
Ġhsu r
Ġlanoit ome
Ġfo orp
Ġssa M
Ġs wa
roht uA
Ġde me
ro g
dni M
Ġgni lur
si sne
sa i
p miS
ĠS BC
Ġde f
Ġsno il
P D
Ġre ngised
Ĩ Ĵ
Ġnai livic
srev id
tnem nrevoG
hta raM
Ġ,) .
Ġyl ppa
Ġgniwor ht
fe tS
p rac
si R
sre l
Ġevisne h
ret tub
Ġecne tnes
e civ
Ġda B
Ġs yek
6 881
du m
Ġdeda rt
Ġlo rtnoC
Ġlaru guani
Ġdeyalp sid
Ġnoit isnart
Ġya J
ssele ht
Ġdezi retcarahc
tsi lanruoj
Ġseta m
Ġse gelloc
sre dleif
Ġeni cidem
es roh
Ġyra dnoceS
Ġsre tsinim
Ġeta idem
Ġx ir
s rac
reb O
Ġla g
Ġera b
Ġdero ngi
Ġgnit pmetta
Ġnoit elpmoc
Ġseni ppilihP
iti gel
Ġdra W
Ġz t
Ġde tnem
di V
va cxe
Ġgnihc raes
Ġdne t
ger gnoc
Ġmode erF
Ġnoit inifed
Ġre sa
s weJ
le nnosrep
Ġgni ts
mah gni
Ġseil ppus
Ġlaci nahcem
Ġelg ooG
kci k
Ġflah eb
Ġtse tal
tcu ler
temo eg
ĠâĢĿ .
M E
Ġleah cim
Ġecne sba
Ġedi cius
Ġyrell itra
Ġyl dab
Ġsto or
3 681
Ä Ł
va lf
Ġsedi ced
Ġt rahC
Ġ >
z oM
Ġst caf
fa R
Ġdet purretni
ste op
no mmoc
Ġnos pmohT
do p
Ġelba c
Ġycne gA
mu l
Ġtne K
Ġa ki
Ġnoitazi nagrO
Ġsinne D
Ġspo hs
Ġeva c
e gnar
Ġse cudorp
Ġsroti siv
Ġle ssev
nna hoJ
ra eb
Ġnais reP
do L
reb iled
P R
Ġstne ga
Ġecna rusni
Ġdere wol
1 681
ema s
Ġo lo
Ġelbi gile
luf sseccus
med noc
Ġdets iwt
Ġnwo te
Ġno J
tse rof
Ġa hc
Ġynnu f
nwod hcuot
Ġyl drah
Ġnoissim rep
Ġa gil
ba sI
N C
Ġhsa rc
on na
Ġy kS
Ġtse dle
noit idnoc
Ġgnir ru
w yalp
Ġhg is
Ġe yb
Ġneve tS
Ġsne ppah
Ġse du
n locniL
Ġevita tneserpeR
hpso hp
Ġtne llecxe
ĠâĢ ¢
a lu
rauq daeh
n seod
drof fa
tni rp
Ġe tne
pe P
Ġskni ht
Ġts itpaB
Ġna ebbiraC
Ġi ru
Ġrewo hs
Ġhc uoc
Ġhgrub nidE
Ġtse gnol
too hs
uc E
Ġg n
se suoh
Ġs dnuo
n rob
Ġa nai
Ġgni mmiws
Ġylla nigirO
bo T
na ilatI
vi loB
Ġnois sucsid
Ġneta eb
tub irt
cu rc
kci D
sne tni
Ġea di
Ġpohsib hcrA
ti V
Ġdetacol er
Ġda mmahuM
Ġesne cil
Ġnoitulo ser
Ġa ks
Ġdeil lA
ba T
tnem piuqe
Ġseitila picinum
Ġci le
Ġdnu f
t ce
Ġgnire dnow
Ġevit cepser
Ġsma dA
t caf
Ġya doT
B B
Ġz ed
Ġsreht orB
ni h
Ġeta bed
tne manruoT
Ġni boR
Ġgno lA
Ġgnik cu
sse ssa
Ġre kam
Ġseil f
ete nin
t cejorP
ce C
non ys
â Ĥ
e citcarp
lbme ser
red rO
raep sek
a it
02 1
Ġlaitne sse
s sol
Ġla tnemurtsni
Ġre tep
na muH
Ġcif itneicS
Ġnot pma
Ġsle von
Ġnoitcurts ed
Ġseci ov
itna S
lla M
srot cerid
hguo rob
Ġnai senodnI
Ġog rac
bo C
C T
Ġloop reviL
tca rtnoc
Ġs ru
t rats
re tso
su hT
Ġk roW
m elborp
Ġtne uqerf
amo halkO
rele cca
Ġsei cilop
t tu
Ġde es
Ġmrof er
ĠJ D
Ġyl b
Ġs yoB
Ġseo hs
Ġre yal
Ġylt cefrep
Ġlai romem
ro olf
Ġre si
Ġroi ret
retni w
mu L
Ġyl cilbup
Ġegna rO
Ġwo lb
Ġ6 6
Ġmu id
ri D
Ġeid dE
p rahs
y E
Ġsserp xE
Ġnoita nimon
Ġgnihca oc
Ġretirw gnos
ye vrus
Ġere H
Ġrev ilO
t raeH
Ġ61 91
o la
ne uB
Ġdetaroprocni nU
Ġnae co
Ġy loh
S L
Ġgni hsilbatse
Ġdehcti ws
y rotciv
ĠK F
Ġda eD
Ġd u
Ġsir roM
ea ni
Ġtne rappa
Ġdlo C
bb ff
ca T
ta lf
Ġama balA
Ġde yolped
Ġg erG
Ġbo caJ
ni lb
Ġ cebeuQ
Ġnoit utitsni
Ġi ku
Ġedi S
Ġnoisses sop
mix orp
n Ã©
Ġ6 5
nime S
Ġ vi
Ġta h
Ġgni vaH
Ġdere dner
mus noc
s moor
Ġsle ssev
Ġkci D
sa rg
Ġthgir W
gam I
Ġtser ra
Ġnits uA
Ġeni cideM
Ġa dne
Ġlanoita repo
Ġxa m
Ġsrot cerid
mog tnoM
Ġgnina el
ht iaf
Ġsgni nni
su j
Ġtnemniat retne
ff E
llo P
ep pA
Ġsgni K
Ġdetfa rd
Ġre ni
Ġnoit caf
ih orp
ci S
Ġm ublA
c uo
noi siv
w G
lo ba
tnev E
se e
Ġtne cniV
Ġruo loc
Ġsla ever
Ġdetse uqer
cca v
Ġlanoit nevnoc
Ġde ruot
uaw liM
Ġse veileb
Ġgniya p
Ġlanoit iddA
Ġret raC
Ġe mehcs
à ¥
Ġs sob
Ġeta redefnoC
cni oc
Ġk ce
Ġdehsi ugni
Ġel citrA
2 681
Ġdeda ol
Ġe usrup
Ġn rae
Ġlaci nilc
re hcaet
elo paN
Ġedi a
Ġst cejbus
E A
Ġeni rehtaC
Ġyre tsa
dnab sid
nu F
Ġlacit carp
ki S
Ġgniyl F
e tse
H T
Ġeruta N
Ġ51 91
Ġsre papswen
Ġy carco
ti aw
re z
el ur
Ġ3 5
vo iG
da ol
Ġsuo ro
Ġsuo mono
Ġred le
E B
e niaM
Ġra luc
ha dI
uc ser
Ġlleb pmaC
Ġtnemu cod
uca ve
mo s
de dne
il luS
Ġ01 91
Ġdnu m
ba G
y ru
ih ci
t fos
Ġeno hpe
s bulc
Ġma ha
4 881
os lA
nep sus
Ġdessim sid
Ġya lc
Ġyra ronoh
Ġgnin recnoc
dne M
r ihS
Ġst nia
cifit rec
Ġnoita vele
y cna
Ġei re
Ġyr reb
Ġnoita tneserper
Ġsle nnahc
Ġkci R
Ġ000 1
Ġata D
D R
tto c
x A
sy la
Ġes ihcnarf
Ġdi vad
pi nam
sk ci
lu cit
Ġe rA
Ġeto mer
Ġgnicna d
Ġq arI
Ġevita vresnoc
dna liahT
mu p
Ġlla mS
Ġepa t
sre dael
Ġnoita vresnoC
Ġy ts
Ġsi lopa
Ġevitalsi gel
Ġenil nO
Ġgnit elpmoc
y ret
ta erG
Ġerut raped
Ġyt fif
Ġba rg
Ġnair yS
ere w
noit idart
eni mon
Ġsnoita cilbup
Ġno ci
Ġdelia s
Ġnoit idepxe
Ġy kci
Ġcita rco
Ġs boj
Ġere m
Ġyl riaf
Ġarre iS
a ri
Ġdeta di
y er
Ġd ila
Ġmrof inu
ti us
Ġre peed
rem moC
no merec
Ġt nu
Ġsl riG
Ñ ĥ
à ¦
Ġei reS
Ġtna tsid
lav ir
Ġred iw
noita rtsinimda
C cM
no o
Ġedo hR
Ġsre tsis
e iD
mot pmys
Ġgni ganam
lu geR
Ġrehta F
Ġa za
Ġeru tnevda
geta rtS
yti vitca
Ġla inne
si vaD
Ġecnanet niam
Ġk i
Ġet tolrahC
snoita ler
Ġyrt nafni
Ġfa el
uq raM
Ġre noissimmoC
Ġra ed
ha tU
stsi lanruoj
Ġleu naM
e vol
Ġx if
Ġslo ot
l K
ene cs
ĠL HN
Ġspo ts
Ġmu idem
Ġnwo D
1 881
Ġs serpxe
Ġne leH
Ġnos niboR
co roM
m ro
Ġsesu cof
z uS
pih sedovioV
trap S
ne J
vi R
Ġdeta vitca
lati psoh
ni c
da s
Ġ| ";
tot orp
Ġter ceS
Ġhc uS
Ġruo b
Ġt cennoc
lum its
Ġtnem el
Ġ8 091
z c
nahc eM
Ġy tsanyd
Ġssen suo
rae S
Ġcita motua
Ġnoitacif issalc
Ġsev lovni
Ġdrof fa
Ġno oM
seiti licaf
G N
Ġde rebmun
ohc e
mina nu
Ġm p
Ġsla dem
lo rp
Ġci nagro
ws nurB
tsa b
Ġlau nnA
Ġa se
wa rD
veihc A
Ġhc nul
Ġsuo unitnoc
Ġgni tsacdaorb
Ġse uqcaJ
Ġsra tS
wo k
Ġnoit celE
pma T
noit cerid
Ġso idutS
pu re
Ġdno b
2 881
deti nU
Ġht ruoF
Ġa nua
Ġsd le
gu h
rper tne
Ġs gurd
Ġ8 5
Ġ31 91
ez irP
y poc
iff ehS
Ġdelb me
Ġtne lat
va L
ka J
ort nI
Ġ0 52
Ġtlua f
su llo
Ġsma erd
ri T
Ġs dog
gna G
Ġla isrevortnoc
Ġ0 091
s tsil
sa lp
Ġeniram bus
Ġdet f
ni ps
ga porp
Ġredne t
ene rpertne
Ġlla F
ed oc
Ġnai regiN
ĠF AR
Ġda s
is nopser
no hp
Ġht nin
Ġy s
Ġa rtsehcrO
Ġde suoh
Ġro niM
Ġro sseccus
noi giler
sle dom
Ã ĸ
Ġdema ercs
r te
g n
dro cca
Ġr M
Ġgnitsac daorB
uqe da
Ġela meF
Ġdeta roced
Ġre hgiH
ya K
Ġse hs
sta es
Ġtna veler
ime R
Ġgna h
raepsek ahS
c yc
seht nys
Ġna suS
re nniw
seiti nummoc
da etsni
ri pS
ma M
isi viD
Ġlacigolo ib
Ġgnila ed
Ġeht a
era wtfos
ĠS S
Ġeti b
ga e
Ġte kcaj
Ġrewo T
Ġded nimer
epo lcycnE
Ġi ahT
revoc sid
Ġra mma
Ġdek cehc
rg o
Ġda ba
Ġle pahc
sir C
elpo eps
Ġht im
Ġe el
Ġs worg
Ġa uh
Ġst up
Ġgnihsi lbuP
rt ceps
ts irB
llabtek sab
kco L
Ġg nar
ro peR
Ġyletu losba
Ġevita repo
dna cs
uo lc
Ġstne meriuqer
Ġralu geR
y rujni
tnemu coD
Ġsi sirc
Ġyaw llah
cilp mi
gnire enigne
sre idlos
tnem poleveD
Ġta tibah
Ġgni ssecorp
Ġgnil tserw
e rots
mor hc
Ġdra oba
Ġegna ro
da S
Ġgniog no
Ġ11 91
p leh
Ġti xe
Ġnav I
d rO
Ġlev raM
Ġnoita tropsnart
hgrub nidE
Ġst f
Ġci getarts
Ġpeel sa
kram er
Ġtne dutS
Ġlanoit utitsnoc
Ġt repxe
i ga
Ġslli H
Ġdet cirtser
Ġgni tekram
Ġt rofmoc
Ġsro loc
dne lac
eru tuf
ep yt
Ġytiro htuA
noitpe cer
ci norhC
ve S
gitse vnI
man yD
pm A
Ġsre cudorp
ha R
de eps
ho C
Ġgnit tih
Ġdek cu
Ġcit eneg
Ġdi uqil
su rB
Ġsnoit celloc
Ġei na
nig ram
ne zitic
Ġla rom
Ġsnoita n
Ġgni gnar
Ġyra nim
Ġdehsilo med
ĠCB N
a rtsehcrO
ta es
Ġyen rottA
Ġdesa B
Ġnosa j
Ġseni zagam
Ġeva ls
Ġse cived
Ġtse wol
Ġlanoit ciF
Ġek im
si so
á ¹
Ġs ot
na k
Ġsevita tneserper
Ġer ca
Ġ csid
en neK
ĠI V
dne gel
ai bmoloC
Ġelu dehcs
gna T
Ġ7 5
Ġsi v
Ġtup tuo
tsa G
Ġelb irret
Ġed ils
t cid
Ġtne rap
Ġnoita z
B R
Ġtni oJ
re hs
Ġdetov ed
Ġref inne
we hcta
Ġeta f
Ġnoitacif it
Ġtuohguo rhT
to hs
ĠÃ Ĺ
seit rap
Ġselc sum
Ġenil ced
Ġgno leb
rep xE
ihsre tse
Ġnaira ti
k nar
Ġni t
Ġdeta losi
Ġgni gg
Ġo l
Ġserut ciP
snoit itepmoc
ĠP L
Ġs tsir
Ġte ehs
Ġlai res
na G
ni loiv
Ġlarde htaC
tte S
c E
ti f
Ġegati reh
Ġtsa lb
ht om
Ġra lohcs
ol G
Ġye li
do H
Ġnettog rof
Ġgia rC
wehcta ksaS
Ġydob on
z u
ni lbuD
la irt
tsu C
se p
Ġtnemu gra
la hC
Ġer Ã¨
Ġtxe tnoc
Ġeda ced
ai regiN
mra hp
ero cs
Ġsnoita ni
Ġse ita
ci lpxe
ge N
Ġsu t
Ġsna idnI
Ġyrev E
Ġreta ehT
e reH
loh kcotS
Ġ22 02
erihs pmaH
Ġeruta erc
Ġyaw roN
thguo ht
lehca b
Ġtce ffa
re lot
8 781
raC cM
r ce
Ġno eg
rev id
Ġdetne mmoc
Ġse zi
sel cihev
I A
k law
ru A
Ġsi se
il uj
Ġtnem ges
won K
c noC
la tS
di pe
ihpo S
Ġym moT
Ġenitna zyB
Ġde tsisni
Ġtpe ws
te ni
c nuJ
xe la
ye kco
Ġse citcarp
Ġna u
tu P
ref snart
wor C
Ġa o
Ġtne nopmoc
uo T
Ġyf ilauq
n nI
Ġevis ulcxe
PS E
ta H
H M
el rahC
Ġeca p
draw rof
a li
Ġdet tops
Ġs murd
sno saer
Ġm s
Ġsre tne
Ġso ediv
so oR
it serp
ti pac
ecaf rus
Ġgnipp ord
eda rt
Ġgnile vart
Ġylevis ulcxe
Ġden raw
Ġyltna tsni
Ġy htlaew
Ġyrell itrA
Ġe raperp
o orB
Ġo itar
Ġpmu rT
rips noc
Ġsto hs
x ul
Ġci ssalC
Ġdetaroprocni nu
Ġgnib ircsed
i ppississiM
s level
Ġgnidnats tuo
Ġtne txe
Ġna rI
Ġdeta itini
Ġhsi F
Ġtneme voM
Ġn mu
Ġdi o
Ġylla retil
Ġtsaf kaerb
Ġgnira eb
3 881
si nuT
Ġgnir refer
Ġ2 6
r yt
ca ep
Ġec namrofreP
Ġe dom
Ġla itrap
ila M
Ġstsi xe
Ġecne fed
Ġsre gnaR
Ġte G
Ġo eL
ra cni
Ġeta ci
Ġflo G
w ahS
Ġyru j
Ġâ ĨĴ
reht uL
Ġstnemhsilbatse sid
Ġyranoit uloveR
Ġdelle vart
Ġdewolla ws
Ä Ļ
Ġstne nopmoc
hca b
gil bo
Ġeb irt
da rt
Ġspihs noitaler
Ġti artrop
tna tsnoC
d erp
Ġta em
Ġgnita cidni
Ġsgni teem
Ġra C
Ġne rdlihC
Ġdra ger
tir c
Ġt pygE
Ġor deP
Ġk in
Ġe za
f c
gi v
Ġmo t
sro dne
y i
Ġderu mrum
Ġ" ?
ya S
Ġsel it
Ġeru tuF
tne t
tne laV
Ġe mina
Ġde roloc
Ġs dnuor
s rats
Ġsnoita cinummoC
Ġti nU
Ġde nif
Ġno c
u rb
Ġgniv irra
Ġena L
Ġdoo m
tse cna
s lliH
Ġdettim bus
ceps nI
re teP
Ġne p
Ġstse ug
Ġena z
à ®
Ġlai cnivorP
Ġdle ihs
Ġdeb bur
Ġeseco id
se gnahc
ro nim
tsinim da
ret S
de ef
Ġoni taL
Ã© d
Ã ł
Ġci medacA
Ġmah gnimriB
roba le
Ġdnom yaR
Ġderut cafunam
a ila
ne soR
hsi rK
Ġsk nar
Ġma da
ti v
Ġeno tse
Ġtna ngerp
Ġs ffo
Ġdeme ed
Ġgnit hgil
Ġthgiew y
dna lecI
Ġlle hctiM
Ġtneme gnarra
yo J
nub irT
Ġsuo myno
Ġynna D
r rus
Ġgna W
Ġstnedi cni
Ġsno ga
nam saT
gi F
rob A
Ġret ti
Ġde lipmoc
Ġdelle y
Ġno l
epo cs
Ġnois ulcnoc
dna w
.. ..
Ġega r
sa v
Ġeso hT
6 781
go ga
I S
lg ne
Ġsne po
e ert
cime dnap
Ġret pahC
Ġdet nalp
t nuocca
se soprup
re woP
Ġ rD
a knaL
Ġtna hcrem
art xe
Ġst ruoc
li uG
Ġgninia g
Ġstnemu rtsni
Ġlairep mi
s noipmahc
Ġm y
Ġs gnoleb
Ġse ssalg
Î ¿
dl E
Ġa cit
y lp
sa N
Ġdehsiugni tsiD
P P
Ġdl ihC
Ġytici rtcele
Ġtliub er
Ġnatilopor tem
Ġ2 7
lu dA
Ġgni tsil
dulc xe
kci hc
Ġseicne ga
ga rt
Ġmht yhr
Ġla poc
Ġgnit fil
Ġere imerp
v or
Ġnia mod
re mac
Ġerutcurts arfni
Ġ3 6
5 781
ev il
Ġg iw
Ġola ffuB
Ġs noisiced
mo ht
Ġega tnecrep
po ls
Ġde vaw
tse D
rp yC
gnu l
Ġtse solc
Ġgnit ubirtnoc
Ġnoit celloC
Ġsre di
Ġre no
ti naM
Ġmut na
a eniuG
Ġnwor c
to L
e kat
Ġaj yerf
Ġlacit nedi
eu lB
de re
Ġsk cu
il pmoc
f le
05 2
no rtcele
sev lesmeht
dnuo R
Ġy hta
Ġro toM
Ġsgni rb
Ġgnilli f
n raB
Ġsnoit ome
Ġ1 6
Ġlai cremmoC
Ġdekco hs
Ġro llecna
rowema rf
Ġcita molpid
cu rtS
Ġg ro
Ġla ever
ry C
Ġswo dahs
Ġdem rA
nimod erp
Ġlia ter
ĠS SU
Ġseiro tirret
Ġyen rotta
vo ge
Ġgni sitrevda
noil lib
9 781
ha S
Ġedu a
sre taw
dooh robhgien
Ġtfarc riA
Ġnna hoJ
Ġdedne fed
i ram
Ġgni dnopserroc
Ġs citiloP
no f
Ġt et
wolle y
Ġse tirw
Ġelb iB
Ġot ne
illi rb
Ġeso ppus
tek raM
ce ted
Ġnam ssenisub
u k
ma erD
Ġelt tes
o w
ge taC
tsa eht
Ġdrof natS
Ġe te
gna S
Ġsse m
Ġ ihc
Ġden nab
Ġret hgual
pe p
leif dim
Ġyek ruT
ci lohtaC
Ġht eb
Ġ5 9
p se
s dleif
re ilrae
ai no
zz up
Ġe ceerG
Ġsruo y
d dog
j A
Ġsk law
Ġtne t
Ġeg uag
Ġ9 5
Ġ pac
ry B
ziti C
Ġeta nretla
Ġreg gib
hp rom
Ġeti nif
not limaH
Ġa ja
us ne
7 781
Ġelbis secca
Ġdeti rehni
dra W
Ġs kaerb
tser P
l lub
nna C
mm iwS
xe S
Ġte j
emo H
Ġyaw rood
Ġain soB
Ġeka tsim
u lB
Ġtra utS
sre g
Ġgnito morp
lli b
Ġte L
tin ruf
Ġhca b
es nopser
Ġane rA
7 681
a J
Ġeci ruaM
k ooB
gnit toN
Ġs dlo
Ġih sa
sredleif dim
tne tnoc
Ġs htaeD
Ġlare nuf
Ġega g
llew d
Ġy uG
04 81
Ġo ud
Ġecna illa
st ra
Ġlatne nitnoc
cu S
ec ruoS
ĠS B
Ġthgil s
bmu M
yro tS
V M
Ġtnem hca
D S
li d
Ġsu n
Ġnoissim snart
Ġhc neb
Ġro v
Ġhsa lf
Ġlla W
Ġai ro
Ġa ts
Ġhc eT
d n
k cit
Ġlehca r
Ġo ra
Ġni bac
Ġdesi ngocer
Ġs nwo
Ġa mi
ga B
er ia
nom dE
sega p
Ġmod gnik
Ġm el
sk co
Ġh suB
Ġnaci nimoD
Ġw Ã³
wa rC
Ġelc sum
Ġse ssecorp
Ġtse nrE
ai breS
e darg
no ri
Ġecnedi fnoc
erom rehtruF
Ġtne tsisnoc
nia tsus
Ġ ug
b iG
Ġha tU
mixa M
ĠnoitatS yalP
Ġdeta nigiro
eda girB
sy ob
ma erts
ssa C
no L
Ġse zila
Ġsser ts
Ġsrev ird
Ã¶ G
Ġsts itneics
Ġy ciloP
se ggus
Ġg nai
hsi d
reve N
niat pac
vol sohc
Ġseg dirb
Ġde weiver
rd nys
nor dauqS
Ġses sol
t ceffe
lla revo
net noM
snoita cilbuP
nia tnoc
Ġst niaS
noit celloc
Ġ5 8
el cnu
Ġreka B
F A
k riK
Ġnoisu fnoc
Ġseu lB
Ġar dna
Ġdet celfer
Ġevit isnes
Ġyti rahc
Ġdesa elp
Ġyleta nutrof
su r
Ġst luseR
Ġnwod hcuot
Ġy doolb
Ġtn seod
o lle
mil C
Ġsetel htA
l h
se H
ĠĠĠĠ Ġ
retirw gnos
ci eL
Ġdella cer
rets ym
Ġso neuB
ema F
uda rG
01 1
dne mmocer
Ġdeta rtsnomed
Ġtu citcennoC
volsohc ezC
8 681
Ġo vo
Ġdnuorg kcaB
ria ts
Ġnot tub
Ġtsu d
Ġdet raped
Ġsnoita repO
v erp
Ġev irra
Ġalu sni
Ġra h
Ġdne txe
E P
ah pla
Ġna moW
Ġhc uM
Ġyre temeC
hgie N
Ġt rams
Ġeu gra
le di
Ġda ets
Ġse reht
Ġser ca
Ġsti feneb
Ġci barA
Ġla geL
Ġle s
Ġnoita rotser
sl riG
id ercni
Ġsehc ni
Ġre ppa
gif noc
Ġl wob
ya b
v ita
w Ã³
Ġgni ruot
Ġa ko
Ġtiuc ric
Ġnoit cetorP
Ġdyol L
yb serP
di K
Ġsre tsaM
ma t
ni N
mo loS
Ġsei rujni
Ġna oJ
Ġtne dneped
a co
Ġse lif
ai ka
Ġlo tsirB
Ġdehsa rc
Ġrimi dalV
Ġeb uTuoY
i pe
voge zreH
ve hC
Ġo rg
ve sooR
Ġnoitpe cer
ne z
se calp
Ġretse hc
tu S
etam A
u lu
Ġseit ira
Ġsei vom
Ġdeta rtsulli
ra lc
Ġsa snakrA
se cnarF
Ġgniy rc
hse darP
ye S
ca N
Ġes roH
k wa
Ġoi raM
Ġria per
Ġytila nosrep
nots uoH
hcra nom
Ġna eS
Ġreb muN
4 781
Ġyl li
Ġdelle cnac
Ġub A
zi nagrO
Ġs llab
1 781
Ġtek raM
deta eper
Ġ boR
Ġereh W
Ġhcir deirF
Ġyrev iled
L I
R O
Ġsria ffa
Ġsa i
res ni
Ġyra idisbus
do B
Ġgnik catta
Ġb rubus
Ġlavi veR
Ġde tnemelpmi
Ġrelli k
eci ov
hta B
Ġgni zama
da H
anne iV
Ġyhp orT
mma m
Ġta ert
s mo
x iD
ce xe
se o
ni oP
Ġ, ]
Ġeno rht
Ġar dne
d nif
Ġdnom hciR
Ġsuoi gileR
dep rot
bo b
Ġgni rif
s yoB
ato kaD
Ġesrev id
si sylana
t p
Ġ6 091
ecne irepxe
Ġtfo sorciM
Ġlo hocla
Ġt niap
noga torp
Ġm rotS
Ġtnemu rtsni
Ġetutits bus
Ġst naiG
Ġtnemu nom
Ġrevo csid
Ġd riew
Ġde za
nais suR
Ġswolle F
Ġci gaM
Ġm itciv
s llec
Ġtne mailrap
Ġdemus er
Ġ0 07
ua H
ĠD hP
sla mina
Ġnai ci
m da
re ps
Ġdeifit rec
Ġdet cudni
ih cs
Ġnosre ffeJ
r Ã¤
Ġyra retiL
Ã© L
l riG
ĠC A
Ġsre wsna
Ġel fir
Ġyllanoit idart
Ġo ig
Ġ7 6
Ġsk rap
ward htiw
tne V
kci ht
da raP
Ġi e
Ġgnisu cof
si F
dia m
si E
tim snart
Ġkaerb tuo
Ġseiti nutroppo
Ġtn dah
py to
d diM
s nug
Ġdesserp mi
lu g
dlo M
y llo
Ġsre motsuc
ti c
Ġsecnere fer
ts A
Ġsre hcraeser
Ġdneirf lrig
Ġna buC
le nnahc
Ġse kil
Ġdene tsil
mo ced
la peN
Ġla ht
Ġruo noh
Ġrelli rht
Ġsi nneT
tsu M
cud ortnI
tne mer
re mo
Ġsem irc
Ġyllau nna
Ġnu ps
Ġsnai citilop
nev retni
Ġs god
Ġc raM
Ġ, âĢĿ
a cit
dno p
n ruB
Ġesi crexe
Ġsetu tits
re tsiniM
Ġre dloh
Ġsme op
Ġro noH
Ġgnip pots
mo M
Ġdetib ihxe
Ġ8 6
Ġoni piliF
Ġtsi dohteM
Ġanim G
so idutS
hc u
Ġret nuH
w erB
tne p
n yeR
or ciM
bme xuL
Ġanne iV
ero oM
ec rep
Ġeru tnev
Ġ" !
Ġa ruaL
Ġnosi daM
Ġht es
R C
Ġdna pxe
nu L
Ġet ubirt
Ġpo P
o to
tsop A
o ciR
Ġm c
erof erehT
Ġstna picitrap
Ġdek nilb
y co
ela d
o wT
Ġderu saem
re it
Ġgnihc uot
Ġgni tsa
Ġemit iraM
Ġdedne t
Ġgnita picitrap
2 781
xe so
Ġ ur
yro tirret
sl rig
6 681
3 781
Ġe ce
ser i
Ġytiro nim
Ġgni tib
Ġwa r
Ġreve nehw
ni r
Ġhcti p
st cirtsid
Ġsnia lpxe
el pmeT
0 61
Ã¼ f
Ġylla col
Ġi qarI
Ġse ve
ere ts
Ġtnei picer
Ġrag us
Ġs hpargotohp
ga W
m p
Ġnoit cuder
Ġdezila iceps
cna C
nois sucrep
nia lp
Ġhcti ws
su ah
la tot
rop orp
Ġtnemecrof ne
Ġla nre
ĠD A
Ġse saeler
h so
Ġdet ciped
rtsi ger
Ġtso hg
Ġsecna tsmucric
Ġecne gilletnI
Ġylira ropmet
Ġsna vE
Ġw erbeH
Ġk nup
Ġhc narB
Ġsti siv
ÑĢ Ð
a rtS
Å Ľ
Ġsl lih
Ġtneici ffe
rp pa
ti cxe
lis so
Ġsti s
Ġne lots
sdraw rof
Ġse irrac
sria ffA
Ġde mo
thg irB
ge le
sa ga
Ġsme tsyS
te w
Ġnoita vresnoc
Ġsti derc
rep orP
Ġ9 9
yltne uqes
Ġkcu l
Ġ5 091
y f
Ġesa rhp
Ġht enneK
Ġ9 6
Ġesu ba
c ub
Ġylthg it
Ġo cit
Ġkoo C
ne lc
Ġsmu esum
ra gic
Ġel ppA
Ġtna tsni
Ġseiti lib
se lor
ruf knarF
o Z
Ġduo lc
Ġdetne iro
Ġre ly
Ġsnoita cinummoc
re lle
Ġa e
tsa P
Ġgni nil
Ġelpma s
Ġs nom
re gnif
no ceR
Ġeruta retiL
fa c
cuo lG
Ġy dutS
âĤ ¬
Ġot tO
Ġre va
y ah
pp uS
ruo h
iv erP
Ġsu nob
Ġci htoG
Ġsredro b
Ġsti mil
Ġthgi R
Ġssene rawa
Ġcita mard
sa rB
b ub
dnetni N
Ġs rab
ytila picinum
Ġnits uJ
rem mus
Ġscitsi retcarahc
Ġel tneg
Ġmo dnar
dna le
Ġya diloh
Ġre psihw
rete kcirc
Ġnaini tselaP
Ġkna s
el la
pi L
Ġs noisse
vi red
sre ywal
y w
thg iarts
Ġsu nimret
idep xE
wt foS
Ġsi a
Ġlacit rev
Ġeno Z
Ġduo rp
lae j
Ġma eb
ihsa cnaL
not pma
Ġlor tap
r ihT
p orhtna
Ġru f
Ġsevit omocol
Ġgnita ler
Ġta P
Ġnyl koorB
Ġsre tnec
rts ba
Ġk wah
O P
Ġgni liaf
Ġsret hgif
Ġdeil ppus
Ġt rid
dna G
Ġdero htua
mro ne
go H
Ġdev rac
Ġ9 091
Ġgni so
bab miZ
sdraob yek
Ġtsi rw
Ġa irtsuA
iv erb
Ġy srevortnoc
lau sac
pe els
pe cxe
Ġlaut riv
ra lu
Ġde T
Ġseg duj
Ġdeti miL
Ġeuq i
nosre dnA
Ġpo ol
etnu loV
st ubed
Ġde car
Ġgni cuder
Ġdes sot
me ta
Ġtna tsetorP
Ġsna elrO
e gro
Ġs dniw
Ġs nilloC
Ġehta erb
Ġgni lp
Ġesa B
Ġy tse
dnuob er
Ġsta c
m irp
Ġna tluS
w A
se civreS
mit po
ra lucitrap
Ġlaci ssalC
y monoce
mo B
y rd
ida naC
Ġedo C
Ġeta repsed
Ġret roper
Ġra lupoP
Ġsra llod
Ġhse dalgnaB
Ġrem murd
se dnuB
de solc
Ġnoita rgim
Ġte nretni
i res
grub ne
e it
Ġgni ria
hka zaK
re lliM
Ġne vo
oo R
Ġdevo hs
Ġsevi ecer
Ġstne dutS
Ġs tsetorp
Ġna lc
Ġrehsi lbup
Ġflo g
on K
nepo C
irp orp
Ġtnebmu cni
hsa K
Ġs we
pur ba
g I
Ġnai nablA
za L
Ġnosir raH
eci lop
od nI
Ġgni no
Ġla naC
Ġdeta roballoc
Ġdra noeL
les surB
pur knab
Ġdesiv er
nwor b
Ġs raW
liv irp
Ġwo gsalG
T N
s daor
se lo
Ġffo yalp
Ġnoitila oc
Ġrorep me
te v
ssi k
l snarT
Ġst luda
Ġyrts udnI
Ġlo ot
Ġgni gga
Ġgni tirW
Ġma ercs
eca ep
Ġsk lat
Ġsret roppus
Ġyra tnemele
si w
Ġdeppa rt
yt riht
ada veN
ĠM A
Ġyratne mailraP
ya rG
Ġela t
O I
ei vom
Ġti u
cif ed
M S
Ġdeve iler
Ġse ssorc
su ta
e me
Ġst oob
03 81
Ġevit celloc
Ġb milc
ssa H
ese nihC
Ġgnire htag
Ġle gna
b I
i i
ita s
Ġlla revO
ecna tsni
Ġsnoit cennoc
seda ced
Ġ co
Ġto or
Ġtsi ruot
Ġyad htrib
sm ra
nim tseW
c roW
iti lim
Ġno raA
Ġreg rem
Ġre il
ssa B
nid reF
Ġtna irav
ti nom
ome m
Ġrek raP
Ġelba ulav
Ġsg ge
Ġm lehliW
Ġ7 091
Ġla s
enil no
sse cca
gah nepoC
Ġpa g
Ġs namreG
Ġeca rG
Ġy ov
Ġa rtsehcro
evi L
so i
Ġi lo
Ġ4 091
seiti liba
ret ybserP
e ye
Ġll ihc
Ġdeta lupop
Ġtxe N
Ġdeya led
en rednu
Ġse toN
ĠO K
me H
Ġno oS
ga H
Ġn ro
Ġse mulov
st ca
Ġrood tuo
ne rG
eg la
d or
sir raH
el tsac
Ġst xet
bo tinaM
dni h
Ġe ila
sec namrofrep
la ertnoM
so g
ca rP
rehto na
v rah
ko P
aira gluB
eno la
mu cca
sre dnefed
O B
Ġknu rd
Ġb eW
Ġstnem elttes
Ġdemma ls
dna C
Ġytila picinuM
Ġyno S
lla T
Ġe niarkU
9 681
sna ciremA
Ġgni do
Ġrets nom
ca rg
et uor
Ġytili bi
Ġlufre dnow
g reB
Ġa sa
Ġa tsi
Ġes lup
Ġsnoita lupop
hc taw
Ġgnitrop er
c m
k ia
Ġsya D
ceps orp
el le
Ġdneirf yob
ir doR
Ġnoita raperp
ff ilc
leb eR
d eru
Ġllu F
cafu naM
Ġse meht
Ġnoita tnemelpmi
ret fA
Ġste kram
te eB
Ġyllaitne sse
Ġstsi golo
ero eht
y duts
Ġsenil riA
teb iT
Ġyret tab
b eD
dir daM
de cerp
eta g
nna c
tne P
gno T
re nwo
Ġdla noR
Ġracs O
Ġsta hw
Ġde lg
Ġita nnicniC
Ġde gnellahc
Ġpa os
ts ol
Ġlai noloC
Ġer neg
Ġspo hsib
gnire enignE
Ġx ineohP
Ġnos duH
Ġha ras
pmoc ne
lo w
s soR
scit si
Ġtro peR
O K
niatrec nu
Ġso tohp
H W
Ġ ut
mma et
Ġlacigolo eahcra
G M
ti k
9 581
llo pA
Ġalle d
stsi levon
Ġi no
da eD
rt cod
si o
Ġek uL
Ġdnuo pmoc
s Ã©
Ġni p
el S
Ġra B
Ġdellor ne
gi robA
a buC
de epS
Ġnoi sacco
ret naC
Ġdecna vdA
Ġs oc
Ġdnal troP
Ġed or
ka W
k lof
Ġdeti cxe
de tats
si weL
sei cepS
ie H
Ġseta g
seru taef
revo s
Ġneet riht
Ġs mia
Ġrehto M
sm ret
ir tun
Ġtsi nummoc
Ġlanoit cnuf
Ġroirep us
Ġde pa
Ġna elihC
ese napaJ
Ġdni lb
ere fer
po hsib
Ġtsi vitca
ht eB
Ġd op
Ġna ma
Ġyro gerG
sdra y
Ġselba t
le vart
da ba
lli cnuoc
Ġselpi cnirp
us serp
Ġsnai citiloP
Ġym marG
Ġyler us
hta P
cna lB
Ġih ci
tu R
Ã© P
de hsilbatse
Ġleu giM
nuo b
na elc
dia R
a leuzeneV
tu t
kci N
Ġsnoi L
lib ah
Ġla toT
dnu ba
Ġtsa erb
snoita cilbup
Ġret hgiF
Ġyra v
Ġ6 8
sim erp
Ġtno w
ĠS R
op S
Ġelif orP
0 71
Ġz narF
ruo bmexuL
sre bmun
Ġt hca
ua eruB
Ġstse rof
Ġk lim
m th
Ġne me
omo rP
yb iL
in nA
Ġp is
re ip
Ġdeif sitas
Ġnoisrev noc
il bo
re papswen
tt U
Ġaci sse
Ġe teP
ĠU E
Ġgnis serp
Ġsre llabtooF
Ġesae leR
Ġlaicif itra
se a
Ġgni saeler
noh po
Ġtreb liG
Ġais yalaM
Ġe me
Ġa dnu
Ġyltna tsnoc
Ġnoitarepo oc
Ġyrets ym
ra bme
so ol
Ġyle vitca
i ps
Ġno tne
Ġeru tam
legna vE
Ġecni vnoc
Ġcitsi retcarahc
tni oP
Ġlag utroP
Ġnotgni l
Ġse saercni
Ġt celfer
Ġde rb
D L
h arB
Ġylla nosrep
siv repus
p ihS
Ġle pso
kci P
Ġsp ihS
re uq
ir raM
tsir K
Ġst cennoc
Ġefil dliW
Ġdetib ahni
era hs
Ġenohpe let
ecna d
t cepxe
Ġgniya lP
Ġgnu ws
Ġren ruT
u neg
Ġsi sahpme
rol hc
Ġgni vas
retse hcnaM
lo kiN
Ġsnoit cartta
i pS
Ġst uc
Ġnoga rd
yr teop
Ġma erD
pur sid
Ġevitce ted
se ert
Ġt resed
er K
lar de
Ġt cele
Ġle a
Ġa f
gni dulcni
Ġesu cxe
rua l
se hca
mus sa
Ġyl lo
dni lb
Ġyranoit u
Ġllabyel lov
Ġste ssa
Ġgnihsu r
Ġedia ledA
d laB
Ġli ah
y lo
ngi er
n dluo
Ġeb ut
cej ni
hci w
uc ric
Ġyl ssel
pe hS
s niatnuoM
raw hcS
Ġye K
00 81
rc S
Ġte elF
Ġyno loc
Ġsre kam
dehsi lbup
y tsanyd
rot ces
pme xe
nev er
sgni K
Ġdev love
Ġmra F
nar C
Ġtse tsaf
Ġlarut curts
hse dalgnaB
susne C
Ġre dlohesuoh
ih ni
ĠA P
Ġs nam
sla niF
la nruoJ
Ġht fiF
Ġmu rd
go lb
xe L
wo lla
gni W
Ġgni W
no rF
se G
eb o
Ġm rah
Ġst nuoma
tse roF
I N
Ġk lis
Ġyre temec
Ġno ca
ĠO T
Ġsu riv
Ġde w
Ġecna niF
tfa rD
Ġsdna med
Ġtsew htroN
uo h
Ġm ur
Ġ6 9
v ruS
ci da
Ġna H
Ġs peek
si lopa
Ġrevi led
I D
ĠC P
Ġssel drager
s noiger
Ġruo vaf
ila H
eld diM
srev er
Ġselc itrA
el tneg
Ġdezi es
Ġyre grus
nmy G
ret tuB
Ġese manteiV
Ġnoita nalpxe
Ġgnidni b
Ġrepo oC
Ġla trom
kna t
te G
erihs kroY
Ġeni hs
Ġsp it
Ġsm si
Ġt celloc
lo gnoM
Ġyre llag
Ġgnidne txe
eka l
Ġecne h
Ġyra ronoH
Ġdehsu rb
tsa ved
kna R
r raC
gni hsilbuP
Ġsk raP
Ġlia ted
Ġ02 1
ka erB
or ter
eno tS
Ġdettim rep
sor B
hto R
Ġna k
lb is
Ġdeta vele
rete V
irb yh
Ġs nrettap
hguo rht
Ġderetta cs
Ġem ussa
rek laW
at reblA
Ġrota repo
Ġnais yalaM
Ġemo r
pme M
Ġsa r
Ġsu craM
Ġli sso
ro e
Ġnoga rD
ga l
dne p
Ġsret hguad
dne refer
stne diser
Ġeso J
Ġroda ssabmA
Ġyl htnom
Ġsio Ã§narF
sa R
Ġ7 7
red le
Ġnoit nevnoc
Ġev ruc
fi R
Ġnoisi ceD
Ġz er
Ġtsu rht
Ġgni lg
sd rib
Ġeni rehta
Ġp ils
s li
ita pmoc
Ġsuo u
Ġega P
eci V
Ġa go
Ġdedna rb
Ġgniti c
x raM
ort cele
Ġetu psid
nyl koorB
Ġsre ntrap
y lg
ma ry
Å Ļ
Ġmsi nahcem
Ġle irbaG
sreht orb
yl F
Ġts itneics
Ġret rahc
Ġsno r
ua eB
Ġema lb
Ã© R
i merP
Ġgni raperp
ibo tua
Ġlatne nitnoC
Ġ **
Ġre ida
tub ed
Ġla rebil
lo ciN
Ġstnem nrevog
Ġtek cit
rap moC
Ġs nommoC
Ġpihs ralohcs
Ġhc terts
Ġhta m
Ġni loC
E G
nna lp
cifit reC
Ġkram neD
atna ltA
Ġeca rt
Ġeta n
erut luC
irts udnI
gna uG
talsi geL
itne wt
Ġdezi rohtua
Ġani tnegrA
Ġgnide erb
Ġnot nilC
dnal rO
na hC
Ġdez eeuqs
ku M
Ġ8 8
roda ucE
ron s
Ġneet xis
pi P
Ġeltsac weN
Ġdeta geler
nia ts
Ġla ts
Ġeunev er
cu aC
ool B
Ġgni lggurts
la hc
E F
sla iretam
8 481
Ġle n
Ġgnis sik
Ġse poh
Ġtce les
Ġega gne
dro L
ä ¸
tni oj
aksa rbeN
Ġria F
ediw dlrow
o F
Ġre kcu
ne rg
Ġytili b
Ġytne lp
nes rA
er hT
thgi eh
7 581
Ġtuo htiW
nemo nehp
na liM
Ġlarot celE
ssa c
Ġt las
Ġelibo M
ya lC
Ġat leD
Ġeta rucca
g laC
Ġpihs ro
se dis
Ġno ss
Ġyt rid
tna netue
Ġel picnirp
Ġdesser dda
rede f
Ġseg de
Ġeh c
Ġe nut
ca rb
Ġdna liahT
hp orp
Ġt laS
Ġkco c
Ġnaina uhtiL
na tsinahgfA
Ġts itrA
Ġema nkcin
Ġei voM
Ġrev uocnaV
Ġa ha
sa G
Ġst ces
Ġs daer
Ġerut xim
Ġema D
Ġyl mrif
t nuH
Ġdlo nrA
era uqS
Ġnoit isiuqca
e leT
Ġssele ht
Ġtp els
Ġe ed
Ã± a
ã Ģ
z naT
ni etS
sren nur
ts riF
Ġyl leb
yb reD
D D
Ġyt luciffid
ro rep
b rut
se las
Ġlua p
ĠÂ °
ili vic
det elpmoc
ta hc
Ġeru net
ta k
si sab
R P
Ġreh pargo
snoit utitsni
f nI
Ġecna cifingis
Ġse ra
Ġeta K
T G
ov reser
t lA
tu rb
Ġna C
Ġsre dloh
tnedi cni
Ġdegga rd
Ġseit nuoc
Ġn rot
Ġlau d
Ġnoita ro
Ġac ceb
Ġy taert
Ġerihs pmaH
pp up
á ĥ
Ġma lsI
Ġsdne irF
Ġdet u
t nA
Ġre lur
Ġevit cnitsid
Ġhc ram
Ġse darg
Ġylevis netxe
Ġtneme calp
Ġdeta rtnecnoc
Ġyl reporp
Ġse hcaoc
tem mys
i iawaH
Ġci ht
Ġy g
no roc
Ġsto l
Ġdere tsinimda
Ġdehca oc
Ġreve N
gni dliuB
Ġevita itini
Ġyl detaeper
hci eR
a itaorC
Ġgnima ercs
Ġre daeL
ne gni
Ġpihs dneirf
Ġerut plucs
Ġ1 7
tep rep
ir dA
Ġlle n
Ġyra ili
Ġyllacita motua
Ġh soJ
Ġsnaici suM
Ġek ib
Ġhc rop
Ġneet ruof
srev ird
yra terceS
H S
rops nart
u los
Ġreka eps
ga R
ua M
T M
tsis rep
Ġnoitulo ve
Ġelp rup
Ġlanoi sacco
Ġa hsi
Ġcit elhta
id raC
gi R
yra rbil
Ġsre b
Ġht net
Ġno ilattab
Ġtsi f
n rot
c siD
Ġtrop puS
uo b
z ed
Ġs doirep
Ġhta enrednu
a lusni
Ġdenia tsus
sserp xE
er ub
Ġ8 7
dne ma
K cM
iki W
Ġdetad pu
ero hc
Ġra k
Ġsto ps
yl P
L L
Ġle hciM
x imeR
Ġse so
Ġyrtsi mehc
Ġd um
ru d
Ġx oB
Ġnai notsE
i ah
Ġinna voiG
Ġsehcru hC
cide neB
Ġ3 091
Ġgni draob
Ġnos dnarg
Ġdnu F
Ġgniwo lf
te ef
on k
Ġ Ã³
Ġhsi raP
itne s
Ġgniniat niam
oo C
yr neH
ygre ne
Ġeta rbelec
lu K
wa R
Ġsnoit po
Ġtne r
Ġgni lloR
t nia
Ġnoita ripsni
Ġo z
da K
Ġdehcti p
Ġ: "
Ġdedi ug
to lp
Ġst reboR
su ma
Ġrat la
Ġetu losba
Ġna ly
Ġn bi
Ġyl per
Ġxo S
po cs
Ġse hsu
Ġret rohs
B A
t re
noita redeF
ĠâĢĿ ,
el citra
Ġgnit ratS
Ġya lP
Ġlacip orT
h eM
rah B
Ġyad irF
Ġn roh
Ġyrg nuh
a ve
Ġslli k
hsit irB
de dulcni
ir neH
Ġgni robhgien
sei golo
tne duts
kco nk
Ġdoo lB
Ġez e
Ġre tem
snoita tiC
re moS
yr tne
Ġgni xob
Ġsl lup
Ġeru sopxe
Ġa siL
a rts
ga S
nu mmi
vel uoB
Ġecnassia neR
ĠSM H
ram bus
Ġylla gel
e erged
e soR
ni hS
Ġsnoita cilbuP
sret hguad
meta uG
n saw
Ġevisneh erpmoc
Ġe im
su pmac
or noM
t Ã©
mu R
Ġlaitne diserP
is o
no om
Ġ6 7
nais A
sla nruoj
Ġel sI
Ġsei mene
Ġlatne madnuf
Ġdep sag
Ġrehte goT
Ġore z
Ġnoita di
Ġes run
Ġe ts
tir ri
ri S
Ġgnin roM
cc ff
Ġyde moC
Ġre D
Ġs so
Ġseb irt
neve S
Ġt ir
taihc ysp
ev ihcra
Ġrae g
Ġyra gnuH
retse y
dl ihC
ci dda
Ġtnem moc
yel lav
Ġtne tni
Ġre ma
Ġgni mlif
Ġy htlaeh
ih co
y tne
Ġsci moc
ti dE
Ġte v
se ssalc
Ġyev raH
Ġtiuc riC
Ġsret ov
Ġre ne
rts er
Ġnoita ngiser
Ġgnini d
hsa lf
c orp
x elf
d on
de hc
Ġyr reP
Ġelb on
Ġde dnuor
rev liS
eta r
Ġreb mit
Ġo de
Ġlanois nemid
Ġedua lC
Ġo dnetniN
ts urT
ni taL
ma Z
Ġkci rt
Ġsthgil f
Ġsnoit celE
y mo
si p
Ġga t
tsu j
Ġm loc
itne reffid
4 581
Ġstne mmoc
Ġa poC
Ġ1 091
Ġgnit hgiF
rae w
Ġna el
Ġi mo
Ġama rD
Ġerut cetihcrA
Ġla vomer
Ġgni lla
Ġni m
aksa lA
Ġe ba
Ġdevi ecrep
Ġtse noh
Ġesi uoL
Ġa dni
ru hC
Ġh ahS
Ġevis serpmi
Ġylla rutan
Ġepo H
tse vnI
nimo ned
Ġsre te
Ġsla vitsef
Ġtnem yap
stneme le
Ġsnoita sinagro
Ġlia rT
Ġde wor
Ġylthg il
Ġerehw yreve
Ġdecne mmoc
elcu N
Ġciten gam
ĠA A
Ġgninni geB
Ġgrub ne
hs ram
Ġcit e
Ġsrel ttes
Ġtne conni
ba jnuP
bo lg
z U
a le
Ġeta dommocca
s T
á ¸
F C
duo l
tneme ganaM
Ġdenwo ner
ob maC
Ġ2 091
Ġnoita ngised
ĠnÃ³ isiviD
Ġm sa
re ih
Ġseruta erc
dnal troP
Ġde tneverp
ytila picinuM
Ġsel ttab
tnemniat retnE
gni yas
noit curts
tneser P
cirts iD
Ġtce psa
Ġmaerts niam
8 581
Ġai senodnI
Ġta r
Ġnai cisyhp
snoita N
te S
mo de
it o
Ġmaha rbA
0 31
sgni dnats
ma lc
Ġd neg
ht ooms
pi eL
Ġti uq
na d
oo f
. '
nna K
Ġt nuh
ff irG
pa S
Ġser if
sen deW
lli K
norf noc
su T
Ġdeti urcer
Ġycna N
Ġre wef
g k
Ġs nigiro
ff uS
cilp pA
Ġde rots
Ġyllaci syhp
ih pargo
Ġs dnik
Ġma r
se na
Ġnai groeG
cs bo
dne W
Ġeci oV
ih leD
Ġu iL
Ġnai li
Ġo hc
Ġgnik cip
Ġde worran
Ä Į
Ġne ila
[ "
Ġse vol
Ġu k
ua no
ruc reM
le ahciM
ri ffa
i ru
tu pmoc
Ġsuoneg idnI
se nisub
Ġdekco lb
Ġ4 7
ne llA
Ġesrev inu
bu c
Ġselb uod
Ġsle vart
Ġa lliV
Ġt bed
Ġna gol
G A
Ġgnit cepxe
rget nI
Ġsria p
Ġca asI
Ġa me
gni rps
Ġra F
ek irts
tsany D
Ġsde eL
Ġet elpmoC
k sna
Ġre enoip
Ġseira dnuob
ht uoy
Ġgni diser
Ġrete maid
Ġst recnoc
hpo xas
ega lliV
Ġse rocs
Ġs pe
Ġta f
Ġdeni gami
Ġyllaci rotsih
Ġlaut celletni
loco hc
Ġylla uqe
Ġsre ga
Ġralu celom
Ġevit cudorp
gre F
Ġtsi snoc
st hgil
ret la
pm ub
won S
gni naem
Ġle gnA
g N
Ġkco nk
Ġrehtom dnarg
Ġsla u
Ġyra tubirt
Ġskrow ten
Ġe ya
Ġhsu rb
er dna
Ġs lla
Ï Ħ
Ã Ĺ
Ġevisser gorP
Ã ¯
Ġetats retnI
Ġs v
Ġnot el
tta t
Ġta ews
Ġsdne txe
Ġ8 9
Ġna d
Ġ2 9
koo c
sk cab
ah D
Ġgnide ef
dues P
Ġderu ssa
py rc
1 01
ts ihw
Ġes palloc
Ġsre m
Ġsnoita itogen
Ġo zne
Ġer ih
mrof talp
Ġsre goR
Ġgnid ils
Ġsesirp moc
Ġsa moht
Ġerihs kroY
Ġelb it
Ġgnin revog
isrev inU
Ġnoita terpretni
Ġlaci lb
r Ã¸
Ġyb ereht
sec ruoser
Ġksa m
5 581
F I
Ġsse cnirp
ro hC
Ġgnimoc pu
Ġylla citcarp
Ġ4 8
Ġyltna nimoderp
eta l
Ġst ce
Ġnom is
Ġseca ps
sk catta
noita rtsinimdA
Ġgnikcu f
Ġecnassia n
su rC
Ġdet nuoc
Ġ2 8
Ġhc tap
y zne
g it
ix na
Ġi c
m irg
Ġeta gitsevni
Ġyr neh
C W
Ġle boN
Ġsse hC
Ġnoit cidsiruj
Ġkni s
Ġgnik irts
na droJ
Ġle pahC
Ġcino rtcelE
se calP
Ġd doT
Ġna llA
mu lli
eci wt
te t
Ġssen tiw
Ġseita erT
lba tsE
h e
serut curts
Ġla nac
sser d
yra tilim
Ġolle h
Ġlacir taeht
Ġnote cnirP
Ġezno rB
sre P
Ġnoitacif ilauq
Ġdemrof snart
hsu B
rb et
Ġe oj
Ġl lo
S E
ff ub
hca eT
Ġdes palloc
v ird
retsa M
sna ici
Ġse laM
Ġra mo
Ġgnik ca
ĠCF A
t tocS
Ġyranoit ciD
Ġdel ruc
pa L
llec xE
ega ti
Ġspihs noipmahc
Ġs nwoT
noita lupoP
sts itneics
Ġcit leC
k nu
Ã© S
Ġs weivretni
Ġsni oj
da rap
era f
Ġsel gaE
cinu mmo
Ġh u
Ġel teeb
g remE
Ġeltta c
Ġyretsa nom
Ġ3 7
eca lP
snoita nimon
Ġato kaD
a iv
Ġa rem
ay neK
nna H
Ġsu B
Ġ1 8
Ġy nom
Ġepo cs
Ġsnoita cif
mo tuA
2 581
dnu b
ka wa
sne t
reve R
o iduts
ima iM
du D
Ġse soprup
i reP
Ġre irrac
n Ã¤
yl ra
Ġde rev
f it
h eT
Ġya rG
Ġdev lossid
Ġgnil dnah
Ġecna nif
xe nna
Ġyhpargo ib
Ġodna nreF
Ġyti snetni
Ġlaci syhP
lev ne
Ġylsuo enatlumis
Ġmu igleB
Ġelba renluv
Ġnez orf
Ġgnila ever
Ġts niagA
Ġma erc
n ha
is yhp
Ġdoo lf
Ġa ku
i cnu
tsu jda
r Ã¡
ta ob
Ġre rutcafunam
Ġpe eD
se ye
retni W
ro y
Ġega ruocne
Ġse nim
n Ã¶
Ġecud ortni
Ġre s
ta Q
Ġev reserp
Ġde po
Ġdep pot
Ġera m
g O
Ġde tser
erg A
Ġrae t
Ġria ffa
sru hT
de C
Ġb muht
raw d
il erp
Ġsnoit ide
ek naY
Ġhc tib
Ġht uR
it carp
Ġrota vele
Ġh ai
la vitsef
rt xe
Ġih leD
za R
Ġgnitse ggus
Ġde nosirpmi
noitu lover
gno rw
Ġna id
ma hc
Ġa gnam
ti S
m U
hsa rahaM
Ġit te
Ġlapoc sipE
hca e
ssor g
ru eN
Ġna vo
Ġrot cA
sirp rus
Ġeria lc
iverb ba
ega reva
med nE
di ca
Ġse loh
Ġgnit on
le etS
Ġse tte
Ġsci syhp
lli ev
re tsinim
È Ľ
Ġla em
Ġdere tnec
ri mE
tsi ra
Ġsuo mrone
ĠC M
spo ort
si uc
Ġtne noppo
Ġx edni
Ġt tel
Ġgnit cetorp
in niW
no rb
Ġde tnemucod
vi lo
k E
Ġse ganam
su cca
ru hT
Ġla edi
yde moc
Ġsel poep
Ġhp lo
Ġde noitats
Ġga rd
Ġsuoi retsym
Ġsuo ena
Ġe rb
cinummo cele
dro C
Ġs noisses
po ruE
Ġyt rebiL
a Y
Ġlarut lucirgA
ei S
Ġgniri uqer
or bme
Äĩ ivo
x na
sel ddiM
st ceffe
Ġkco tS
ulo ve
wo v
re ywal
Ġseva ls
Ġevit cejbo
Ġega kcap
Ġra lucric
D N
py la
Ġo ma
Ġn ruteR
Ġseka L
Ġsaes revo
se kops
Ġdetne vni
Ġri ahC
Ġdnal reztiwS
n reht
Ġdeta ru
Ġnaw iaT
Ġnoita iva
' .
tsu rt
t rahC
ti mil
j iV
Ġli O
Ġeri w
Ġroda ssabma
y cib
muht sop
luci dir
Ð ²
Ġskna t
ir cas
dna P
Ġdek o
Ġaid epolcycnE
ĠÂ ½
Ġnois sap
B M
Ġseruta repmet
ecne idua
Ġi z
ĠA W
Ġtnia f
ga T
Ġl raeP
n roH
Ġer tem
yl C
to K
Ġai ci
s nur
Ġnosi rapmoc
Ġeni N
Ġyl eru
ye H
eno z
rts nI
Ġdex iM
Ġderet nuocne
Ġlani girobA
Ġgni tser
rf f
t co
snai rotsih
te f
Ġwor b
sre b
Ġgnine taerht
stsi la
Ġdeda f
h ahS
Ġl uoS
st el
Ġr m
Ġero b
hca B
id loS
Ġdek rej
nois siM
tne ga
Ġyt rof
Ġesrev er
Ġsega ssem
Ġgnis U
k ralC
uga raP
Ġdelbme ssa
Ġret hg
na moW
Ġgni po
mu f
Ġre nil
noi L
Ġdep iw
Ġtsi ruoT
Ġstne noppo
Ġlacigolo hcysp
nuo f
ug neP
Ġ7 9
p roC
s loohcS
reve B
Ġtib ihxe
ĠÄĩ i
Ġstna rgimmi
nai rotsih
Ġla srevinu
Ġega rag
Ġylde gella
ruo J
rut cel
nats I
Ġta rcomeD
Ġlaci dar
Ġek ul
Ġpa r
Ġn ha
Ġro dirroc
ecne loiv
o ne
Ġsni oc
s dnoces
Ġxa f
in K
il S
Ġra dar
yna C
Ġyltne namrep
dro F
Ġy pareht
wo lF
Ġyeno h
Ġe ef
Ġseta lp
Ġtiri pS
Ġdesop mi
Ġelba ne
Ġrefinne J
Ġdeg delwonkca
Ġedutit ta
Ġdnal niF
kc ub
slai ciffo
Ġet ubirtnoc
Ġdel dnah
hc eeps
Ġna itsir
n ruT
id es
ram S
Ġeko w
Ġsmrof talp
nim luc
Ġno S
Ġy p
Ġi i
seni gne
6 581
ek il
Ġdesse ssop
st fa
Ġevita rran
Ġre hctip
Ġgnit nirp
Ġyle reves
Ġsre kaeps
Ġy revocer
wor b
Ġsla irt
ĠÃ© rdnA
ko j
; )
Ġnoita N
Ġ8 981
sgni ht
Ġre nosirp
Ġsev irra
Ġleina d
Ġsle voN
seg duj
i fe
Ġni va
reta M
Ġeka f
ets urt
er taeht
Ġeta k
Ġega toof
ol C
Ġsuoi ruc
Ġsrevoc sid
de ne
Ġ bal
Ġeru tinruf
Ġtol P
pa duB
Ġnoit ome
vo ruE
. %
Ġyllaitne top
Ġeni lo
Ġerawa leD
bata D
Ġna liM
de dda
Ġgnipp ihs
Ġt curtsnoc
Ġgnib milc
di nirT
Ġsrot itepmoc
Ġseni hcam
Ġenacir ruH
reb mu
Ġs llaF
di f
cne laV
Ġdeb bud
r tib
eta lp
Ġtna saelp
s wal
Ġse gnellahc
o ci
gg irt
Ġh sub
G cM
Ġlaici duj
Ġesa C
Ġgnik ram
Ġnois olpxe
Ġna retev
n ÃŃ
Ġemo C
Ġdlo f
le ks
la nep
e sua
O F
Ġhca oC
Ġrev neD
CB B
Ġeuq o
Ġy ri
ylla niF
Ġdev reser
Ġwe hpen
ngi e
D VD
stsi vitca
se uga
Ġcit cratnA
e C
Ð »
lu H
lop orhtna
ana tnoM
Ġ rap
Ġht olc
Ġdehsa w
ro lehcab
Ġir neH
na ttahnaM
Ġllu ks
Ġetaudarg rednu
ĠaÃŃ raM
Ġd riB
sa ep
Ġsdraw retfa
Ġta b
Ġsre mraf
syla nA
Ġi v
Ġdede ecorp
Ġsgni de
Ġte ewS
ir tapxe
tnem el
a u
Ġsel yts
Ġsre weiv
Ġse cnivorp
tu C
ro irp
Ġ3 9
Ġda erb
Ġneg yxo
S H
Ġep or
Ġlau dividnI
Ġme lasureJ
n ruf
mo olB
pe S
elu dehcS
no ihsaf
y uG
Ġdecnuo norp
dro j
Ġdenoit seuq
ba ts
Ġa iluJ
dne irF
ela mef
Ġst nuoc
ane rA
ir teR
ti R
lah pe
Ġevisser gorp
Ġru etamA
Ġs tsop
Ġe lissim
Ġero lpxe
Ġetamit lu
Ġretsi ger
Ġrehta g
Ġngi apmaC
ti orteD
Ġle uqes
Ġy htrow
Ġnoit ilo
sel rahC
ir ht
ssa pmocne
mrof er
mu rt
Ġe gni
luci rruc
art roP
Ġe niaM
von nI
Ġleu nam
Ġlanim irC
Ġneet hgie
Ġsehca orppa
Ġde raef
Ġlli ks
Ġati pac
Ġeti le
de si
Ġt feL
Ġseta erc
Ġna ve
Ġlla B
Ġno ta
noit celloC
snoi sivid
Ġeni ma
eda ced
Ġyad retsey
Ġdet pmorp
Ġde reht
Ġnoit cnitsid
Ġne gni
Ġdenethg it
Ġteni baC
o lp
eni cidem
Ġdeta cilpmoc
Ġdneg el
Ġtnew rednu
uo M
Ġnoita llatsni
eni le
Ġnia ter
Ġdehsa lf
Ġgni veileb
tne ma
Ġnoita rbelec
Ġrep poc
gi B
eltta eS
Ġret pocileh
Ġdle iffehS
la tem
Ġhs rah
ed rebA
Ġtcni txe
Ġeca llaW
stna tibahni
Ġyeb bA
Ġo cca
Ġre krow
Ġslai ruB
ne va
ne draG
Ġht mraw
sta rcomeD
po eL
sre cudorp
Ġsuo iraV
Ġde xaler
na tob
vo c
Ġna iluJ
Ġsdraw dE
ts nI
Ġyra ut
u lC
Ġrei va
Ġg k
Ġsm ilsuM
sae leR
31 1
Ġeti S
s dnah
Ġ caM
ka b
Ġerut lucirgA
Ġecne dnepednI
âĢĿ .
dna cS
Ġeg eis
de H
Ġdir daM
rts noc
seru ta
R M
no F
dra dnats
Ġse ugra
pec retni
Ġrae ws
Ġdeif iceps
Ġ9 7
Ġgnihca orppa
Ġsla nidraC
Ġdet nu
Ġerutan gis
Ġse sab
Ġflo W
Ġeil seL
Ġh uh
tno ziroh
Ġwolla hs
gna irt
did naC
Ġai m
lia rT
ga J
Ġla tsyrc
sseleht reveN
Ġi f
o lb
ry T
Ġdlo b
gnit niap
cid nys
nni L
sp il
si K
sega lliv
Ġtim mus
DI A
Ġna lP
g irt
Ġy baB
Ġro irraw
sa n
r k
Ġlufsseccus nu
co c
Ġe neG
n rae
mar caS
Ġd ih
Ġyti di
dnuof weN
de yalp
Ġst rahc
Ġyro sivdA
Ġyte faS
Ġder cas
Ġnai retybserP
de irram
rosse forp
cifi caP
tlu s
m rah
y erg
Ġtsa C
bb iG
Ġsra eb
redi pS
Ġsa l
re tsi
Ġed no
Ġstsi L
ll Ã¼
naw S
mu idem
la gneB
Ġnoit pircseD
Ġsrot cod
li rt
Ġse lpmet
ka tsim
Ġne ts
re nni
Ġko orb
Ġe nabsirB
si nne
Ġstneme gnarra
tsi vitca
Ġedutit la
er neg
ĠCF U
dra uG
Ġnoit utitsnoc
Ġdeb rosba
eni cideM
Ġyranoitu lover
Ġgni ugra
Ġtneme ticxe
Ġeka ts
tse irp
z te
Ġse lims
Ġeka T
Ġdnal kcuA
Ġsgni r
Ġor dna
noita utis
ĠP I
Ġ9 981
Ġgnilia s
na yM
Ġee yolpme
k eb
yro getac
Ġ7 8
T T
ero mit
idra ug
Ġ9 8
n mer
tne mirepxe
Ġdetati seh
ko k
Ġdehc nelc
Ġhguo t
Ġa if
re lC
Ġci mednE
Ġlau tneve
Ġtse i
d it
Ġde lc
Ġyti srevid
Ġtnem timmoc
nia rb
Î± Î
rev en
Ġrood ni
Ġta eH
a o
t ceps
Ġy tta
Ġret nuocne
snoit ces
Ġra elcuN
d rib
gni R
ci norhc
sia rp
Ġst nirp
seiti rohtua
k reB
Ġese na
yram mus
zi le
Ġle etS
Ġhcti w
re nim
Ġyt itne
noit idE
sei re
Ġla minA
nar pos
bu H
Ġgni ws
Ġyb reD
Ġeti ps
Ġlani draC
Ġai breS
Ġdero noh
tin gam
Ġslo rtnoc
Ġdelba ne
Ġy xes
eni n
ytila uq
Ġyra tnu
Ġy medaca
Ġtse uq
51 1
ffo H
me lasureJ
Ġero tser
Ġ valsoguY
Ġere hpsomta
ep inniW
oo hS
Ġ1 9
st roP
ht ro
Ġ6 981
ka Y
Ġyrla vac
Ġderuo p
Ġnos m
ecitsu J
9 481
yolp mE
ta G
Ġde irf
Ġylira ssecen
sdra dnats
Ġgnita olf
Ġn neP
Ġr Ã¼f
gnu f
Ġt hc
Ġlli M
Ġnig ram
Ġsp ord
Ã© F
Ġeg never
Ġ4 9
Ġde wener
Ġgni jieB
Ġ,) %
pi T
Ġawa ttO
00 6
mad retsmA
na ma
air yS
Ġu h
Ġselp mas
ts um
Ġo rts
Ġa gna
mo rP
s fe
re dni
sci moC
Ġnai va
so G
yt itnedi
Ġnot toc
ot nA
Ġyl det
sre V
Ġlia j
luc sam
gnat cer
Ġe de
Ġgni noit
Ġna rehtuL
Ġa htna
Ġnoit ucexe
Ġnoisi vorp
Ġsga b
Ġs do
seit e
id rac
ega P
gi z
Ġdeta es
Ġa erdnA
Ġy hposolihP
1 581
Ġt pircsunam
Ġgni greme
Ġse na
Ġretsa sid
e laP
21 1
sa J
y onna
ia M
Ġyhpargo tohp
rev lis
lisso f
Ġspa m
Ġnotgni lleW
Ġelb uoD
ĠâĢ ł
lov E
Ġdezi namoR
Ġera d
Ġz urC
Ġelb ram
t roF
Ġna yr
Ġm sit
k cehc
Ġdel worg
Ġe dnarG
Ġde rac
en niM
ytne wT
Ġde tegrat
Ġeta reneg
snoita cilppa
wa s
S W
vi G
Ġsnoit rop
Ġdno maiD
inu mma
tal snart
Ġtnemhsi nup
noc er
r its
Ġ0 981
ci L
Ġero ngi
snoita col
t nuoC
Ġalu mrof
koo C
su i
t tA
Ġi u
ano lecraB
Ġsteg rat
mu esum
Ġsre nniW
Ġ3 8
Ġy limE
Ġyhp ruM
Ġcitarco med
Ġne l
Ġswor beye
Ġht diw
Ġde citcarp
Ġseiro eht
noD cM
ela cs
Ġtu n
Ġyrev a
Ġla picnirP
ya L
Ġlarot cod
Ġs dneped
Ġgnira elc
Ġgnisirp moc
ga b
D H
Ġtne c
Ġs motpmys
eromit laB
Ġ; .
Ġsd riB
Ġsta rcomeD
Ġsser tcA
ile F
Ġega su
3 581
ore maC
pe let
Ġt luc
no miS
ye L
Ġaksa lA
Ġ Ï
ro V
roh po
Ġevit cartta
7 481
Ġera wtfoS
ser tem
ra Y
Ġred nilyc
Ġthgi erf
mu i
Ġderet la
Ġta bmoC
Ġse xob
Ġgnil ttes
Ġtneme gagne
Ġes net
bo s
ke erG
Ġsel teeB
sno paew
rbet rev
noit ubirtsid
Ġret lehs
mi W
yaw hgiH
yrt nuoC
tar cs
Ġdla reG
Ġtn si
Ġnore maC
Ä Ĳ
yre ll
ro dne
y erG
Ġymono xaT
o en
ret upmoc
Ġsne drag
Ġe ol
Ġah baS
Ġlaci mehC
Ġ5 981
Ġseta irtapxe
a lp
Ġspil lihP
Ġseu lb
nits uA
nim id
Ġev lovni
Ġw elb
ĠĠĠĠ ĠĠ
kni ht
Ġklof roN
Ġseit u
Ġo lli
bo M
Ġesua p
Ġkcab retrauq
rtsu llI
Ġsel ca
s noipmahC
Ġsnoit cudorp
ko Y
Ġlairo tide
Ġsu ira
k cer
Ġsria hc
Ġel gaE
Ġgni tsal
Ġene co
AC SAN
Ġme ts
Ġdra tsab
Ġegnahc xE
Ġy xa
sgni tniap
Ġnoit itep
Ġgnit cudnoc
nia rT
Ġdet erpretni
s noisrev
Ġeka wa
sim sid
Ġlau tum
ena L
d loc
Ġnu R
eruta retiL
Ġthgi F
co id
eci loP
de h
Ġsuo it
Å ģ
Ġstna dnecsed
Ġt tam
Ġdek cus
Ġwolle Y
Ġle seid
y tu
Ġera C
Ġsnoita luger
G I
Ġdeni maxe
gu j
ĠVT M
Ġse gnar
ren roc
sor C
d nI
ra er
se aC
se lur
Ġgni vomer
rae g
tno rF
Ġdna nidreF
Ġnahta N
libo m
u O
Ġnoita vresbo
Ġam mE
Ġsnoit curtsni
rbe leC
Ġereh won
sullo m
Ġed irp
Ġa dniL
ret tam
Ġt liug
Ġyme reJ
Ġle noloc
mod gnik
Ġrehto b
P H
Ġrel tuB
Ġsuoig itserp
Ġs tsissa
eht a
ĠA I
kci lf
Ċ ĠĊĊ
Ġeci rP
Ġei maj
Ġnoita rebiL
n rohT
Ġtsi rorret
Ġre etnulov
Ġgni bmob
Ġo y
Ġnoit itepmoC
Ġecna dnetta
Ġdek cap
Ġtne ilc
m iws
wo gsalG
Ġtup ni
Ġeli p
ĠT AEN
Ġyr teoP
Ġtce psus
Ġeta icossA
Ġib baR
ka H
Ġmutna uq
Ġhci vo
Ġnoit idE
ev nu
Ġpihs row
u W
Ġka O
nos pmohT
Ġgnima erts
Ġnosa M
hc us
Ġde htaerb
ci s
tto B
sna vE
Ġne wO
mit ni
Ġyaw flah
ie M
si N
gu B
o hW
Ù Ħ
Ġs go
Ġd irg
Ġse sub
id ne
de g
Ġsi neD
noit ubirtsiD
Ġaro lf
Ġnoita irav
Ġyrota robal
41 1
t cilfnoc
Ġse hguH
Ġyltne lis
Ġevita rtsinimdA
Ġi iawaH
dnu m
Ġp uoc
Ġla yol
tso hg
elc yc
ge P
Ġyre mogtnoM
Ġdnum dE
o los
tuo R
Ġsse ler
va F
utits bus
Ġeda girb
Ġeta uqeda
Ġega irrac
nu N
Ġsre ta
Ġska eps
mu rD
Ġsro noh
o ti
h O
hgi ht
lla V
ni raM
ssen lli
Ġkcu hC
Ġg ud
te elF
Ġnai sa
Ġnois serpmi
or D
ed ne
Ġrag dE
Ġsci pot
ega mad
A U
Ġdere gna
eta tse
mi m
Ġla vivrus
pma hC
erc sid
Ġeni loraC
Ġelcyc rotom
sne c
bo D
Ġgnidro ceR
selc itra
Ġelba irav
Ġramo laP
Ġg uoD
Ġkoob ecaF
daets nI
ca rf
_ _
Ġe ita
Ġ.) (
eg A
ti srevinU
Ġgreb ne
Ġsre d
Ġonai P
sla W
nois ser
ir rab
Ġdetsil ne
Ġysatna F
Ġeb or
thg is
we D
T C
Ġnoi geL
Ġseci rp
gni viL
wa S
ela H
Ġe miger
CB A
S F
er ceR
Ġne lG
Ġym A
Ġnoit ciF
Ġgni mma
Ġdene diw
Ġtna illirb
ruo loc
Ġnai b
a in
st hgi
e nalp
S G
Ġgnir iter
eti S
Ġna ttahnaM
Ġnay rB
Ġeneg uE
Ġgna hZ
ita mard
t purknab
Ġde sivda
Ġtro ser
b orp
ĠĊĠĊĠĊĠĊ ĠĊĠĊĠĊĠĊ
ga d
Ġgnidna pxe
Ġgnille vart
Ġdel kcuhc
Ġih ca
Ġci m
Ġsn muloc
raj uG
Ġtna r
Ġde usrup
Ġd roc
ni eR
li T
ĠA D
yro tirreT
c fc
or teM
wolle f
ec no
Ġgnik roW
p yh
nil B
re gna
le toH
yo L
Ġdno yeB
Ġsnoit cirtser
ya dnuS
Ġlare ta
Ġtnemi repxe
ret tel
rus nI
Ġsnai rotsih
enoi P
Ġrecne pS
ol F
Ġsema lf
nev noC
Ġei zne
ha L
Ġgnip muj
thg it
co lev
uo rT
em irc
la eR
sni w
Ġci a
sec cus
de S
Ġci pot
ca j
Ġsle eh
se moh
gi n
mah gnimriB
Ġetam itigel
FF FF
Ġtne tap
Ġnav illuS
Ġtso hG
Ġsy en
Ġro rre
pihs noitaler
nav I
Ġgni ruobhgien
ri ms
thg irb
ortsa g
Ġgni vorpmi
Ġlave ideM
gni nni
Ġtnem eru
picit raP
Ġdi ulf
Ġ7 981
ce M
bu ts
Ġecne rolF
Ġeg ru
Ġno eL
Ġdeg ru
Ġarem irP
Ġa tta
golo eht
cir taP
se pyt
Ġneta e
ht worg
Ġylla tnedicca
Ġrem usnoc
eg rahc
Ġeni hcaM
Ġv t
se lu
ssa N
Ġta erter
yca geL
.) "
Ġtne csed
el B
Ġsev les
Ġera ps
p raC
re mun
Ġsla ed
Ġne hC
Ġseuga el
Ġgni xim
o vo
Ġeg diR
Ġpa rt
Ġkca rc
Ġstne mirepxe
c so
Ġsnoit nem
ku F
u leT
Ġderet rauqdaeh
tnem taert
Ġsgni tirw
Ġgnidna mmoc
Ġla ets
hsi nif
hgi E
Ġgnisi morp
Ġse ssik
Ġdedne csed
t ita
Ġk rowemarf
Ġtneme sab
Ġne zitic
Ġno tna
li ot
Ġde pma
na rf
di B
sna f
g iw
Ġym mE
sna muh
Ġes seJ
Ġo ciR
Ġdenia dro
Ġg uh
Ġyranim ilerp
Ġde dnabsid
po hS
ingo c
Ġcir baf
Ġtneme vorpmi
Ġdet ropsnart
Ġze ug
Ġyle los
Ġgnit celloc
eg res
ec ruos
Ġma rg
om S
Ġy erG
k ceB
eta didnac
Ġer yeht
Ġsse ddog
Å ½
paps weN
Ġdet hgil
Ġsu na
le ehW
hta N
ram A
ua B
Ġylra limis
Ġnoit purroc
Ġdehsilo ba
ga D
Ġo ve
6 481
Ï ģ
Ġ ihs
Ġniw dE
ff its
Ġi le
rot cod
yti licaf
Ġredne rrus
Ġetutits ni
kca rc
ni J
no veD
re wot
Ġn nelG
sffo yalp
Ġeta redom
fa L
Ġnoitati vni
sma dA
di W
Ġroiret xe
Ġyhpargo ilbiB
Ġtsa eb
rednu hT
hc tuD
srev o
Ġgna Y
c reM
Ä ħ
Ġsniat niam
ar P
Ġnwo ts
Ġlaire a
Ġgnihc ti
cna S
Ġdia r
Ġeil rahc
lo of
Ġa pmaT
or iH
tne G
ne F
elpoeps senisub
u dE
noit itcarp
man ro
wor d
Ġtna vres
Ġnoitca retni
Ġsre rutcafunam
Ġsgni k
Ġsno med
Ġylla utriv
Ġsni g
Ġo ai
Ġ. âĢĿ
nam ssenisub
Ã °
Ġdeve irteR
Ġdehsi lpmocca
ja H
nos niboR
Ġci pmylaraP
Ġtna egreS
e nia
Ġo mo
nu j
Ġlehca R
de cudorp
daor ba
Ġes ned
Ġf fil
ug sid
sev il
Ġsre temolik
tna lP
f leS
Ġedi xo
lo g
Ġwo lg
Ġyro tirreT
Ġgnida eR
s noissim
Ġgni mraf
Ġeh csi
Ġsht gne
sa L
Ġlats yrC
Ġtneme cnuonna
Ġev orG
n h
k ool
Ġna idrauG
ua c
Ġk nus
Ġde dis
sec roF
Ġeru decorp
ra ma
xeso moh
lih po
y carco
Ġy erp
Ġsu ni
ffo eG
bo h
yhpo solihp
Ġsuo ici
us T
Ġseru tnevdA
Ġt ten
naj iabrezA
saga daM
Ġgnidaer ps
Ġgnit nuoc
Ġeri uqca
stnemu rtsni
Ġsgni tsil
Ġrevo cer
Ġtna lP
Ġenil ria
p roc
Ġg rob
ht ruof
Ġgnida ol
e soprup
a va
Ġese nabeL
Ġgni va
Ġeus sit
rah K
Ġhci nuM
si sirc
Ġem irC
gna l
Ġhc e
t lov
Ġemit efil
Ġsre dnuof
loop reviL
Ġn f
Ġnoitcnuj noc
hca orppa
nne J
Ġre ffus
sna elrO
ene go
Ġsecne ulfni
Ġtis nart
Ġe nifed
Ġgni eB
Ġevit cetorp
g ruB
lla P
Ġtnem ssessa
Ġtek cor
sa llaD
gnin rom
Ä Ľ
ts bo
Ġelba nosaer
tan raK
det cele
Ġnoita rgetni
a za
ta eb
sop moC
Ġsn rael
Ġiah gnahS
Ġsnoit idart
Ġevit omocol
Ġsi ra
redna mmoc
cif ircas
na u
f retni
ll ys
car yS
Ġt laed
Ġmail liw
Ġreht raf
di H
Ġs gna
Ġ3 981
Ġylgni mees
rev loW
Ġelbatrofmoc nu
s nwot
rb mem
ge D
Ġtsila cov
llab esab
Ġtnem norivnE
Ġdev ruc
Ġy sa
Ġo lba
Ġega ruoc
Ġsla ngis
Ġeta covda
Ġei maJ
Ġlacigolo eahcrA
en raC
ev ihcrA
Ġsne z
Ġsrae B
ret tab
Ġscit sitats
Ġla gneB
Ġemos dnah
Ġdem hA
' (
Ġyle man
t pada
Ġgnip pets
te ews
Ġsna itsirhC
Ġnai bmoloC
Ġnretsaeht uos
Ġeu rT
Ġsu iluJ
la J
Ġdehc raes
no sne
lu V
Ġti reM
llo D
pi cerp
yti capac
o iB
na hT
Ġsci monocE
se tam
Ġyleta virp
Ġcile aG
Ġs citamehtam
Ġde cart
Ġwo L
eca R
00 8
i Z
seit reporp
is A
Ġdega ts
Ġdena org
Ġrevo l
Ġtre seD
Ġetaig elloc
Ġlaci gam
Ġdnal kaO
se z
Ġeka s
Ġlairo tirret
Ġyl tse
t roffe
Ġsa geV
Ġyli l
Ġgni c
ret tu
re ciffO
Ġwa ÅĤ
og eiD
Ġea eca
spihs noipmahc
d lef
Ġdema nkcin
Ġ2 981
Ġstne tnoc
ss ih
Ġgniy rav
hci nuM
Ġso iduts
s tekram
ku Y
ir K
Ġi mu
l ha
Ġre yarp
Ġi o
hsi loP
Ġmy nonys
Ġdek rap
Ġse sir
varg ne
tse dep
Ġla rtuen
n muloc
A V
f O
sne htA
a do
ro ulf
Ġnoitani maxe
Ġni wT
Ġdeta eh
hgua D
Ġwo diw
ti siv
M I
pa T
Ġnoitani tsed
Ġo p
Ġyrla vaC
Ġt nuom
Ġne w
sse L
Ġdenia ts
Ġo lraC
Ġlanoisser gnoc
lli D
sk elA
Ġeka uqhtrae
Ġesi arp
thgil f
Ġri eh
Ä °
sa elP
Ġnwo lf
Ġrota erc
Ġnmu tua
Ġruo bal
Ġek oj
Ġnoita rgimmi
rev ird
Ġ Âł
Ġgnihc tac
Ġdehc ra
Ġse vo
Ġsu ti
ĠF H
- .
Ġno moloS
Ġerut lucirga
ng I
Ġeek uawliM
re ffo
seman rus
Ġat reblA
su greF
Ġel gniS
Ġya led
nre V
es ihcnarf
Ġya rra
no nabeL
Ġa knaL
Ġ9 881
Ġsto lip
Ġetamit lU
Ġyca retil
Ġl I
Ġgnit tab
re moP
Ġy z
eg delwonk
Ġluf dnah
Ġnois nepsus
Ġgniy ub
ce h
Ġs cita
m el
ho K
Ġel yK
Ġr h
tro peR
hguo roht
Ġlatnem nrevog
Ġet elhta
Ġgni R
eg duj
Ġoc raM
Äģ M
Ġ4 981
Ġseuga elloc
Ġlai rub
tsni W
Ġgninna lP
Ġes rup
Ġlo co
Ġti k
sna cilbupeR
up sid
Ġtis narT
drac v
so H
Ġyra dnegel
ht eM
ua b
na lc
hsi raP
di los
Ġem yzne
bu L
Ġnois serped
Ġste ehs
Ġno e
ra y
snoit cnuf
li N
Ġ8 0
Ġt lah
Ġsd uolc
Ġdeto uq
Ġslle W
Ġgni yojne
Ġnoita idar
Ġnoi napmoc
snoi sacco
seu lB
Ġe pip
Ġt rocse
Ġcime dnap
lleb pmaC
Ġo gol
weiv revO
bo L
re kam
ed oC
i X
Ã ®
v ah
Ġde dargpu
ytiru ces
l rahC
se uT
ord nA
oo s
Ġgiw duL
Ġga T
ĠA C
Ġs ngiapmac
Ġsyalp sid
Ġt nuH
er Ã¨
Ġsre p
Ġnaci R
Ġyle vol
R W
h gniS
de zi
s dnab
Ġsre bma
la ge
Ġden worc
Ġy ppaH
Ġdehc ram
Ġo rp
nem nrevog
Ġnoita tneserp
sgni dne
eni hcam
Ġle D
Ġroti nom
m rots
a V
Ġsilopa naidnI
sy r
Ġgni tsoh
a edi
lo ffuS
Ġa rts
tnom reV
ko or
Ġdet cetorP
st ruoc
Ġstna lP
ll its
noita zila
dnu H
nimo N
Ġnos taW
Ġdehc tam
cifi cepS
wa K
Ġerut ciP
Ġka o
Ġne raK
ar K
kca rb
Ġgnie oB
ue nam
Ġstneme vorpmi
Ġy zz
nil F
Ġyli me
ri uqs
Ġa yna
nes noc
s llaw
Ġri ohc
Ġstneme tats
stse rof
y romem
Ġnoita luger
Ġyr ref
Ġte knalb
Ġna ila
Ġseiro getac
nil f
Ġyti naitsirhC
02 81
Ġdeb ircs
ycne utitsnoc
ro v
Ġsu hT
Ġert oN
la ma
ceps rep
Ġesa batad
Ġog uH
ru k
Ġec ruoser
Ġnois nam
u eca
hci l
Ġnoit on
d rA
Ġylt purba
nnu T
Ġlu dbA
5 01
Ġ Å
Ġsi spo
rete h
ret u
cnoc er
eetti mmoc
R T
de nepo
Ġepy totorp
Ġo v
Ġa mih
Ġni f
ria C
Ġro hcna
Ġyra tnemucoD
Ġsnoita zinagrO
Ġla citamehtam
Ġane ra
Ġgnidna med
Ġnoisi voruE
Ġt ruK
nor tap
bo m
Ġsli pup
Ġeta icerppa
Ġscit sitatS
yhpargo tohp
Ġseit luciffid
Ġthgiewy vaeH
Ġnoita rapes
Ġtel lub
ecne dnepedni
de n
de ga
cat ceps
dne K
Ġgniy ortsed
Ġu lu
Ġtsila iceps
Ġegna R
Ġnoit cnuJ
Ġnoitani dro
sm liF
saer ced
tne mailrap
Ġero doehT
ra Z
tsir C
Ġlab irt
Ġlau siV
Ġe toN
Ġu j
nagro M
D E
Ġaksa rbeN
Ġnwa d
Ġa ia
Ġecna mor
ni ma
Ġeta milC
u eN
Ġnretsaeht ron
Ġyhto roD
i za
tsir A
gnu j
Ġec remmoC
fa r
tne S
tnem elttes
Ġsa cuL
Ġd lef
Î µ
Ġel ihC
Ġs tsacdaorb
mi j
Ġcita ts
61 1
bu p
ti ripS
de z
U E
Ġrae N
Ġa meniC
s nilloC
Ġesa erced
ry L
Ġylla noitanretni
de yortsed
sit rap
Ġelytse erf
pihsre dael
ov ed
ruo lf
ycne gA
lla tem
l woB
o ca
su ea
gola tac
iff irG
Ġeva H
ega mi
dra S
tnec noc
Ġmloc laM
Ġy rtsinim
sre ts
gni jieB
Ġnoita mina
Ġsro olf
ici ffus
s raeY
Ġsnoi sacco
a menic
Ġhcir nieH
it te
L P
ĠC H
Ġlle nroC
ko K
Ġ1 981
Ġsni etorp
ana hG
Ġdeunitnoc sid
ra pa
Ġsdra uG
eca laP
Ġed it
Ġahp lA
Ġmo tsuc
Ġama bO
Ġel dda
da uq
Ġrood nI
Ġsriats pu
Ġte nalP
Ġeta udarG
Ġsei cepS
Ġye lekreB
issa lC
ore tsa
mu en
a si
lu ba
Ġret tu
Ġsa W
Ġdepp ir
Ġlo raC
ge livirp
d leh
rehta ew
Ġs om
mma hoM
Ġtius wal
Ġy nneK
Ġevit omo
Ġre ganaM
cer ru
Ġs noisivorp
ni hcam
Ġna ha
Ġdega reva
va rG
Ġyl prahs
Ġweiv retnI
Ġ9 0
Ġre if
Ġlo tipaC
Ġk roC
Ġmra la
yt ruoc
Ġeraw drah
ma hS
Ġsre yal
go V
r ih
Ġi sa
Ġdepp ilf
Ġsec ruoS
ny W
Ġai sa
Ġslli M
Ġsek irts
Ġ5 881
Ġnoita lle
Ġsnoil lim
li L
see yolpme
noita cilbup
Ġknu rt
Ġo irt
le nnahC
Ġnaj iabrezA
e let
Ġeni ps
se P
gi W
Ġre motsuc
Ġgnit ciped
pe tS
loc E
Ġsno ssel
Ġlati v
Ġstne ilc
Ġi va
Ġrevi ecer
Ġsni ur
Ġlacit sitats
Ġre ti
uq o
5 481
Ġeu c
Ġa hta
Ġdaeh revo
Ġsre tsiniM
da eM
sre wop
id er
Ġne llE
Ġdno lb
e naJ
Ġrets or
Ġh so
Ġnac nuD
sai selc
Ġ, !
Ġnia l
na ol
Ġytila u
Ġtnem ngissa
Ġsei dal
hc tac
noit utitsni
s ratS
n hoj
cni txe
Ġk oL
il loc
Ġselc ric
9 381
Ġs dnuop
Ġs pmac
Ġeraf lew
sir roM
z O
dro l
Ġh e
irba g
Ġsev reser
ta bmoc
sdnal si
Ġna ra
Ġs nil
Ġelba rovaf
Ġnais surP
Ġnoitpircs ni
Ġtle vesooR
ro lf
t cetihcra
Ġevitceps rep
ed ia
Ġf ei
Ġdeg g
ait ocS
Ġht id
noitacif issalc
Ġdla b
Ġtne ceR
ro cS
cih eV
srep sid
sa rap
Ġtse taerG
Ġ0 09
Ġb ela
Ġsta erht
Ġs dno
t cerid
Ġgnire dro
Ġevita nretlA
Ġse liM
ur G
Ġu W
Ġde ssentiw
Ġsecne uqesnoc
la cit
ua K
Ġs Ã¡
ir raH
Ġro nam
eri uqer
ĠAN R
sel ttab
ref ni
larde htaC
Ġetaidem retni
grub sreteP
yt rof
st cejbo
ep ahs
Ġyratne mmoc
Ġla es
Ġ iti
ia K
Ġna irb
hsi rap
Ġlufe targ
Ġev uoy
cilp er
Ġt laW
Ġse laT
noita v
7 381
Ġts nrE
dia M
Ġlacit eroeht
Ġ8 881
Ġeda hs
Ġseno hp
ÃŃ r
n roc
s llaF
Ġeci fir
Ġylne po
deti miL
Ġha on
j B
Ġnoitacif itnedi
Ġgni man
Ġelc riC
Ġden mednoc
Ġt ti
uo N
Ġse nalp
Ġlo of
Ġt la
reht O
seton tooF
Ġlam reht
Ġter ger
d do
hg ir
Ġe loC
Ġsde es
Ġemit emos
sreht orB
lia S
h eB
EN U
Ġle oJ
Ġrollecna hC
ord yH
Ġthgi E
liba ts
s raM
ne hT
Ġlla cer
Ġna tsinahgfA
Ġwo dahS
s citiloP
la itne
Ġden revog
nev E
y mono
Ġsa D
Ġeta col
Ġgnik ooc
Ġnretsew htuos
gni teem
secnere fer
Ġy monocE
Ġstne manruot
Ġelba kramer
nois u
yen siD
gni drocer
Ġgniru saem
l ler
o y
Ġsre dir
Ġka volS
m ir
Ġtneme veihcA
Ġelp irt
me N
Ġev los
sa j
Ġb mot
k ah
Ġeta robale
Ġgniro ngi
gni wollof
Ġgni llortnoc
Ġsti us
re N
Ġsre drum
Ġsnoit ibihxe
Ġrot cudnoc
ram mus
mar cs
Ġpo ta
ma rec
sne zitic
Ġtto c
Ġeti ruovaf
le hc
ro ivaheb
yla tac
etti mmoc
gni lle
Ġsyaw liaR
Ġster ces
ni ta
Ġci manyd
no tsa
Ġdnal niam
x iN
H A
Ġsnoita leR
s dohtem
hp u
ecnere fnoc
Ġt ug
Ġsro da
ser D
Ġedis nI
us noC
raps nart
li bu
sci pmylaraP
Ġsre etnulov
og noC
Ġtne dnetni
Ġmu ira
t hc
Ġtna hc
Ġluf niap
Ġlacit sitatS
Ġni sab
W B
Ġka erts
hsa w
Ġdraw kcab
Ġnair dA
Ġg ol
Ġlla C
Ġdesi la
Ġy cuL
t raB
Ġya dnoM
o ruE
seid ob
Ġy or
Ġ Å¡
Ġstca rtnoc
ohc ysp
tne B
rÃ¼ W
itua eB
ko H
Ġsle gnA
Ġnoitcurts ni
Ġada veN
Ġlacit po
ma rg
Ġnoita rtsiger
Ġto G
z I
ni tnatsnoC
Ġreh pargotohp
lev er
Ġyrev ocsiD
Ġla teM
ga w
ru lb
Ġdetcepxe nu
Ġk cit
a ks
º Ñģ
Ġta eper
Ġec reif
no ss
Ġs ruot
eh R
Ġyr ruh
rev uocnaV
Ġll itS
Ġseitila col
Ġgni vol
ste s
a de
Ġsgni rpS
Ġevita erC
lC cM
Ġgni soppo
tu L
eru liaf
Ġek ralC
Ġst cirtsiD
Ġderi sed
gna Y
Ġecna diug
Ġhsi lbup
ht noM
Ġke reD
Ġtim rep
ger gnoC
Ġscit irC
Ġstnem traped
Ġmrof eR
Ġa hs
sa S
Ġec rovid
Î ¹
de mrof
nev uj
hgrub sttiP
ĠT I
me hoB
su A
Ġtcart ta
Ġgni rrucco
dnuo pmoc
Ġpa rc
Ġk lub
Ġelba T
fa el
Ġy ssa
we rof
Ġramma rG
yl ba
Ġle T
yhp orT
Ġda rB
Ġsre disnoc
Ġdera lg
ai barA
ht urt
ma rt
Ġemoc revo
Ġeci R
scit sitatS
ne hC
Ġna leuzeneV
ru dnoH
Ġla csi
ÑĤ Ñģ
teg dub
ro jaM
Ġst pecnoc
se cived
Ġdemialc orp
Ġ val
v ral
lia ter
y lli
seit nuoc
Ġnoita rtsurf
Ġgnik cehc
sseni suB
Ġlavi ver
Ġgni dnuos
Ġror ret
et elpmoc
de nia
a di
ro te
d erC
nne hC
cel gen
te ca
Ġ5 0
Ġa cna
sre tem
sop sid
Ġni ps
pmu rT
Ġrotce v
mu tsoc
egro g
å ¤
4 481
Ġkrow tra
Ġnot nA
vit cA
Ġgninrae L
Ġeil uJ
Ġy dd
Ġdeir ruh
Ġanua f
yl gni
Ġy vaeH
Ġlau nam
yte fas
Ġyletanutrof nu
ro getac
Ġse cnarF
sse ne
mih S
dna levelC
y ni
de vomer
de ni
Ġevisser gga
tsa w
ema c
Ġgna T
Ġla di
Ġse egufer
se vael
Ġgni ci
rtib ra
sre nwo
Ġdesse cca
ce rof
yar ruM
Ġdekcu t
Ġd or
Ġlau tir
co C
Ġsro vivrus
Ġlanoit utitsnoC
Ġycne gremE
Ġsdne s
Ġtni h
Ġmo oR
gni p
Ġg oD
u hS
Ġet noM
seru gif
Ġelba re
sre hcaet
na geb
rot on
Ġre pa
ne j
Ġs ward
ts ua
Ġeer T
Ġsro irraw
Ġsret upmoc
ra ga
Ġa M
Ġar h
les nuoc
tu cesorp
Ġdesi citirc
ygolo htym
Ġlufe caep
Ġs pu
Ã© B
spo hs
sedo hR
Ġnoit ubirtsiD
hpe le
Ġdnuo rG
plu cS
ei raM
Ġsk col
ya G
Ġra llod
Ġeka J
se ciffo
sgni nni
Ġydob emos
Ġyl terces
Ġnoit cartta
Ġyk cor
Ġek ud
Ġde dle
Ġref erp
Ġde eR
lef il
Ġs hgiht
it sab
Ġd irbyh
o de
Ġetarot cod
Ġy kcoR
ba N
Ġret tib
evis ne
ma hs
Ġgni lc
Ġnoita snes
Ġot reboR
Ġdeta coL
Ġecne f
nosir P
noit utitsnoc
Ġecna drocca
Ġde lah
Ġdetsu ahxe
Ġci ne
Ġler rab
Ġstne vE
Ġd reh
Ġna in
reb mahC
Ġsuomono tua
py T
Ġt raH
Ġkna lb
ĠII V
Ġma ht
no ci
Ġp pa
sgni rpS
sre m
Ġde irav
Ġselp maxE
noga tna
kci n
Ġeta locohc
1 481
Ġna knaL
Ġdecna hne
rem muS
ĠĊĠĊ Ġ
nom mus
la yalaM
no droG
Ġna t
Ġl lot
s dna
Ġ #
Ġoga itnaS
Ġsnik poH
dnom hciR
ro yam
Ġnoita mroF
Ġseitisrev inU
Ġm A
rem moc
se hcruhc
daor liaR
ste erts
sa W
Ġtnem eriuqer
Ġse lo
Ġsre daer
71 1
sei poc
Ġtsa P
Ġlanoi caN
Ġder caS
re wt
Ġgnit fihs
Ġdedi ova
tsa t
k k
seni zagam
Ġsnoita gella
Ġa menic
Ġse groeG
ecni rP
Ġrega e
Ġai namoR
dim hcS
J D
Ġno xaS
ĠR ACSAN
Ġdila v
ĠD M
Ġlarde htac
Ġp p
Ġssen lli
Ġsser trof
lliev rus
Ġsit ruC
Ġsre wollof
Ġero t
t cO
Ġs dnuow
Ġme ti
yno merec
Ġe illiW
Ġsla tipsoh
Ġscit elhta
re ug
sta b
Ġa ce
Ġsp irt
Ġa bu
Ã© ltA
ko L
snoit cudorP
y hca
Ġgniro tinom
hc eT
mi repxE
Ġnoissec cus
rat la
nois sap
Ġhta b
Ġdepp ihs
tsa H
ĠS I
Ġlanoit omorp
Ġretse hC
Ġyra ne
Å Į
Ġdni W
reb muC
da uG
revo eroM
lo oW
Ġrely T
Ġst repxe
Ġtneme cna
e nim
Ġstna rg
ra ns
lle hs
Ġlla m
Ġdec rovid
Ġgnire wolf
erut lucirga
re y
sno pser
Ġsu lu
redna xelA
21 81
Ġgni ruo
pircs ni
Ġssor g
Ġx uo
Ġsre dne
ia C
seuq inhcet
rt uo
ecnedi ve
Ġnoitpm usnoc
u saem
, )
nop tsop
Ġdera j
tneme voM
Ġegro J
Ġdetsu rt
Ġsre hta
Ġedu tingam
Ġleb er
Ġ7 881
Ġnaci rema
tfa rd
bmo L
m c
si l
Ġlia f
Ġo ca
Ġretso F
Ġe nutrof
Ġelb irroh
e nk
E E
Ġsre wot
w K
ed om
Ġnoit ibihxE
ĠLF A
redna W
Ġsev ihcrA
Ġren nur
Ġalusni neP
Ġsreht om
Ġsnoitisop moc
s ri
e loC
Ġsci monoce
mo rf
Ġi dniH
Ġ0 11
Ġseira v
eno hp
Ã ĩ
Ġoc secnarF
dnuo rG
h pma
Ġel fiR
seta didnac
Ġano lecraB
ku L
yekco h
Ġde dnuob
adna gU
tra wetS
Ġeru tseg
Ġsthg if
Ġsle ehw
Ġdehsi lbuP
t pircs
Ġeci neV
Ġeta iliffa
Ġs raM
kco C
Ġeis sac
Ġstneme erga
Ġev irD
ne ra
kci wsnurB
dl luB
a il
Ġnoita udarg
nos leN
Ġd law
se rots
Ġlairts er
Ġdelle ps
y ug
Ġgnitrop puS
Ġs muesuM
cni tsni
re ngised
Ġruo p
Ġwon S
Ġy hW
Ġecna tsni
Ġsedi seB
mo rB
Ġdetnioppa sid
Ġmu roF
la cs
Ġde weivretni
elif orP
Ġdelle pxe
re kaB
Ġ0 881
Ġkcol B
Ġvo k
Ġdet rap
Ġycne iciffe
nnu S
Ġde dra
Ġrot cepsnI
o lg
Ġyb ba
Ġse neg
Ġgni za
Ġdam hA
Ġt rah
t E
to d
Ġre ssel
Ġgni ynapmoc
Ġgnihc tam
Ġep pe
sre d
Ġnrow s
Ġyca gel
nae co
Ġni loiv
Ġseni le
Ġtnom reV
Ġsam tsirhc
Ġyl gu
Ġmi retni
Ġsd da
Ġnoitcaf sitas
por tsaG
Ġnoi raM
Ġnot liM
Ġyleta rebiled
Ġsnez od
ĠM BI
Ġa su
nosi op
Ġro mra
y lleK
Ġsnoit cerid
Ġde epS
Ġsnoit ulos
Ġyro ehT
ma dA
su iG
Ġseka l
Ġsla ci
ht ni
Ġtsi ser
noit cetorp
Ġre zti
Ġhc o
Ġsa cul
Ġelba iler
Ġtnedi fnoc
Ġdek rabme
Ġenu mmi
ew babmiZ
Ġw ahS
Ġgnid le
ĠA SAN
ssab mE
Ġdet ciderp
O G
hsi rI
Ġdeif il
Ġkco d
Ġte uq
ider gni
we H
ne ts
noit utitsnoC
Ġyleta l
ri ws
Ġeci ohC
Ġsec ruoseR
Ġo gni
Ġxa ler
el pmet
Ð¸ Ð½
Ġgnirru cer
Ġerut rot
Ġwob le
L C
Ġyks vo
slli ks
3 481
Ġyltne dnepedni
5 381
ĠnÃ³ ica
Ġgnib bur
Ġes ruc
Ġdna lloH
Ġret hgil
Ġtte nneB
Ġgnit cA
Ġela D
redna V
s ka
Ġstna ruatser
Ġnoitav reser
libah er
Ġdra hcir
Ġn roc
ssa rah
Ġgnidi ova
Ġoi c
Ġnretsew htron
Ġgniya l
Ġs gnul
Ġcit crA
etu nim
Ġrets nimtseW
is oP
Ġeri pme
Ġe T
is netni
Ġne vorp
ĠB LM
Ġ å
Ġca m
hpro mo
Ġyel darB
dnu s
o ps
tel F
x edni
noita reneg
Ġhtne etenin
ffo C
Ġtog rof
Ġtnem dnemA
Ġdetce fni
a nna
Ġnev ah
n rag
repo oC
mu lp
LF N
ga t
m yh
sia K
Ġgniyl rednu
sre enigne
hgua ls
sra lohcs
5 21
o hadI
ren nam
Ġla te
Ġal ler
Ġssene vit
Ġyrota robaL
Ġsub muloC
Ġre da
ga P
Ġre liart
Ġgninia lpxe
Ġpe ets
m yt
t cudorp
ua S
e netnoM
ev ird
ita m
Ġssensuo icsnoc
ve ni
el cihev
sre nniW
Ġsna ilivic
Ġnward htiw
Ġdelle ms
Ġdedo lpxe
Ġdevi ecnoc
á Ģ
ren trap
Ġsre enignE
Ġna n
CB N
Ġnoitnev retni
Ġseiro tS
a F
Ġse xat
Ġsu sej
ihso Y
Ġni oc
ser ht
Ġaht raM
dni S
a ÃŃ
Ġne kcihc
Ġskni rd
Ġyra noissim
Ġstnem poleved
Ġgro eG
Ġle m
tro C
Ġxes sE
8 381
Ġra lle
Ġau paP
Ġyleta repsed
Ġgnide en
Ġy dnaR
tse hgih
eca pS
Ġamo lp
rep pu
snoita n
Ġno me
Ġsi roB
ne drag
Ġt ludA
ma P
tfa rc
Ġsnoita irav
Ġde eccus
Ġycne rruc
a duJ
ffa tS
Ġsi llE
li ob
Ġsa v
z il
Ġai vilo
Ġ7 0
Ġsa remac
hga B
sre k
Ġsu m
Ġsu r
a gnam
Ġden mad
Ġeil yk
ĠO SI
hsi V
2 381
pirc S
Ġci de
Ġseitila picinuM
sle H
Ġyrani lpicsid
Ġlisso f
Ġsuoi cerp
Ġdero lpxe
no tna
Ġra M
Ġred leifdim
ihsa F
Ġtca pmoc
Ġdelli ks
Ã¢ hC
Ġen ruob
ygre lc
Ġz ehc
Ġle veL
Ġlo tsip
fa C
Ġk roy
Ġgnina elc
2 481
Ġdewo ls
) )
Ġdet curtsni
Ġgnit uo
Ġwor beye
Ġeugola id
Ġev isa
ih cu
wo cs
Ġ1 01
da tS
deta erc
ita P
Ġsnoi nu
Ġuo hz
el ttaB
Ġegro eg
Ġ** *
li caF
Ġerehw esle
Ġgninni ps
Ġo di
te T
Ġtel mah
iro ti
o ra
sa Y
gni dnats
Ġsehsi w
el lA
Ġra loS
dlo s
Ġeta mitse
Ġani lataC
is uM
Ġyru xul
Ġgnita lu
sy m
lav erp
us sit
Ġm laP
Ġs rM
sk ram
Ġsna ira
rf nI
lof trop
Ġhsa w
Ġytilit u
ro k
gni mo
Ġhse darP
ic so
leu f
hc narb
Ġdeso ngaid
bma Z
Ġrem mah
Ġy ned
ka R
Ġy van
Ġl lop
j i
Ġs raw
we iV
sser gorp
Ġgnik cart
ecne tsixe
sa t
ed ut
ĠS H
ms I
dom moC
ia R
ev reseR
Ġsrevo R
Ġgnin thgil
so ediv
no roC
ire ted
Ġl lub
Ġte S
gna b
Ġde ucser
sci ryl
y monocE
Ġ6 881
eru gif
Ġein nA
Ġhci R
isi vni
ry M
e ceip
Ġsus nesnoc
Ġgnik nab
Ġai regiN
pe L
Ġyt teB
Ġdeta colla
Ġeb olG
Ġrae B
Ġde dnuoF
R B
Ġret roppus
Ġdes sip
Ġmsi cit
Ġt recnoC
Ġlare tal
Ġgrub sreteP
Ġy vi
Ġdeir d
Ġev ren
ai valsoguY
U S
dra y
Ġ4 881
z E
Ġnoit celfer
reff iD
L S
Ġy ria
Ġmad retsmA
kci W
e ek
lk lof
Ġst ciped
Ġeka ns
Ġdepp irg
Ġot i
mo L
Ġl ub
Ġll uoy
Ġe eb
Ġo lop
el ppus
ma B
bb bbff
Ġ0 31
Ġre giT
a rtsehcro
se caps
Ġro sivda
no z
su seJ
Ġla tnoziroh
noit om
Ġse ot
yde nneK
na tsi
K A
Ġdet ni
Ġslo bmys
yo V
re ep
Ġtfa rce
ttu tS
Ġra ttU
Ġregna rts
wor ht
er ca
Ġnoitamrof snart
tneme erga
Ġehcs tueD
Ġeta G
Ġeni tuor
la icos
Ġhsi m
nomrah lihP
Ġgnizila er
Ġana tnoM
Ġsecna hc
cnu p
Ġyf it
nob rac
Ġnot weN
peek laog
Ġeka M
Ġse erga
ksna S
bb f
6 381
sa geV
Ġytili baborp
itne v
ir ta
y iM
Ġsne miceps
ep maC
Ġra dnelac
ze erf
es nes
Ġeno N
n gaM
ps A
Ġro muh
Ġhte ba
Ġhte itnewt
Ġnia rT
Ġelp irT
Ġde cudni
Ġre dni
Ġna hgfA
Ġdet cepser
Ġlai curc
Ġnoita nimircsid
alusni neP
r raB
Ġreka epS
Ġala reK
rag ttutS
Ġdrof darB
Ġsna is
Ġsro i
reb ut
Ġnaitsab es
Ġnoita nimreted
nidro bus
aika volS
Ġgnitrop S
Ġecifir cas
Ġe zinagro
te iP
Ġsp orc
) %
Ġya ler
mota na
pm ilg
ĠP G
Ġnoitaru d
Ġsgni dnif
Ġra ga
de bme
tan s
Ġcitsa tna
Ġih so
s su
Ġned dib
Ġre lp
ref erp
Ġdekca rc
Ġdelt rats
Ġylla itinI
m id
stsi ratiug
Ġthgin dim
x oR
ai notsE
O H
et noM
Ġevig rof
Ġgnu l
ma ets
ru tS
Ġnoita lupoP
ti uq
Ġyti mixorp
cida rtnoc
Ġgni lba
Ġnia rg
me M
Ġtsew htuoS
Ġh pargotohp
ti B
Ġna lo
Ġlaci go
Ġdenoit isop
noc laF
Ġega c
s nE
Ġgnib barg
Ġdraw kwa
gno D
Ġsci syhP
Ġmsi ruot
myt E
Ġdetca rtnoc
Ġa gi
retse hC
satna f
Ġya G
x irP
Ġdelia t
Ġsu ci
Ġlacit saiselc
n roh
Ġsp roc
Ġm laer
Ġn uo
ru taN
Ġg ge
hp muH
gu lp
nne L
Ġlanre tam
ĠC T
ro do
esa hp
ya C
ral ceD
rp moc
Ġgni tneverp
Ġya sse
Ġgni suoH
de poleved
cer P
Ġlatne di
Ġy ff
Ġnoita lucric
Ġegna hC
ta hC
Ġre pus
it raP
Ġydob yreve
zi W
re co
tto G
si seht
Ġdeta luclac
Ġt revnoc
Ġhc nub
Ġseigolo nhcet
no daM
Ġtsi naip
Ġ1 881
Ġema f
se uQ
Ġstse irp
le toh
Î ¼
na F
era uqs
en nA
Ġlle we
s ratiug
hg iL
Ġllu h
Ġcit laB
Ġena j
erga Z
ne ercS
se cxe
Ġsev ird
Ġgnila eh
Ġeda c
fle sreh
Ġnai se
go loC
s rae
kni sleH
di loH
Ġyl roop
ha J
e Ã©
el gniS
no ser
Ġy reb
Ġnoil leber
Ġyle fas
Ġgnis sucsid
ye lekreB
noitisop moc
ir ca
Ġroi retnI
Ġy nA
Ġdra H
R D
Ġa mra
oc coroM
e erF
rap S
bmo t
Ġn nyL
Ġsmrof rep
sro H
Ġgnit cerid
Ġai cirtaP
Ġeru talsigel
ie W
Ġdelbmu ts
ro pa
moc lew
Ġt oob
Ġx el
ecne ulfni
Ġsren roc
elb on
b ah
hcra reih
Ġdevi ver
lu bma
f reP
Ġte p
nop seR
Ġgniynapmoc ca
Ġa yh
bo c
Ġstsi vitca
Ġyl ti
p es
mu ts
Ġslli b
Ġreve ohw
E V
Ġrehsi F
l uos
Ġsu rohc
Ġsmrof er
tnemer iter
ĠF AC
nosa eS
ru Q
w er
Ġauh soJ
Ġdeta icossA
Ġtuo b
yti vit
Ġelba niatsus
Ġsseni ppah
el it
yti rohtuA
hgua V
Ġ... .
to G
bi maN
Ġred wop
te nep
Ġmsi ruoT
Ġy ci
Ġnaitsir hc
Ġdek cal
Ġmu inne
Ġsne htA
e cu
Ġgni cudortni
r teb
re hw
Ġseta riP
Ġeta rtsnomed
Ġredne fed
Ġre cnad
no ta
Ġxir tam
Ġyl tnioj
Ġnabru bus
mus erp
Ġci saB
re ka
Ġlai rota
du ef
N R
cir baf
Ġrets lU
Ġluf wa
Ġy nni
Ġnia rts
l Ã©
tsa rtnoc
Ġlo oP
em margorp
ĠC I
Ġega w
Ġyer ffoeG
sna ira
vo G
b ro
wa sraW
Ġana iD
so ppus
Ġrob raH
no te
57 71
Ġni j
erut cetihcrA
Ġma rt
Ġdepp irts
... [
de T
Ġsk car
Ġsem loH
Ġtsi nimef
Ġsu pmaC
scit elhtA
Ġtsila icos
loh ocla
ev itca
Ġyl redle
ycne ga
Ġsksa t
noita si
Ġde ohce
ta nA
ya F
mu a
Ġdeil ppA
Ġna iluj
t erb
Ġsei rotciv
gno le
Ġffil c
s weiv
llor ne
Ġse irtsudni
sdraw retfa
Ġecna ru
llaw nroC
elt tiL
er usserp
Ġy not
Ġreir rab
Ġtse llams
Ġez orf
Ġnoitu lover
we hc
Ġsnoita lugeR
eta virp
Ġtneme veihca
c retni
Ġk relc
Ġs leber
a te
na lf
ra lohcS
Ġgni dnuop
M C
ua P
Ġgni pa
Ġsse cxe
Ġt liuB
k nil
Ġr ih
Ġseil la
lua ssa
y V
co s
ort noC
Ġes U
hp m
h sub
ret raC
tu T
do K
Ġeka lB
Ġwas raW
uga ra
sci syhp
aina uhtiL
Ġno zamA
k raps
Ġsnoita reneg
Ġde erb
Ġsn hoJ
Ġtnem elpmi
Ġa D
Ġstna vres
nia rd
yru tneC
reht ruf
gna H
zi M
à ´
Ġde ulav
Ġsd on
Ġtneme suma
Ġra lloc
Ġdne terp
ll itS
tro M
ĠP H
Ġgnit pecca
Ġs oo
Ġsse ssop
Ġtsi ssab
Ġyca geL
za r
Ġnoita uqe
ki ehS
rev A
bo lG
Ġtrop weN
Ġ6 0
de dnuow
na W
Ġsma eT
Ġyltse noh
Ġne sne
we rew
ecna D
a mu
Ġtnia s
sria ffa
Ġeig enraC
Ġyer ffeJ
Ġden nuts
st roffe
Ġna hs
hte bazilE
de unitnoc
Ġre rocs
egati reh
ka rK
Ġe par
nu m
lpme tnoc
mma M
Ġtf ahs
molp iD
tnemu nom
Ġega neet
meda rt
ma f
y baB
a ko
Ġocit Ã©ltA
la udividni
2 01
yti rohtua
Ġdeb irc
gi V
Ġseicne utitsnoc
Ġllu H
se wa
Ġna s
Ġo nurB
Ġsret pahc
Ġdne geL
Ġne vaeh
ge iS
Ġnois ulcni
Ġwe iV
hta ram
Ġla rgetni
rb iG
se nim
Ġwo w
ai nevolS
Ġyca ripsnoc
r ihw
Ġtca pmI
Ġdeni ur
Ġylekil nu
Ġha llu
Ġo reH
Ġci getartS
Ġo ruE
Ġtib ro
tu N
luo T
do c
Ġk irE
Ġreg girt
e solc
Ġel ppa
Ġni W
Ġgni mussa
Ġhsi ugnitsid
Ġyhto miT
seg dirb
Ġse nnahoJ
porhtna lihp
eno Z
Ġxob X
no k
Ġdev loser
kco lc
Ð° Ð½
Ġa du
Ġa tse
Ġderet tu
sro noh
skrow ten
Ġkoo c
Ġni s
Ġdema rf
4 381
ed I
dna lloH
Ġra limiS
ht i
Ġgni doolf
Ġiks wo
Ġgniv id
Ġsgni tar
s dnuorg
Ġyl daed
de es
nia hc
Ġerut cel
Ġylla r
p yr
Ġte solc
Ġsnia hc
Ġnot nim
Ġdet lit
Ġm yno
Ġtse n
reh pargo
era wa
Ġyks ni
bb ir
ret noM
lo da
Ġetati licaf
ni hR
Ġrem laP
Ġse pa
sy M
cilf noC
thgir W
Ġsre ganam
esi w
Ġsla vir
Ġdetf ird
ilb ib
Ġema N
Ġneg ordyh
Ġetar tnecnoc
sro d
4 01
el Ã¡
Ġye noM
C TU
ĠI BF
y ub
dua rf
s citamehtam
tna rG
re lli
Ñ ĭ
rop metnoc
Ġsi xa
re ga
Ġz z
l mth
Ġtna cav
Ġsuo eca
revo h
hc ne
ohc S
B N
Ġlia me
reb iS
Ġnor tap
Ġda dinirT
tse hc
Ġdaor ba
klof roN
Ġci gol
Ġy ps
Ġhsi lgne
snoit celloc
Ġse mmargorp
Ã³ L
Ġroirep uS
Ġyl duol
Ġ! !
Ġde meht
Ġgnicna vda
sdra c
yad rutaS
Ġt oc
Ġ2 881
Ġni r
Ġsre gnis
Ġsretrauq daeH
Ġacisse J
Ġuo L
ia rP
Ġspets toof
Ġma D
Ġ0 781
ta g
Ġette ragic
sta ob
go b
t noC
Ġt or
Ġdesi rpmoc
Î ½
Ġse saesid
seri A
yrtsi mehc
reta ehT
Ġsro irraW
Ġstne diserP
Ġra lop
Ġstne mer
Ġdela es
Ġn rab
ho R
ru g
3 01
Ġser tnec
Ġeni p
Ġserut plucs
ĠA RE
Ġe ppilihP
Ġnoitce fni
Ġre rutcel
d oolB
Ġyre V
Ġtel lab
Ġemoc tuo
Ġsse ccA
eb uTuoY
Ġnwote moh
Ġesrev inU
Ġelb itapmoc
cnu F
hcs tueD
Ġdetaru guani
Ġyranidro artxe
Ġhc nup
grub maH
eg u
Äĩ i
tsy so
Ġa soR
ti nU
Ġot te
gro F
Ġeli xe
Ġsei noloc
Ġeni vid
Ġpu kcab
Ġo J
Ġyb bol
Ġesa hC
ugara ciN
s PE
Ġd tL
se ceip
srep us
Ġtrop xe
go M
Ġenacir ruh
Ġot reblA
Ġega yov
Ġta k
eg del
Ġla peN
der iuqer
ra vaN
ĠS SC
Ġnoitrop orp
kci rt
co R
Ġgnita ti
iv ed
mo G
r rim
Ġst rohs
eno n
yo M
se saesid
Ġrek rad
Ġsezila er
Ġdeta gitsevni
sna itsirhC
Ġreppa r
lo oC
nÃ¼ M
ti psoH
sa rK
Ġdesa erced
rt lif
y ramirp
Ġreb bur
reht oM
Ġnoit poda
Ġd liuG
Ġa seM
noc lab
tap sid
Ġseit lausac
Ġgni gnellahc
Ġgni tneserp
doow ylloH
na cs
Ġtnem dra
Ġhtam retfa
Ġgni rev
Ġel pp
Ġdeil la
Ġa Ã±
e citon
Ġlanoita ercer
re gnad
si se
Ġla noga
lf ir
gor retni
rt o
Ġse cart
or ie
Ġsci hparg
du n
Ġ1 0
ror reT
ya rtrop
o cnarF
Ġelliv hsaN
Ġsevita ler
ro oM
Ġo luaP
ytila nosrep
Ġo ir
Ġai va
Ġdeda vni
Ġeta mmaet
Ġrosse cederp
ila T
Ġksa T
Ġeka c
kci s
Ġlepso G
ah si
euga rP
Ġward htiw
Ġeni lucsam
ev irD
us er
Ġsei mra
Ġh ga
ru htrA
elo hw
Ġeti us
Ġhcne rf
Ġepo ls
Ġevita vonni
Ġ Ø
Ġgni veihca
Ġecaf retni
ĠP TA
Ġne viG
ta F
dec reM
Ġ Å«
Ġff idraC
noit netta
Ġegnahc retni
Ġlau sac
u nitnoC
raeh er
Ġy fi
et elhta
sre papswen
snoita ni
Ġla hsraM
Ġo oT
ytila er
yllau tnevE
se hC
Ġllaf niar
ngi erof
Ġx ednI
Ġhc taM
ccff cc
ku D
sm ublA
Ġreg nuh
Ġnaitsab eS
Ġdet po
Ġk ceb
hta m
Ġa jaR
gu ms
swo dniw
Ġgnide cerp
ne vo
lu pmoc
seiro getac
z s
dra nreB
Ġetis beW
tnanetue iL
u lb
ĠIII V
ala reK
re la
Ġo ne
Ġsreht O
et ni
Ġsgni rts
do d
sre kroW
zi roH
II V
Ġly niv
Ġsir hc
slia ted
lar tneC
Ġedno lb
Ġna tS
Ġeka lb
Ġel lehciM
Ġsro sse
Ġsuoi cipsus
serut ciP
i nevnoc
ĠP A
Ġnoit ibih
Ġ itna
Ġredro B
ll ihc
ruo m
Ġgnidi ced
grus ni
Ġht reP
l uoS
Ġthgir ypoc
Ġci na
Ġta C
W S
Ñ Į
tno f
Ġdemus noc
zi sehtnys
t cejbus
su rpyC
Ġdeti us
se sa
u ha
Ġdethgil hgih
Ġyrot ciV
Ġtcnu fed
Ġnoita gergnoc
Ġra muK
Ġs daoR
Ġtse uG
Ġecna tpecca
ma reC
d erut
Ã© r
gi P
tta P
ni ks
ngie revos
Ġsuo lu
s dnarb
seit isrev
ecitsu j
Ġsne vetS
ani vogezreH
Ġsk oorB
hsa rc
Ġnoit oM
Ġsk ees
Ġsesu fer
k ceb
Ġtna tlusnoc
Ġt riks
yti naitsirhC
no dnaba
noita gitsevni
j D
mah gnittoN
ni dnacS
yre grus
Ġnoi gileR
Ġskna B
lle taS
Ġsma erts
Ġnoit i
va K
Ġ3 881
u raleB
tne r
Ġnnam reH
Ġre ru
b ru
Ġselc itrap
elliv hsaN
Ġba jnuP
Ġeni pla
Ġha j
Ġthgil nus
Ġre cnaC
se mulov
Ġ YN
droffa tS
Ġmah ruD
Ġla minim
Ġo deprot
k loK
kna ht
Ġt lob
it ta
ihse hC
Ġecne ulf
Ġylba redisnoc
Ġnretsew htroN
Ġllabyel loV
Ġtse uqnoc
Ġyltne tsisnoc
Ġde moclew
ama rd
Ġ4 0
uo rc
Ġma rga
ĠD H
ĊĊ ĠĊĊ
Ġtne cse
stne vE
Ġo loS
Ġla nreta
Ġti mmoc
ia na
li D
di ve
Ġsgni ward
Ġeuq it
Ġair yS
Ġlen nosreP
Ġsuo egrog
g ub
Ġdeli evnu
m ublA
yltneuqes buS
tso H
sts oc
ĠAB IF
se caf
Ġsre tsam
lp leh
sinne t
aci amaJ
na cilbupeR
y nA
Ġte noraB
Ġeso ra
Ġelo ts
u hC
gna K
de wollof
ngi apmaC
Ġtes remoS
z er
Ġna es
Ġeuqo raB
Ġda mmahoM
Ġnaiv ureP
Ġsnoita utis
Ġesa el
Ġa vi
stneme vom
seitisrev inu
Ġst cilfnoc
L N
Ġlia s
Ġelba rapmoc
Ġeg raL
reht orB
Ġdenia lpmoc
no paew
se ssenisub
seu lav
elÃ¡ znoG
l roW
Ġt rufknarF
Ġhteba zile
lo hciN
ĠOT AN
Ġlacihpargo eg
hta po
iv it
o a
Ġti artroP
pa H
Ġemit gnol
Ġssen red
ht rof
na wehctaksaS
mo ttob
re feR
E CB
Ġa eniuG
Ġy sia
esne fed
Ġre tsulc
ssa er
Ġgnika M
eta lP
y sa
Ġlanoita r
ter C
Ġla wardhtiw
pi H
er ihsretse
Ġno tserP
Ġgnire ets
Ġy ruf
Ġron noc
a tte
ba J
wa d
51 81
Ġgnorts mrA
nnu R
Ġgnikci k
ht ne
7 01
Ġnwo lb
s M
Ġreht orB
Ġmu it
R U
Ġytini civ
puc cO
da lG
Ġytla yol
Ġsret teL
Ġsuo laej
Ġi gi
reb naC
Ġswo b
Ġl luB
Ġelbme sne
Ġdia m
hp mu
Ġeni nimef
Ġsni ev
- )
ecni s
ger g
Ġlea faR
Ġdeta covda
Ġ0 681
Ġre etnuloV
v retni
Ġthgin k
oo L
Ġnoitani mile
nwo ts
Ġema lf
Ġesu fer
Ġaci no
ia S
n si
kci K
yh pa
sre H
te noraB
Ġnoita cinummoC
Ġhc et
Ġsuo lucidir
ecna illA
Ġdetse vni
ep Ã³L
de gnahc
ret nuH
Ġsnoita icossa
Ġro net
y cer
Ġstsi f
Ġgnicna lg
Ġ1 681
Ġser temolik
kci R
Ġro s
le wej
mer B
Ġdemialc ca
kna rf
Ġesi urc
Ġnoisu f
Ġsm lap
Ġnoita rolpxe
xa m
Ġdno maid
Ġ6 781
ĠI CU
Ġh ka
ela m
Ġsei vaD
E H
Ġdesolc ne
Ï ĥ
Ġevis seccus
Ġev resed
Ġylde soppus
wo dniw
Ġdeta rgime
ya k
o nai
Ġgniwo lg
Ġtnem gduj
Ġde srodne
Ġy dna
Ġeru tnevdA
Ġrota nes
Ġgnik oms
Ġdetsu jda
Ġno dnaba
kci hC
Ġkcir tap
e iL
Ġa raS
ye noh
Ġecna rusnI
Ġdno B
Ġrel tiH
nois serpxe
ira lc
Ġsre tsiS
Ġse snes
Ġail uj
Ġsedo c
Ġey E
Ġama naP
vele t
Ġsrot ceriD
Ġetaci led
Ġ8 781
sm ilsuM
Ġgniniat bo
Ġgo la
Ġlle woP
tra D
rah D
eh ca
ai nemrA
ĠP D
Ġra guS
Ġnoitani ssassa
ja B
Ġea vral
Ġno n
gel loC
Ġ Ä±
ra tiuG
Ġnee tneves
# (
si cerp
Ġdaol nwod
sci moc
Ġo tse
de vi
Ġsti rips
ĠÐ ¹
ĠA S
Ġelit soh
li saB
Ġrehpo solihp
basi lE
nab ru
V A
dne geL
Ġo dnalrO
Ġa buC
ĠC U
txe tnoc
nam riahC
Ġeni plA
h u
ti urf
p is
eno d
Ġseka tS
l luB
e saeleR
su neg
Ġsrae f
kca H
Ġhtim s
Ġi ki
itua c
Ġdnal dnuofweN
Ġci naclov
da em
yra ssecen
m lohkcotS
Ġra il
Ġkna rf
Ġe yo
Ġai ka
en hcS
to lip
po hsiB
Ġsnoita vresbo
ler rab
b m
ĠAG P
Ġsle nap
Ġdema lb
Ġdeta voner
Ġsm rif
rap erP
y bab
Ġgnide elb
Ġih cu
Ġded worc
h suR
Ġlanoit idarT
mi M
ru ps
uq itna
Ġf rod
mi k
Ġnai reglA
Ġthgir pu
Ġre daer
Ġeta cinummoc
Ġaes lehC
Ġx ileF
Ġnam taB
in raC
Ġed irb
Ġeta nimile
ra zi
Ġ ~
stnemu cod
Ġdetrop mi
Ġyhc uD
Ġti usrup
tta m
Ġedu tita
Ġsesi morp
Ġre poleved
tan gis
Ġyl tcirts
Ġaz zi
Ġnosir rag
ba M
Ġei koo
Ġecna tsbus
Ġya lC
Ġe wo
Ġy riaf
6 01
Ġstsila nruoj
o lo
Ġnoita redisnoc
Ġxe S
Ġes it
no rI
Ġdegnahc xe
Ġffi rehs
la dauG
me g
ga p
Ġrev il
orts A
stne di
ci los
tnorf noc
Ġarh dnA
u rg
Ġsu ri
ci barA
Ġsna ci
Ġmi j
nosir raH
Âł Âł
Ġesuo m
Ġydo B
st nia
ro hS
Ġ. .
ref i
cu T
cud ba
noitazi nagrO
Ġytiro irp
wo F
Ġeca rbme
tsi seR
nab rU
mary p
da cA
Ġese nawiaT
Ġred ir
ew t
Ġesi cerp
âĢ ¦
Ġa tu
mi R
Ġsehsi rap
Ġdet rahc
Ġdet utitsnoc
Ġgnik nil
Ġ rus
Ġci viC
ĠI X
Ġtsila noitan
nua L
Ġsre ka
Ġtsi levon
ov reseR
ca lg
Ġdeif irret
el G
nuo cer
arb I
so L
Ġlaci hposolihp
Ġk loF
rewt nA
Ġgni zinagro
nim reT
Ġeppe suiG
Ġsnoita nimon
re nna
ĠS P
Ġdeg guh
Ġylla noitan
ĠD I
3 381
Ġhc raeS
Ġa ca
Ġelli ve
Ġralu gnatcer
Ġdecrof nier
sret tel
Ġne ek
Ġllab dnah
Ġtfa rD
Ġa ppa
Ġa itilim
Ġre iv
Ġyle ni
legna ve
Ġgnirut cafunaM
stne itap
Ġdehsi nav
p ir
s not
Ġec itne
Ġnoitav reserp
noita tropsnarT
rua tseR
ci rt
Ġev loser
Ġci droN
ni uq
rb ed
eno hpoxas
deru jni
dro W
Ġnekat rednu
Ġni le
se si
pma K
Ġy la
Ġylla tnem
mo rC
Ġseir tne
Ġa rah
gni kam
ja T
Ġg iz
po tsirhC
irb e
T P
el bme
ylra limiS
Ġo gnoC
se tel
Ġlanoisser gnoC
Ġffi rehS
Ġsti m
Ġron noC
sre dnA
Ġs od
Ã¼ L
Ġnoitcurtsnoc er
mret fA
Ġse li
hca oC
sar hp
de zila
Ġse eknaY
elb miW
Ġk rof
Ġpo c
go lana
ubir T
Ġna fetS
Ġsriats nwod
Ñĥ Ð
la R
em irP
Ġdeppa t
ci C
mo N
sa lc
Ġspa l
st cejbus
Ġaza lP
V C
Ġde rep
g em
Ġemu tsoc
Ġolba P
e tne
Ġstnem ges
Ġsrota repo
Ġseru decorp
g its
ggi H
Ġdet cejorp
Ġgnikco lb
ka K
y rotcaf
ro lpxE
hci n
uce srep
Ġediw noitan
Ġyca virp
eci neV
hgua L
ya rg
pe eD
cits ihpos
Ġ) '
Ġp orc
eu rt
gne rts
Ġydda d
Ġstsir uot
Ġtce laid
se mrof
Ġdere uqnoc
no rab
ed u
tel luB
no nac
ev reser
Ġgnilb mert
Ġeni tselaP
Ġno j
ren ruT
p I
golo B
Ġde eh
s ngised
ne tsil
Ġeid de
Ġtse gnorts
pi R
Ġdelba sid
Ġelb isivni
Ġsecne uqes
Ġgnikni s
dulc nI
Ġlanret nI
Ġe enimon
Ġa ralC
ugni L
ita pmi
Ġsk wah
Ġy rucreM
se V
pyla co
rots id
Ġsna el
Ġdop ortsag
Ġsla niF
1 381
Ġei kcaJ
Ġle wot
bbff bb
ne ma
kciw raW
Ġnos biG
Ġstces nI
se sne
se ssecorp
Ġetu c
v S
Ġtuo cS
Ġme h
Ġsnoitca er
seicne ga
Ġnoi L
Å ļ
v rI
Ġgni weiv
Ġmu dnerefer
s dnuor
Ġtset noC
sa lguoD
i pmylO
Ġdet tab
Ġde doolf
Ġsalo ciN
Ġde ssarrabme
Ġsro lias
Ġte naJ
cu E
Ġruo ivaheb
ela p
yl rae
Ġserut cel
se citcarp
muen p
Ġlare nim
g rA
rec org
Ġgnis run
Ġani r
Ġdeta rtsurf
Ġtse llat
Ġeca j
Ġgni sop
v las
e nu
Ġsne euQ
ret taP
Ġyra glaC
Ġ1 781
Ġeraf raw
sre moS
Ġgniso ohc
Ġsu neG
Ġtre la
uq nI
du T
Ã§ a
Ġlairo tirreT
elli ve
Ġylba muserp
AB M
Ġretsi S
Ġs dooW
ema N
u na
o tS
Ġye liaB
ta tibah
Ġreg reb
ĠX I
y hc
Ġtca rtsba
lac se
darg ed
te elf
Ġtnuoc siV
ah ca
u cav
z iw
tni uQ
yna c
Ġsret nuh
cs A
ff arT
Ġylsuo unitnoc
Ġmu elor
Ġla su
idua lC
Ġsevles ruo
yad irF
Ġgnitti f
Ġt poda
Ġsnoit cudorP
Ġyr lavir
tse vil
Ġstnemu nom
x ineohP
Ġresa rF
B H
Ġre sal
Ġpe ehs
sso L
cit si
Ġpihsre daeL
hpa rG
lah K
Ġyle erf
Ġeze erb
Ġdna loR
Ġ9 781
lanoita N
r itS
Ġyaw nur
sle nnahc
ye vruS
ai viloB
e in
tsyso ce
tso R
redna mmoC
sse nk
Ġsre ciffO
ci B
Ġala ka
Ġyen diS
Ġeria lC
Ġen ga
Ġese ehc
Ġeni uneg
selb uod
Ġt ua
Ġno dnarB
Ġreno os
yti ci
sei vom
Ġre paP
yo D
Ġgnikco nk
sa eM
Ġhc taW
da n
t tel
Ġedu ti
dna V
Ġnai nevolS
Ġo ki
na tluS
Ġesne ffo
Ġtnema tseT
Ġeg ufer
ssa hc
Ġygolo ib
ilf teN
Ġla ita
Ġsev low
t cepser
Ġo llopA
sevit omocol
Ġno streboR
sei rujni
Ġy dnaS
Ġgnihsi w
Ġde tsetorp
Ġtna tsetnoc
us sI
Ġs U
Ġla eh
lp S
ingo ceR
Ġsruo loc
ri lf
Ġot naS
edi S
D O
Ġrepeek laog
roda vlaS
Ġke erc
Ġst celfer
Ġserut luc
ga r
Ġnoita reneG
elb orP
Ġflo dA
ed ih
Ġnai iawaH
Ġyllai ceps
Ġtne gilletni
Ġre enignE
st niaS
.) (
Ġretti wT
Ġyreva ls
Ġno thgirB
Ġeg doL
draw er
Ġs werdnA
Ġsgni hT
Ġtca er
me K
e ig
Ġsd nim
irp yC
no rtcelE
Ġnoita tor
Ġk nom
Ġnoit seggus
Ġd lim
Ġxi mer
Ġderegna dne
Ġeg eiS
ter P
ytila u
ci ffart
ia bmuM
Ġsgni n
sit rA
Ġda eL
Ġstna irav
Ġre tsu
Ġtrap A
Ġ2 681
tnec ca
Ġno nemonehp
nos noc
Ġpihs wolleF
lots irB
Ġdaets nI
ĠS A
dael p
Ġh soj
or teP
Ġesirp retnE
F S
Ġnoissim da
mu rc
T L
Ġetamit ni
nif er
Ġdes ruc
Ġ5 681
Ġyti varg
lor tap
ipi cer
Ġse idnI
Ġsesser tcA
va j
oo w
ĠE WW
o ediV
ese ht
Ġsta eb
noita lu
en ne
Ġsre htaf
Ġgnit tim
srot caf
Ġeni tsirhC
Ġgnimrof reP
greb ne
Ġrot pecer
tsi levon
Ġkoo h
Ġnos pmiS
Ġnoita rtsnomed
Ġdewo b
Ġstnemu gra
E W
00 01
ya we
Ġytiliba ts
Ġeda M
Ġema hs
erawa leD
ret teb
Ġeni P
Ġesa hP
Ġsruo noH
s gurd
Ġerut cafunam
Ġ2 781
Ġrot plucs
a vaJ
} }
le ets
Ġ.) .
Ġsnois sucsid
Ġstca tnoc
Ġylla citilop
vo hs
kci V
Ġylimaf bus
Ġla vo
Ġsre tsa
n reH
Ġpa rw
Ġna tebiT
Ġflo duR
Ġeid ni
Ġacceb eR
at laM
tf iws
a nai
ma erd
Ġba c
Ġhtuom ylP
Ġyllaci golo
si nim
Ġyl worran
Ġpa M
Ġyllufsseccus nu
Ġdede cerp
dlo b
Ġkram dnal
Ġ à
Ġg id
Ġniar ret
Î »
Ġu z
ma lA
me ts
Ġde rus
Ġsne draG
notgni l
Ġne miceps
Ġi ba
hcti K
Ġpihs galf
Ã¼ S
mo z
Ġyti vita
Ġtnedi ve
tta M
Ġssa P
Ġnot ruB
Ġyrub retnaC
Ġ4 681
srev ir
Ġdne rt
nu n
Ġgnigg id
de il
Ġrenni W
Ġsuoicsnoc nu
Ġstf ig
ĠA CR
Ġena k
Ġd il
Ġhgi ht
Ġseta mitse
flo g
bma L
Ġna la
Ġdep pop
Ġla trop
Ġm irg
Ġsno S
Ġxes suS
Ġi dra
Ġsre enigne
noita coL
11 1
Ġnoita ralced
rev inU
Ġst nioP
se C
hca S
Ã© hT
Ġsla noisseforp
s dlo
pp O
rebme M
Ġht iaF
Ġi y
Ġderedro b
Ġsre kroW
id erc
Ġgnisu fer
Ġelba tpecca
Ġdere ntrap
Ġtsaeht roN
Ġsfe ihC
o lli
Ġemit iram
Ġnots gniK
Ġana hG
Ġl loR
tuo ba
Ġygolo hcysp
eL cM
tna hP
Ġseite icos
H O
Ġstneme veihca
noita r
cer rocni
hci L
Ġi ne
Ġnot nomdE
vo ne
Ġua et
red yH
tu K
Ġretso f
sm itciv
u hcS
gni dne
ro ngi
Ġnoita geled
e ve
sk nab
sro tide
Ġsmra f
retfa ereht
Ġdenethg irf
sretirw gnos
nnu C
Ġgnisser d
dnal kcuA
Ġgnim lehwrevo
Ġti eb
se ida
Ġedis tuO
reta eht
ai nablA
irt rac
Ġsre f
Å ¼
ï ¼
Ġtse nif
ny C
Ġrehc raeser
à¤ ¾
Ġar ta
ga rD
Ġssa lG
sdraw dE
sa jaR
Ġtnes noc
ĠÑ ı
Ġyl lis
Ġ] ...[
ä º
Ġe gi
Ġ5 21
eni tselaP
s lessurB
85 71
Ġto idi
rep yH
Ġtuo yal
Ġde snes
Ġht xiS
de ton
Ġste kcop
Ġanna h
kna hS
ru l
Ġsa ni
Ġsnoita cinummocele
Ġdedi a
Ġyov noc
noit pircsed
Ġna illi
Ã ħ
82 81
Ġgnita gitsevni
ore z
d riB
Ġn wal
Ġena sni
Ġdev los
ht riB
Ġnoita snepmoc
52 81
ses ruoc
Ġot recnoC
rat ceh
Â «
Ġnosre dneH
Ġgnit celfer
Ġecna ts
Ġmu ta
se gA
ru enerpertne
ly baB
Ġena rbmem
Ġyad yreve
Ġygolo htna
Ġmht irogla
sma eT
Ġci mo
de ts
Ġs motsuc
hta eH
Ġdehsu rc
Ġsla soporp
Ã³ G
stse retni
Ġecne llecxE
s niart
reb I
Ġnoita roproc
Ġwo llip
Ġssa rb
Ġci vic
Ġesi R
y rot
k cen
s pma
t orP
so n
ly htem
Ġaire tirc
ly hp
soi ruc
É Ļ
Ġnoit inumma
k raD
na elE
sre kam
o ira
x oC
ro mo
ra uG
zi N
du r
not yaD
ro Z
Ġdegg ut
uo hz
nuo l
hp loD
yltne rruC
Ġs su
er itne
Ġecne uqesnoc
Ġno nabeL
irep xE
Ġei koor
lle M
Ġnoisi V
d elp
Ġer ihsacnaL
ka n
kci rb
orb mA
e eS
Ġlacsi f
Ġnoga w
ai reglA
Ġste kcit
Ġali naM
net tirw
Ġp mad
Ġycarco med
e miger
Ġe elf
re wol
Ġevitce teD
( )
Ã¡ M
x uA
de deen
Ġseta tse
ra co
Ġsti soped
Ġc ra
rag luB
pa n
Ġyeli r
Ġtsu aco
sega ts
Ġre ffid
Ġ3 681
cnere fer
Î ²
Ġecnassian nocer
ne gahnepoC
Ġtto illE
dnal F
xi mer
dno l
Ġ0 81
Ġih se
Ġsti artrop
Ġec nuo
S BC
Ġsde ecorp
ru tas
Ġylla citirc
tsa erb
reg ga
er ces
eru taef
Ġyrets yM
Ġa ih
sre wolf
enil nO
o tne
se necs
Ġi g
Ġdetce ted
Ġni bor
Ġemo d
Ġsffo yalp
smrof talp
irep us
ivah eB
it e
Ġh pargo
yl tna
gna W
Ġer ihsretse
cov dA
do lem
go ls
se T
ubirt noC
Ġret rahC
Ġde riahc
trop mI
g dirB
Ġela V
Ġdnal hgiH
Ġa mma
Ġse pols
Ġila gneB
Ġtsi nogatorp
ni ht
Ġsrev res
Ġsfe ileb
ets urT
Ġdetib ihorp
Ġeni r
ecne rwaL
00 7
Ġyli daets
pa dA
sna lp
niats uS
Ġy se
Ġgni nevE
yra terces
ĠâĢ ¦
Ġna mu
Ġdla reH
Ġste kciw
Ġse lat
lo med
me n
ug A
41 81
/ <
Ġse srev
yltne cer
Ġmrof snart
Ġderi ah
T BGL
ili muh
lia m
b f
tta r
Ġstna nmer
Ê ¼
Ġot ano
Ġsnoitca retni
Ġay neK
cni s
Ġlacigolo ehT
sam tsirhC
Ġeu giL
Ġsnoi siv
no otrac
se sroh
hp irep
Ġsre mrofrep
Ġse soM
Ġsrota neS
Ġeu lc
sme op
rahc uB
na z
Ġci mht
Ġci dnalecI
Ġdetiderc ca
Ġgnila ets
rae L
Ġlu ah
Ġev ihcrA
Ġelb idercni
lo hc
Ġno ynaC
ci le
Ġkna rd
t la
ht im
Ġna wehctaksaS
ulo ser
Ġydo tsuc
ĠĠĠĠĠĠĠĠ ĠĠĠĠ
Ġega mI
Ġte id
noi Z
m sit
Ġpa ns
Ġ. ]
Ġyssa bme
Ġnai barA
ÃŃr doR
yaw liar
Ġgnihc terts
node laC
re wo
bma G
Ġgo lb
Ġs llor
tf il
de i
Ġylf rettub
Ġ4 781
ce v
ca rbme
Ġ Ù
Ġretfa ereht
Ġgnire wsna
rep er
Ġnotgni r
f rod
suo ra
Ġmo ob
Ġderedner rus
ner I
Ġ7 781
in redom
Ġnwot nwoD
Ġse te
ĠO CS
Ġs ronrevoG
ger ges
Ġte loiv
Ġgrub maH
Ġara s
hpe ts
Ġeda rap
Ġecna llievrus
te j
ĠB G
redne g
Ġtne cca
emo rdnys
Ġo cco
noit celes
Ġhsu rc
Ġseitu peD
sma R
dum reB
Ġyti colev
Ġa nA
o ve
Ġdra veluoB
n Äģ
Ġev E
Ä Ĺ
vorp mI
Ġg of
Ġsa erdnA
Ġagil sednuB
re hsilbup
k ka
Ġdenepo er
Ġsre lle
m lac
Ġk laW
Ġen no
ĠL M
Ġnoita tnalp
Ġnos ni
Ġdelp uoc
ecna tsid
Ġn Ã©
Ġci mota
tob loP
Ġnoisiv repus
lcni S
Ġnoitpe ceR
sna idnI
tto C
Ġeru talsigeL
sega mi
ye C
Ġkni L
Ġgnini hs
Ġs dnuober
ne daB
Ġedu lc
Ġlarutan repus
Ġdere ep
cude s
Ġoto hP
'' '
Ġ0 63
orht nA
t nua
k ea
lli cnuoC
Ġci pe
Ġ5 781
gni L
Ġgnirut pac
rts bus
ce N
Ġhgi el
T H
Ġnoita geler
Ġo va
erehw esle
Ġren nI
Ġyrasrev innA
Ġgniga ruocne
Ġeni lpicsid
Ġret roP
no eg
Ġeca pso
Ġyra las
Ġ3 781
e pacse
uda N
Ġ05 3
Ġralu ces
Ġtce ted
Ġse ssentiw
Ġo hadI
ai namsaT
Ġyrota dnam
$ (
ni A
Ġffe j
Ġo rob
Ġgni rebmemer
re su
muida ts
Ġs pac
Ġ7 681
ah Z
Ġydo lem
Ġ00 51
Ġli ceC
Ġzed nÃ¡
or ta
suea nniL
eni w
ep iaT
Ġla id
Ġra za
na ya
Ġkni P
Ġredro sid
Ġno z
Ġs htap
ht reP
Ġtsila nif
Ġllor raC
Ġy ot
hp sime
re hsif
Ġadnu geS
lad gaM
Ġp sarg
eni siuc
Ġev isi
Ġnam reH
Ġrednu hT
dnu M
a ts
gni xim
Ġega b
ya rP
Ġalaka elaH
Ġk laT
T F
Ġsedu tit
i rev
norhc nys
Ġ8 681
not weN
ita nnicniC
Ġnoita m
p it
Ġp ihc
09 71
Ġrov erT
pa eW
yno xaS
Ġsde b
Ġslli m
o cs
el ytse
Ġtsir hc
e nac
Ġrem raf
Ġa lla
Ġ2 0
Ġgniylp pa
ta menic
gni mmiws
pma V
ar ta
e za
rob hgieN
gnil tserW
Ġseci ohc
loba tem
Ġre imerp
noit omorp
Ġdnuo p
Ġnois serp
re hgih
m ruB
Ġci golo
hc oC
noga rD
re cne
92 81
l raK
Ġdenia ger
Ġde diser
Ġde ecorp
V S
Ġdetca tnoc
gir ri
thgin K
ru Z
Ġseo reh
Ġsdro L
ll yhP
Ġfe irg
Ġetu ca
ri s
te K
sel yts
trop ria
Ġtib ah
Ġde tekram
Ġu ra
Ġno elopaN
ma rD
Ġff O
Ġnai nodecaM
Ñ ĩ
le ye
ita M
Ġdesa el
Ġdekram er
nos taW
ne Z
rorep mE
a repO
Ġn bI
sya s
Ġyti rbelec
Ġmah net
awa ttO
Ġel zz
ecne rolF
Ġdete erg
Ġotano epmaC
Ġk rab
Ġsrae w
ylla itinI
ffu hs
Ġssa B
Ġni d
ci ht
cu D
Ġdnim er
lles suR
Ġrot curtsni
Ġsdlo nyeR
Ġna hoJ
ai poihtE
Ġefil dliw
seb irt
Ġsuoi ruf
re kraP
Ġnos drahciR
or i
Ġsa ltA
Ġna p
Ġdraob yek
msi cit
se tuor
Ġsgni lbis
Ġdi K
Ġla citamehtaM
Ġnoita voner
Ġdecna d
Ġnwa D
{ {
Ġde ssih
Ġla rts
Ġevit ingoc
sme ti
lli P
Ġe ornoM
pe ets
Ġse tna
Ġse nifed
Ġgniro lpxe
roe tem
Ġri m
Ġyratnu lov
Ġsm ht
Ġsre gne
mu m
sei cilop
ru pa
si ra
yo H
ek orts
Ġyllaci sab
Ġw ercs
dra woH
eu P
Ġke red
ti forp
Ġena hS
sci monocE
rop sa
re maC
Ġeni maxe
la nigiro
tnem dnemA
Ġs poc
noita lsigel
sci monoce
Ġdecna lab
sa eS
Ġ ×
Ġel citrap
Ġeti narg
doo F
sre xob
Ġdesae ced
ko S
nam reP
kni L
Ġa zne
Ġseiti ru
es or
nut roF
iana hG
lima T
noita lsnart
Ġdeda usrep
Ġsd do
Ġi D
Ġsih pmeM
r W
o hS
Ġz en
rae hte
Ġkna T
de liaf
le G
Ġskcu rt
setel hta
Ġlaci nilC
roba lloC
ya sse
Ġevita roced
Ġso ahc
Ġdetne lat
Ġsa G
Ġdemma hoM
w erb
gnimo yW
Ġret rats
Ġle irbag
Ġdev resed
ni B
uo G
Ġsehc tac
Ġnaiv taL
Ġa legnA
ĠA R
Ġen Ã¨
Ġseite irav
Ġe raepsekahS
l raM
re woT
Ġla nesrA
Ġseitilib isnopser
sre gnaR
sdraw no
de F
ys sA
Ġgnita eh
Ġno rtcele
dnuo ra
Ġnwo g
Ġso i
Ġtna egres
edi cius
ry P
Ġsi sylanA
Ġda M
Ġsek ahs
Ġny w
Ġdeta iverbba
ro ireted
tek cor
Ġp ihS
M P
hci hc
a sa
t niaP
y daL
Ġtse dom
dni heb
Ġerawa nu
pa b
revo C
Ġluf ituaeB
Ġyti namuh
Ġt loc
Ġpu enil
Ġliah kiM
Ġelibo motua
rf er
bo K
tuc laC
Ġs dooh
Ġnoitila oC
Ġel tiT
tsac daorB
n traP
Ġsev iw
de cudortni
Ġt tub
Ġgnit ceffa
Ġsev ruc
Ġes ruoC
Ġsa d
62 81
Ġkci d
Ġug uleT
9 01
lu D
ndluo c
yad htrib
Ġdle iy
42 81
xa f
Ġdenia rd
Ġyti sra
sgni w
ĠW SN
Ġocca bot
C G
Ġev ihcra
ni T
epo L
y mene
arb egla
Ġsgni W
Ġecna hne
h eL
Ġgniru ces
cna D
rd yH
uo F
Ġel kcat
de raeppa
so morhc
Ġred ruM
Ġ3 0
Ġsre poleved
Ġdelia rt
Ġnoita ulave
Ġac ric
da hC
Ġdepp it
Ġn yle
Ġmu ro
i cepS
Ġrep raH
Ġx elpmoC
er E
Ġde erf
Ġh pm
dna skelA
Ġi kS
Ġpa ehc
del le
Ġdel kni
e vael
1 081
e erhT
Ġne llo
Ġdnal ni
Ġnoita loiv
u ge
ti N
Ġsen raB
Ġh pmu
rag us
a botinaM
Ġnos nik
noissim moced
Ġdne reveR
Ġdraw er
reh ps
Ġthgir la
tsi P
sac ras
rac sagadaM
Ġsserp mE
Ġnais uraleB
F D
d erF
Ġeda caf
Ġllu d
Ġs poleved
ro sseccus
ĠÃ ½
nam riahc
Ġyl lib
tna tsissa
Ġeuga rP
Ġciteht a
hc nual
Ġeuq ir
Ġsre ywal
Ġdek nay
sser ts
Ġci reneg
e roc
Ġwollo h
rec cos
Ġnoita picitna
eno rht
cifin gam
e zi
e raepsekahS
Ġsot naS
Ġla e
Ġsuomono tuA
Ġega tlov
Ġsseleht reven
Ê »
dab raB
hc raes
la oc
bu B
Ġsdne t
Ġdeppa ndik
iw a
nif ni
lla mS
re r
Ġre ep
li g
Ġeol hc
rot cudnoc
Ġyrota luger
mu ls
ah K
rel tuB
Ġderuo loc
sy d
Ġre wen
edi uG
Ġe ihpoS
Ġgnini bmoc
Ġret timsnart
ĠS DIA
Ġdene ercs
Ġgnig rahc
dnam roN
o tohp
Ġa dno
ha m
Ġgnita es
Ġdenethg iarts
thg ua
Ġxa T
Ġetats E
Ġetaig elloC
01 81
Ä ĳ
Ġgnita reneg
neme Y
Ġyltna tculer
F AR
edia ledA
ĠÃ© neR
pma S
Ġf laH
Ġdra ytruoc
seg rahc
ta rtS
Ġa itaorC
Ġgni usrup
Ġgnit f
wa P
Ġeve els
ot raC
Ġyc reP
Ġgnita ni
Ġsevi red
rg na
sht imS
Ã¼ D
M D
Ġeus sI
Ġyli ppah
t le
Ġma lS
mma H
tib ro
Ġdetinu er
o luaP
sni g
Ġeer ced
Ġtnes ba
Ġsehsi lbup
Ġeruta eF
n gid
Ġsdi K
Ġsgni eb
selb uoD
cilf ni
Ġgni dlof
yre llag
N O
Ġsn ruB
Ġded debme
mi N
de tsil
sem irc
Ġyle sicerp
Ġte prac
Ġsm rA
Ġde daelp
ge leD
gni car
stne manruot
ha K
si spo
Ġdraw pu
Ġato yoT
Ġstna tsetnoc
ihcra na
Ġw erD
Ġk sid
e nabsirB
Ġai c
Ġgniti de
Ġgniga gne
stne ga
Ġtsuaco loH
Ġdi eR
Ġstnem garf
la naC
we ts
Ġydob yna
ti ucric
t rofmoc
Ġse lggurts
ka r
lp er
t reH
deti mil
Ġtnemtnioppa sid
Ġn uG
Ġer iter
ema rf
Ä ĵ
Ġla oC
Ġyca m
Ġgni Q
hc um
hs loB
Ġan hsirK
se coid
elb iB
ed ua
sle ssev
Ġna goL
Ġdeksa t
Ġredne ls
e cived
Ġ' .
llÃ¼ M
hguo c
Ġt rep
reb mahc
Ġbu h
Ġai lo
Ġsni wt
Ġy hs
Ġtieb la
-- --
I P
12 81
Ġsreg doD
k sir
Ġdeta luger
Ġs werc
Ġdeta picitna
no rts
Ġai ht
Ġyel la
Ġx oC
oo g
zza J
Ġlaitne di
Ġa reneg
Ġslia rt
Ġm rifnoc
Ġcilo tsopA
Ġina j
Ġa ea
e vom
ci ssalC
Ġo ko
Ġna idemoc
lle hctiM
Ġok ne
Ġera lg
rra N
Ġa poruE
Ġyllai cremmoc
nÃ¡ S
Ġni ur
Ġs buC
Ġde rob
Ġâ ĪĴ
de mo
cit naltA
Ġst oohs
si laS
Ġsev ren
Ġsdra ger
yeb bA
Ġseo reH
Ġenotse mil
te sremoS
Ġci ssa
mag lama
Ġsre lur
Ġretsa E
su L
Ġytila trom
re nniW
re dnoW
Ġri ovreser
Ġno dnol
rev neD
l yts
no W
Ġai li
ru gifnoc
ore hC
Ġna di
cna p
Ġ6 681
Ġlacit cat
sre su
oo W
Ġre yortsed
Ġylla S
dev lovni
rehta g
Ġdetar cesnoc
ircs bus
b rutsid
Ġeg dE
Ġnoit cudortnI
aira vaB
Ġtnem tsevnI
Ġe iv
Ġsnoita gitsevni
Ġde wa
art hsarahaM
31 81
Ġdene trohs
Ġes sor
Ġu y
Ġreht uL
ygolo ib
sk loV
su F
stne meriuqer
x ordyh
Ġevitca retni
no tnaC
Ġgniwo lb
secna tsmucric
Ġe ot
Ġyel hsA
Ġdesi laer
Ġsre da
Ġsb ir
Ġreg rub
Ġslia n
Ġstnedi cca
si P
tnem hsi
Ġs bmob
sir hC
Ġa fos
z C
e ef
Ġsruo noh
T E
Ġsmsi nahcem
noita sinagro
pu J
na mor
Ġy dnas
Ġro tsap
el ppA
hg im
de pp
dis revinU
Ġdeg ral
o te
Ġtne rt
Ġnai poihtE
Ġeso d
ug irt
citne rppa
na duS
Ġscit sa
Ġava J
Ġpma l
kcab enil
uga J
Ġtnebmu cnI
seit ud
Ġmu rtceps
lla hsraM
sret rauq
nnu G
Ġswor ht
Ġde du
J N
iks wo
Ġstnia lpmoc
Ġdena ol
s daeh
nime F
mo dnar
Ġnac coroM
Ġadna mA
Ġnoi cipsus
Ġai bmoloC
Ġgni mmiwS
keb zU
Ġstib ihxe
Ġs citamehtaM
Ġli ved
Ġre tneserp
Ġde zag
wor G
Ġseva rB
Ġhci ve
Ġdeff uts
ca n
le wT
Ġ9 681
Ġel kna
Ġdeppa ls
y rb
Ġa ba
tsug sid
cir yl
Ġredi ps
o ce
Ġdelb uod
x ip
Ġm id
Ġyte ixna
Ġyllaci nhcet
Ġre weiver
Ġno sk
gni tnoc
M G
s niatnuom
Ã© uQ
Ġdenni p
Ġnwor f
Ġraeppa sid
Ġgnik cal
dni b
t cejbo
Ġeru c
Ġkca ts
s daer
Ġm iws
Ġeta D
Ġeuq se
Ġs og
Ġkoot rednu
ĠaÃŃ craG
y srevortnoc
Ġde gni
Ġdetca rtsid
si S
Ġtni ts
ĠVT I
ro j
xes suS
Ġelbati rahc
Ġda p
Ġm lohkcotS
Ġgni noitseuq
Ġcir tem
irbe lec
Ġhc nar
lle h
po K
Ġtsi om
Ġdela eppa
ses sol
Ġdeta nimret
Ġerac htlaeh
ts itneics
cne p
Ġde nommus
Ġno ihsaF
Ġecne ralC
Ġdettim snart
Ġno sid
Ġgnita roprocni
Ġylgni sirprus
Ġepa cs
Ġsre diaR
Ġ0 61
Ġnoitaru gifnoc
ci rf
Ġdem ret
Ġnosir P
ht raB
Ġgnag floW
Ġeni rtcod
gni neve
e mehcs
Ġeno hpo
Ġye rots
Ġdek cil
Ġsro yaM
Ġdnal diM
Ġeru giF
Ġelc ycib
d doG
lai ciffo
Ġsne l
Ġse nal
Ġyraili xua
sme tsyS
Ġgnihca oC
Ġkci wsnurB
Ġdnuorg rednU
Ġgniyf itnedi
B W
dna K
Ġdereht ob
Ġla taf
Ġn raw
Ġlaiciffo nu
ma tnoc
Ġgur D
Ġre daorb
Ġle k
zi L
na Z
kcir taP
Ġde droceR
Ġseira rbil
Ġnoit cua
ĠC R
Ġ0 41
kok gnaB
re Y
ret ti
Ġse simerp
nof lA
Ġderia p
Ġlatne irO
Ġretse cieL
Ġsdro l
Ġfe soJ
Ġyro sivda
Ġgnit nuocca
a dne
Ġa yaM
lo j
ĊĊ ĠĊĠĊĠĊĠĊ
si dnu
Ġseg dirB
noitisop po
Ġevita lu
ÃŃ R
y tua
Ġtna dnecsed
nwo te
b bA
ytila col
ls O
eg dir
Ġna hC
Ġeta cifitrec
Ġna ianahG
Ġsk cip
yg rA
Ġgni rtS
sa edi
iw D
Ġff its
sir P
ni j
Ġhc teks
Ã±a psE
su t
Ġya rt
Ġci moC
Ġsehsi d
Ġde noptsop
Ġne ercS
eno b
Ġso ni
sre enignE
irt cele
sub muloC
gni eb
Ġyalp neercs
Ġyl it
re pa
ecna tsiser
Ġgnisirp rus
nuo F
tu hB
Ġsla eppA
aci R
ni C
l ced
Ġevis secxe
noita erc
Ġsema hT
Ġylti cilpxe
Ġs llah
Ġega irraM
Ġtel laB
dro c
spo hsib
es raM
.. ."
Ġh kiehS
gro B
Ġenirehta K
Ġdet rons
Ġi za
Ġnoeg rus
Ġgni xoB
ri psa
Ġno tni
bmo rt
o eN
Ġo iduA
Ġsei daL
Ġo Ã±
e meht
Ġsuc ram
Ġsnoit ciped
nats hkazaK
h serF
Ã¼ Z
Ġnoita givan
Ø ±
Ġnois sucrep
Ġseiceps bus
evi la
Ġlaci rtcelE
ia w
Ġsp ihsre
Ġle urc
Ġdeg duj
xes sE
de iP
Ġyle sool
Ġmu lucirruc
Ġtob or
tsaeht ron
Ġselc yc
Ġtiu seJ
Ġsle nnut
Ġyen tihW
egnahc xE
Ġla iv
Ġsgo dlluB
Ġu reP
Ġyleru p
a a
Ġorg eN
Ġde vap
Ġtsom lA
RA TS
tim D
ama naP
cin hte
ts itrA
lua f
Ġgnilba ne
Ã µ
Ġdne b
Ġtf ir
res sid
cni w
stne noppo
rebme tt
ecne diser
Ġc siD
ni rP
Ġdesse ug
Ġytiliba liava
Ġy tsa
Ġai valsoguY
ta cs
co F
Ġdetca ne
edarg leB
reht uS
Ñ ı
aina znaT
Ġyrot caF
re tsop
roti dE
m irt
Ġo llec
Ġe nac
Ġav liS
Ġruob raH
p irt
Ġsna cilbupeR
Ġtneme ergA
nid rO
Ġemit raw
Ġsro tsevni
so Y
Ġgnihc nual
B S
Ġhta B
Ġno tnac
Ġsre psihw
Ġc c
hcna rB
y ma
Ġsla nruoj
not nilC
Ġmsi lanruoj
Ġde us
Ġshtgne l
hca eb
Ġev itne
Ġelt bus
ht oot
81 81
Ġts it
Ġtnem ngila
Ġnam hserf
Ġgnil wob
Ġsht ped
hta R
Ġa vE
Ġros dniW
Ġyraut cnas
s doog
se saeler
Ġsdnuo pmoc
Ġse sol
z oK
ĠN PSE
ne es
o Y
Ġseta udarg
gnin rael
Ġsk sir
de dnuof
Ġra tiuG
or tS
Ġno rahS
Ġne sle
lu h
elu dehcs
Ġde maet
orts uA
Ġcihpargo eg
re ehc
Ġgnil ruH
ti seh
Ġeb ulC
ru cer
stne nopmoc
ecne gilletni
Ġst cetihcra
iti bma
Ġstse uqer
Ġci nego
Ã¼ H
libu J
nre doM
l co
s pa
Ġgnik col
yhp ruM
Ġseo ta
Ġla tsaoC
Ġstnem yap
Ġretsa cnaL
Ġa retpo
Ġselu R
III V
æ ľ
na ir
cilp ud
å ħ
ht ob
ma k
Ġai ragluB
hc A
Ġli veD
Ġma R
Ġne irB
Ġgniti cxe
Ġlamrof ni
esrev inu
Ġdema hoM
Ġtnem nosirpmi
Ġevis olpxe
Ġre vres
Ġla srod
tib ihni
Ġy pucco
Ġniatrec nu
e gnaR
Ġsser tsim
Ð º
ci ve
ĠC E
Ġcihpargo eG
re do
Ġev ets
Ġde hgiew
ĠA IC
o rob
Ġyek ciM
Ġk si
N PSE
Ġeva rb
Ġyl bi
Ġtna tculer
Ġar dnaxelA
Ġsi b
si urc
de troper
Ġlaci gol
Ġsecne ics
a repo
Ġaci amaJ
Ġylla noisseforp
Ġnoita tegev
Ġyawe vird
Ġgnille ps
Ġgni niM
Ġneg or
moh pos
Ġre noissimmoc
Ġsi sa
Ġtxe T
tu cexe
wt uo
M N
ih aS
nos duH
Ġse D
etam ilC
vi p
ll yhpo
Ġdegral ne
Ġye oJ
Ġgni rac
Ġse snopser
Ġswa lc
Ġe tse
se lim
Ġpihs nezitic
Ġsno eg
goga nys
Ġa raw
ry K
hcna R
Ġci valS
Ġyhp ort
a rfnI
Ġdene kaew
Ġia ru
yol L
Ġst fa
x ir
lai cepS
Ġne diam
Ġ000 3
de xim
ya ugurU
Ġyti soiruc
Ġdewor rob
ar C
ola ffuB
dis noC
Ġylra lohcs
li O
el tneG
itsab eS
in gis
Ġsu hc
t ter
eht o
gna iJ
Ġdrof warC
Ġlo b
Ġsesser dda
rete maid
d U
Ġla riv
ila ter
der i
Ġle i
Ġmoor ssalc
Ġeta nutrof
Ġswor b
Ġyllau xes
it eP
dno B
iah gnahS
ps noc
Ġg epinniW
Ġeloc Ãī
Ġgni mit
Ġelbme ser
pmu rt
Ġe pi
Ġlacit ueca
noit nevnoC
tse paduB
gni la
Ġnoit civnoc
Ġnoitce ted
i erF
Ġt rac
Ġro snops
Ġya j
strop er
ĠA V
Ġgniht oN
Ġs hgual
Ġwon K
Ġk cerw
Ġgnit uohs
Ġko orB
Ġciht ilo
nal L
Ġseb roF
hc sne
Ġnac ita
Ġpohs krow
ht orb
Ġsk nom
u Z
Ġtnem yolped
tsi om
Ġdero vaf
eb irt
Ġlaut riV
rut luc
Ġy po
st xet
ht in
Ġsl uos
Ġtreb or
k I
Ġy tsanyD
ĠP DC
g ruobmexuL
se lif
sre pap
gni krow
Ġai rotciv
se illa
wo d
Ġo H
Ġin mula
Ġesac riats
K P
gi vaN
Ġih si
Ð ¡
Ġmu ina
le voN
Ġcita metsys
Ġseit nuoC
Ġega ttoc
sser dda
si lraC
de erb
Ġsci lohtaC
Ġy v
Ġse lg
Ġrota rtsinimda
redro sid
Ġgnita ert
Ġseu tats
nne rB
to si
Ġderut curts
Ġdelbmu m
Ġsu tsuguA
Ġtim bus
Ġderetta hs
gni suoh
Ġlle H
s gnoS
Ġtne ced
Ġycne dnet
Ġre ed
Ġa jni
Ġda l
j dA
Ġeni bmoc
Ġgninia ter
22 81
Ġyram mus
Ġseira noissim
rehtaf dnarg
Ġe etnaraug
s dnuf
ia N
Ġo C
dla noD
Ġ8 481
re cudorP
thg irf
lia b
Ġsuo minanu
ko tS
Ġnoitpe crep
rre uG
Ġm ir
pil ce
05 3
a ca
Ġtna rgimmi
Ġylb idercni
rebmett rÃ¼W
nosi daM
Ġse hcaet
acit cratnA
seicne utitsnoc
de tna
s gel
se erged
Ġel leB
M M
Ġoda nrot
rednu ht
tra kaJ
gni ne
Ġevres bo
sla reneg
re nuf
Ġno sia
Ġreb mob
in rac
Ġst cesni
sla vitsef
re tirc
Ġsde R
Ġykci R
tna ruatser
Ġyen ruoJ
p ille
Ġcitsi laer
i curc
tsi M
Ġu Y
ĠS D
e ba
Ġci norhc
reg ztiF
Ġsse tnuoC
Ġnre ts
du M
Ġtnuoma raP
s wor
di D
ni suoc
Ġadna gaporp
Ġsb mil
nai cisyhp
Ġre ehs
pe ks
Ġylevit cepser
Ġlaciport bus
Ġdeta erter
Ġye saC
Ġesu caryS
slo ot
ri eB
hcti w
ht fif
Ġgni lcyc
Ġtuo kconk
Ġu D
li os
ugirt ni
Ġgniyf ilauQ
lla m
Ġdemialc xe
Ġdesiv repus
idni H
mrof ni
Ġycarco meD
Ġnia ger
Ġia bmuM
nhc eto
Ġtna W
Ġsya ts
ai X
la gnaB
Ġel ytS
Ġeuq saB
Ġro l
Ġlaitne reffid
Ġgnipp ils
Ġdeppa c
A H
citne htua
Ġdede es
Ġelt nam
co B
Ġdeta minA
Ġdra hc
Ġgnika ep
s suH
Ġlle T
fi G
mu T
Ġtn rub
Ġdele bal
del la
Ġsthg is
nohpo xas
eca eP
Ġspihs nwoT
cerru ser
Ġhsim elF
Ġdet upsid
Ġeuq alp
Ġeh cna
st hgie
Ġfle hs
Ġstcaf itra
Ġst ros
å ®
gga ts
Ġdehc nup
Ġno otrac
Ġred uol
se N
Ġgni M
Ġsroda ssabmA
eni hR
dli K
Ġero hS
Ġspo t
hc taW
so tohp
Ġegna rtS
su raleB
Ġt cepsorp
se mod
Ġelytse fil
Ġnoit roba
sgni drocer
Ġhanna H
ce ferp
Ġtneme c
Ġnoi li
N S
e mulov
r reH
sre yalP
Ġycna ngerp
gor ra
reh pargotohp
Ġtni rps
dra B
Ġn U
Ġe losnoc
Ġned rub
Ġva tsuG
suo hT
Ġecneref retni
eni M
Ġsdna rb
Ġez eeuqs
Ġna il
ese ugutroP
Ġkci M
Ġreida girB
ĠT IM
rev nI
Ġmrof ni
Ġgninni rg
Ġgni mia
se K
Ġnet tirW
Ġeuq som
Ġseta geled
ni etorp
ru ta
Ġsela cs
no yL
erutcurts arfni
fo H
Ġht ym
gu l
Ġdoow yllo
Ġdere nrag
rem mah
Ġy orT
yt ca
ir hs
cna H
Ġden nacs
Ġlacigolo nhcet
notgni lleW
Ġy htgnel
Ġno nreV
Ġdema N
Ġdle ife
Ġesuoh eraw
Ġret teB
Ġsm rots
y lia
sa rP
Ġsecnere fnoc
Ġle varT
ev ah
ner raW
Ġdua rf
csi nimer
t ihw
ff eni
erf lA
Ġseni zagaM
y pareht
Ù ħ
Ġm yg
Ġel paM
fe ihC
Ġsnoita dnuof
Ġgnide eccus
eruta repmet
Ġz ci
Ġgni lu
oi notnA
noi D
Ġno V
Ġci da
ko orb
noitpe cxe
ai raM
Ġderu tseg
Ġsrel tserw
Ġeni otnA
vi S
Ġssehc uD
Ã¶ rts
a nu
z ci
Ġgnit lusnoc
Ġa bma
noit ingocer
Ġdez ilitu
ni lo
sro od
Ġsti f
irca teM
mah ruD
Ġreiva X
Ġiro ÄģM
Ġev id
nuT i
Ġsser gorP
va edne
t recnoc
st cetihcra
nik O
ivit cA
etam ilc
Ġeig gam
Ġna sa
ma ts
rik stuo
Ġot uA
uq eS
Ġsla col
Ġs gg
Ġai retcab
mu hcS
Ġsle bal
0 41
ai nodecaM
Ġla no
Ġnosi op
li pmoC
Ġek u
Ġna z
Ġynom itset
s nwoT
Ġeca F
seiro tirret
Ġsei getarts
Ġria lB
Ġre in
i mo
Ġsnia g
Ġesecoid hcrA
ram nayM
sa F
Ġeni la
sre tsis
stna ruatser
tnemniat retne
Ġdenif noc
Ġy ore
seuga el
Ġreve rehw
rednu S
Ġs waL
ne hS
Ġs dnob
Ġyr reK
Ġsda ol
Ġ Äģ
Ġtnev ah
niat retne
Ġs llo
Ġsuomyno na
Ġlaci grus
Ġo il
Ġdni heB
sna L
Ġ rO
Ġniw dlaB
Ġet tol
Ġde yonna
Ġreg it
re ganaM
Ġrel tserw
Ġre dnoW
Ġy ssabmE
Ġyltne iciffus
Ġsdo portsaG
Ġu ko
Ġresi urc
ĠI S
irc S
Ġna lle
a nA
d worc
Ġtne namreP
Ġed irP
Ġret la
Ġe ssa
Ġsema rf
ssec orP
Ġnaci amaJ
Ġsya sse
Ġairo lG
itne dI
Ġsnois nemid
Ġy oJ
epo H
evit ucexe
nahc uB
Ġe ih
Ġsret nuocne
yer ruS
Ġdelb uort
m ub
Ġsedo hR
Ġa yo
Ġse diser
ti miD
Ġsnoita cilpmoc
cude d
gni ttes
secne ics
Ġgnihcti ws
nois napxe
Ġ7 581
Ġder tah
Ġstne miger
Ġre pe
kcu nk
Ġyel rihS
Ġtca retni
Ġseil ppa
eta gergga
ti rehni
f lewt
sre hpargo
Ġbo b
gne hC
ez irp
Ġh k
Ġeti lletaS
Ġsuoi xna
Ġa leuzeneV
Ġra nul
srev noC
rob raH
Ġeo hs
72 81
Ġgnisi R
Ġbela c
lopor teM
e oJ
Ġtne gA
Ġdeb rutsid
Ġetad pu
Ġsthgil hgih
Ġtsi wt
co N
Ġmah gnittoN
Ġnoo hp
Ġs dlrow
Ġtna fni
pp iH
ni oj
sret rauqdaeh
Ġseitira limis
Ġno tsniW
Ġdelli b
Ġwor ra
na ebbiraC
Ġsb rubus
Ġy cul
noitca er
ra lop
g ruS
Ġsreht naP
Ġtto cs
ici ffO
lus noC
noisi V
wolle Y
noita cinummoc
Ġel cinorhC
Ġyleta rapes
Ġsel kcat
Ġy ddu
ruo bal
elb uoD
a tS
Ġse mo
Ġsecne idua
Ġsthg ieH
rtsi gam
Ġwo leB
Ġsro mur
dna v
81 1
Ð ´
Ġeta romemmoc
ya faL
Ġeta geled
Ġsk waH
Ġevisne tni
Ġyra nimeS
Ġtem leh
Ġle craM
retse hc
Ġeg rus
mo ny
Ġdra eb
Ġara k
sre goR
Ġgni yt
ff ire
ĠC N
Ġesne pxe
Ġxu niL
Ġllihc ruhC
tep murt
yti rojam
s tsa
dluo w
noita nretnI
Ġtim muS
le g
reg ir
ma haB
re yalP
Ġ0 581
we S
regga xe
Ġdek orts
po S
Ġnot roN
Ġe ani
e pat
Ġgnine ercs
Ġtuo cs
iti m
Ġedi ci
Ġyllufe poh
yo C
tneme tats
C O
Ġlacigolo eG
ra a
sre dloh
Ġnoita cidni
it eR
Ġynapmoc ca
Ġra j
ĠOK T
ne W
Ġtol s
Ġsep ahs
Ġt ramS
hp sa
Ġda lc
Ġlanim reT
les s
nai T
Ġecne nimorp
Ġse yaH
Ġretse hcoR
Ġsre tsetorp
remo lg
Ġe erefer
Ġts ruh
Ġyret taB
tse n
Ġdetne r
ur D
snoi L
kco nK
ri pser
ner da
sevit ucexe
Ġscit cat
Ġwolla ws
sp roc
Ġra deC
se nnahoJ
Ġpmu p
suo i
ur K
ga mo
Ġpihsro snops
te nretnI
32 81
Ġm irt
ali naM
Ġlanoit pecxe
crof nier
dne P
Ġro naM
nil knarF
nam roN
satna F
Ġst cA
Ġnoita redefnoC
or fA
Ġane le
Ġtsu l
Ġtnemeru saem
Ġahp la
gal reV
Ġre lb
Ġsnoita rtsulli
fa M
tnemu rtsnI
us taM
Ġsnoi nipo
hp mys
tsu rht
Ġnoi rag
Ġse ef
61 81
Ġdek cart
ta ews
ĊĊĠĊĠĊ Ġ
Ġdemrof eR
er ua
Ġai ca
Ġseta nidrooc
Ġnoita tneiro
Ġeti lE
Ġnig irO
rem laP
Ġyr rah
hca tta
L H
lopo nom
Ġla nosaes
Ġsei rettab
lu hcS
Ġya K
Ġnaps gniw
sru cerp
Ġnaya ugurU
rev dA
Ġo vit
itne c
it po
nois serp
p ord
rae ppA
kni rd
Ġsecaf rus
Ġllew xaM
p ilc
Ġna wS
siv orP
rre ug
Ġyrani b
Ġto llab
Ġe et
ret toR
Ġsdi ar
pe ehs
Ġyl le
esa bataD
suo icsnoc
te nalp
my zne
udni H
po hc
lk cen
uqa oJ
Ã© D
ut celletni
nia f
er ihsacnaL
ne veR
Ġgni citcarp
Ġsnoita dnemmocer
a Z
a me
Ġretaw hserf
Ġgni dulcxe
elp uoc
stse irp
Ġse lbmeser
Ġgni nimreted
gu E
Ġnoit utitsnI
lo k
nois reV
dooh dlihc
Ġtnem llorne
Ġgni reviled
Ġi ja
Ġgniru sne
ta em
mrof inu
Ġh O
Ġetutits noc
Ġsel ttob
sna J
mi G
gu L
il loC
Ġdesu ma
Ġgni nifed
Ġcitsi ugnil
tob bA
" )
z Ã¡
ret tal
sel paN
gni tca
ya hc
Ġo le
n roB
H G
Ċ ĠĠ
Ġe ffilc
j uF
Ġsega tnavda
ht eb
Ġlacihpargo ib
ho H
e sirp
dno maiD
da erb
xe h
erihs drof
Ġskca rT
ts ub
ĠL I
Ġdelu ah
vo K
Ġlaci legnavE
pi D
g ge
Ġlairtser ret
Ġs ba
Ġnosir roM
Ġyru saerT
esu ac
Ġse lle
uc riC
Ġeyb doog
L B
ka Z
Ġlai caf
i uQ
yro getaC
Ġa val
Ġna uY
sse lA
Ġo ro
f d
Ġralu ce
yr reP
sde eS
la oG
Ġyr rehC
Ġro naelE
Ġozne roL
nos ni
Ġdooh ruobhgien
eh p
la L
Ġg eb
Ġnois nemid
Ġgniv rI
yb raen
rael C
a idep
o reH
Ġroda vlaS
rev eb
elba ts
se ro
Ġdel ff
Ġnwo nK
Ġz il
Ġgni rob
Ġloco torp
lu d
ci medaca
Ġseni raM
sk rap
Ġseit ilauq
ht ra
Ġnoita malc
bo S
ek ralC
Ġyti uqe
hcti P
cu lg
lo ot
gro iG
Ġ05 7
Ġsyaw hgih
Ġore Z
hpmu irt
Ġlacilb ib
Ġnats irt
Ġepo levne
rtlif ni
seni suB
s tsir
nre te
Ġmuni talp
x x
rae N
ĠS G
bu T
ca mrahp
Ġelc nU
Ġsu ea
sde en
t buod
ai va
Ġa tto
Ġsya r
Ġsma ercs
Ġcit ca
Ġy erf
nu lp
zza j
Ġsnois net
Ġeni M
ne w
Ġeru saert
Ã¡ D
Ġsre pp
si el
Ġ9 581
ia W
6 081
Ġdengi la
Ġave neG
re idlos
Ġsel rahc
s lliM
Ġcir temo
ec orP
Ġeta roproC
Ġde cudorP
nhcet yloP
sdra ug
sre nosirp
Ġeti nifed
Ġnoita unitnoc
sre hsilbuP
yre tsa
Ġht oot
Ġnaly D
ta D
nu C
Ġylla itnatsbus
Ġene erG
noita icossa
ytu d
ĠF F
Ġdeta icerppa
Ġyc tpurknab
sts itrA
so ni
ba id
Ġla dnacs
Ġmu m
eek uawliM
Ġtsa ef
on rop
pma hc
Ġni ka
y noloc
Ġsd riht
Ġsega ugnaL
Ġna sitrap
Ġi xat
sel it
sedo sipE
Ġs op
Ġne da
ecne dnepednI
tlus noC
tse v
la noit
Ġdra C
tsil cyc
Ġsseler iw
Ġne hoC
Ġrot civ
ero C
hc si
Ġeta ler
Ġtop ed
71 81
ddu hs
Ġ' ,
Ġta oB
Ġremrof rep
Ġa botinaM
skca j
no ca
Ġo zza
Ġseri A
Ġsrets nom
t tirB
z laS
Ġyt reporP
Ġsre ffid
Ġdetadi losnoc
lav A
Ġeta gergga
R L
Ġtna gele
Ġyro getaC
Ġslle hs
yen ruoj
Ġeuc seR
tsew htron
aiv taL
erp pa
Ð¾ Ð½
re hsiF
Ġcifi lorp
de drocer
t rams
Ġdi ma
Ġno dne
f uL
Ġgnit ruh
Ġdeta vitom
Ġnoitani gami
Ġein noR
Ġci xot
Ġyli daer
ĠĠĠĠĠĠĠĠĠĠĠĠĠĠĠĠ ĠĠĠĠĠĠĠĠĠĠĠĠĠĠĠĠ
Ġs Ã¨
Ġsdra hciR
Ġz euq
ro ser
su p
Ġnoita erceR
Ġde xenna
wa N
st ih
Ġgnikool revo
Ġzti rF
se irtsudni
Ġw erdna
Ġtnem dnema
ta hT
Ġsecna vda
g raM
d ruh
nia mod
Ġylla R
k ih
Ġemo rdnys
Ġne vaeH
ega ugnaL
tpe cnoc
Ġla n
Ġrehta eW
ÃŃ traM
Ġden nam
no saM
retso R
Ġta eB
Ġtif tuo
8 01
Ġemo reJ
Ġo hce
Ġd oR
sre tnec
Ġese mruB
de di
ha D
ws pI
bmu ht
Ġot reb
Ġk riK
91 81
Ġdedo cne
Ġluf htiaf
Ġy ne
seu nev
lub natsI
Ġnek orB
Ġci pyto
k laW
Ġsu rpyC
Ġgnid don
it sa
iti ruaM
e lim
uce p
Ġgni noitcnuf
idra dnats
N T
Ġf rawd
sthgie H
mo oR
z urC
Ġni J
Ġtca tni
91 1
Ġyca rucca
noi gileR
Ġs gur
Ġdeta rgim
il lim
Ġn E
Ġm it
niar roL
Ġsro tsecna
ah k
Ġyrt nE
y reva
Ġro d
Ġdecalp sid
Ġy dis
li veD
Ġduo lC
Ġ5 01
v u
Ġgnidne terp
cifit rof
Ġst pircsunam
st naiG
sle bal
Ġpe ews
Ġstnem trapa
Ġelpoeps senisuB
Ġsyob woC
o idutS
yt la
kcol B
e eb
Ġsgna f
Ġo cnarF
Ġneht gnerts
ei N
Ġsgnide ecorp
tset ni
R G
Ġthgil hgih
Ġeno l
Ġdi paR
Ġye le
y lle
Ġyna blA
Ġs ual
Ġtser c
Ġme laS
le z
eci r
Ġgnippa rw
de la
K S
irb ili
mode erf
rota cude
te iD
ibih pma
ĠRS SU
Ġneddib rof
t liW
Ġenil yrots
Ġxaf ilaH
Ġnahta n
deta col
Ġya S
Ġme roeht
Ġtnia lpmoc
Ġsria per
Ġdet rocse
hsa B
X I
Ġre xob
ssor G
stsi naip
Ġo ru
3 081
Ġdeif inu
va G
06 3
Ġyltne rruC
re kcu
pa ts
et uoR
k roC
Ġna tsi
de tserra
tne rB
Ġyno loC
Ġgni dnatS
go G
dar baL
Ġoni ma
na yR
su riv
Ġroti siv
Ġdenia tta
noita mroF
xa B
Ġnetto R
Ġkoo L
Ġnots nhoJ
nI cM
emoc ni
Ġdet tap
Ġta molpid
Ġsyaw liar
Ġni saB
o ma
na hS
Ġspo hsiB
csa F
llab yel
ti liM
Ġseitiliba pac
dnu L
Ġev ew
Ġgnigga rd
Ġi si
no do
Ġred dal
o Ã£
Ġani raM
Ġdel yts
ya T
yti nummoC
llim caM
Ġat laM
Ġreg gad
Å ŀ
sre gnessap
Ġselu celom
j L
Ġdet lah
Ġdi gir
cer roC
r ba
det rats
Ġdesser ts
Ġev lav
snoit idart
Ġyl reveB
no la
wa ps
ihs I
Ġodra ciR
Ġsema N
Ġhte basilE
yllau nna
tan reb
mi ks
Ġa loiv
b rev
ly sa
Ġnairati namuh
ru lp
ila S
Ġdne ped
Ġno ssel
Ġeda cra
00 9
Ġwa srevo
Ġht neveS
lb o
tso pa
da rc
esuo ht
t hca
Ċ ĉ
lia ns
Ġmi k
Ġgnita nigiro
g lA
Ġro tnevni
Ġsm sinagro
Ġno yL
Ġyti nu
Ġgnita ks
Ġ á»
ne vaH
lage neS
Ġnot pmaH
Ġseno z
Ġska ep
Ġro loC
nom raH
Ġu ka
ĠE C
Ġeka mer
Ġle varg
Ġgnire enoip
Ġyllo hw
ti baH
Ġsde eps
tu rcs
s nosrep
Ġbu p
gno H
Ġla tsop
ci hc
Ġp sag
yhpargo ib
Ġtid erC
Ġgnita rbelec
s boj
noita cilppa
Ġru ps
e mu
sla dem
or cam
Ġdloh serht
Ġnahta noj
Ġnoita vitca
de L
Ġdesa et
Ġdeya rteb
Ġygolo eht
Ġdehca ted
Ġre niart
Ġsiseht nys
Ġde sit
ihc ro
et tolrahC
Ġeve irter
Ġesirp retne
Ġai se
su Y
Ġssel dne
ol sO
Ġcin htE
Ġi ga
tnem yolpme
Ġeta roprocni
Ġdesae leR
Ġsiseht opyh
lec raM
u ka
Ġseru tnevda
å Ń
ro gerG
hg uM
VI H
der iter
il pma
Ġde tsiL
Ġdero mra
Ġsen gA
Ġyra it
lop orhtnA
9 081
la ni
su ahxe
Ġgnihca eT
k ahS
Ġnacita V
ht yM
Ġsetu psid
Ġd yeht
Ġytua eB
Ġeviti mirp
Ġdere ggirt
irt uo
pu L
u ta
Ġtter B
silopa enniM
kci H
Ġdemrof er
eci ohc
nub irt
Ġane lE
ge i
Ġo ka
tno P
dua L
Ġgni vaw
Ġseda lb
Ġt pa
Ġo med
w ahs
ne gi
Ġgnire dner
tne irO
Ġlacigolo ce
yrell itrA
Ġel boN
f el
tne reffid
Ġdezi sahpme
Ġeu t
N G
ta eh
gni neL
li raM
Ġdi ordnA
Ġspohs krow
hp orP
Ġecne dnopserroc
pa j
Ġem margorP
Åį K
kca rB
ua G
sre dnu
Ġsi varT
sro htua
Ġyl tfiws
Ġdyol F
Ġne gahnepoC
ya j
Ġlacit caT
go F
sre bmeM
Ġyl bis
Ġsci medacA
Ġs liaf
Ġsuo ni
lu dbA
Ġrot ubirtnoc
Ġaya ks
gni thgif
dnuo B
Ġkna H
Ġek ruB
T D
Ġt dats
Ġec yoJ
Ġsnoita lsnart
Ġgni ngised
Ġeno lcyc
evit cepsrep
Ġai barA
Ġelit xet
o cer
gola id
Ġgni dra
Ġnwote groeG
Â »
Â ²
tsi ratiug
Ġycne diserp
eta M
Ġ <
Ġrete kcirc
c xE
Ġnois nep
Ġs ronrevog
Ġyr reF
Ġnem raC
Ġo lsO
lib rednaV
syr hC
ra hW
Ġevita ti
i ku
Ġta hc
Ġynne J
e ib
tne nitnoc
Ġdet norfnoc
sre ngised
nne p
noisse forP
Ġyca covda
em irC
Ġg nur
s tset
re doM
æ Ŀ
Ġtnemu noM
Ġlacitsaiselc ce
Ġst rikstuo
Ġedarg pu
s go
ec remmoC
Ġo e
noit ciF
Ġrei vaeh
pa cer
emo r
Ġsnoit netni
Ġmu ini
la dnacs
raehte ews
Ġtne nitnoc
ia G
Ġselba ne
Ġ ihC
Ġta ira
Ġkci lc
Ġgnisser dda
Ġa rd
Ġdnuo h
Ġgni looc
ia m
Ġpil lihP
egne llahC
Ġelp itluM
eno N
reh po
O EC
lli f
ĠE E
Ġot caf
Ġdar noC
hcti H
Ġgnisa et
lla revO
Ġno htaram
ĠAL CU
s lleW
Ġydo rap
Ġleunam mE
à¥ į
sa ciremA
it u
Ġyrota vresbO
gni J
yr la
are mac
Ġseta roprocni
o hp
Ġeka rd
Ġait ocS
Ġle eh
Ġ, âĢĻ
Ġgnitniop pa
Ġeni gnE
mah arG
na ib
ye W
Ġyl hguoroht
N cM
lua G
Ġde iler
Ġz epÃ³L
Ġyo lpme
Ġcitehta pmys
ht iaF
Ġde srever
ki T
Ġsgni rps
C H
Ġdeta citsihpos
Ġnoit cepsni
Ġara ga
no ted
ce T
A E
Ġdni M
se nots
ia B
Ġdeni oc
z oP
seni hcam
R V
Ġeva C
Ġtsi m
Ġ Ä«
Ġega niard
Ġdnal rebmuC
Ġhsid ruK
pihs nwot
Ġdra ye
Ġre enoiP
Ġes ra
na eD
Ġa ny
no on
Ġdenia rts
Ġralu llec
Ġsuoma F
Ġeikoo R
utits orp
mo nehp
Ġelo ciN
Ġde dulcxe
yrt nafnI
Ã© H
Ġlatne mirepxE
re gne
Ġyranoit ulove
giz pieL
Ġn nyl
Ġeni rhs
Ġce la
ret nuoC
Ġsuoi ro
sse hT
go loporhtna
sel poep
Ġne h
Ġani N
ĠM P
Ġsi rbed
Ġynna d
Ġlab rev
Ġyxa laG
Ġdena om
Ġezi golopa
Ġani vogezreH
Ġtir ksnaS
Ġma layalaM
Ġtna iG
ĠF I
re niM
Ġlanoita ti
Ġs nwodhcuot
i Y
st ce
t laM
se meht
s nwodhcuot
nia g
dro M
Ġmu tnemom
Ġre P
s doirep
sret hgif
Ġdla ni
va T
Ġeta di
Ġyr reB
Ġettol rahc
ic lac
ecne uqes
Ġya laM
Ġse luJ
u de
Ġnoitu lossid
ia n
Ġtsom nreht
daer d
serut cip
ei voM
Ġgnilia rt
ser fer
Ġyer ruS
k la
Ġo rb
Ġse irtsudnI
is narT
pe H
dna med
retirw neercs
lia j
Ġlai nomerec
su ht
Ġstna hcrem
rebmu htroN
noit ilo
g nI
Ġsei rota
Ġci llatem
Ġsnoit id
ga K
Ġyt xis
kcu l
ri N
Ġog rednu
Ġyti srev
Ġht eB
Ġrets nuM
Ġes pmilg
Ġai ni
ci xot
se ota
id ebo
Ġgnimo yW
Ġgnicne irepxe
gni nnalp
Ġed orts
y u
Ġyt itnauq
Ġgnihsa w
Ġyca rT
Ġh slaW
nai ci
m ihc
Ġdele cnac
Ġde etnaraug
Ġgnik iV
Ġsci nortcele
gna D
sla ci
o dna
Ġsdna mmoc
Ġdno p
Ġru aso
Ġci hp
Ġdeve irter
Î º
Ġsu g
Ġlli eN
Ġgnin nuR
sretirw neercs
notpma htroN
Ġecneref erp
ih parg
Ġeka rD
ĠT G
na mo
Ġnoita vonnI
mu k
ibma zoM
Z N
erof ereht
Ġema daM
Ġsnoita nod
Ġpo tS
Ġne go
Ġgno W
zz ub
c d
Ġtne rew
Ġeuga elloc
Ġni ddu
Ġi hta
ĠÏ Ĥ
Ġsna reteV
Ġmoc tis
sa rtS
Ġda disrevinU
ssec cA
Ġgnine pO
ne vaeH
Ġb rev
Ġsle toh
te y
Ġane leH
pa rehto
4 971
msi citirc
h ar
el leB
seta r
fo orp
ai se
m rotS
ala metauG
Ġga lF
Ġraluger ri
bo J
Ġni ff
Ġero tS
erut lucirgA
Ġslle ps
Ġsre sopmoc
eni traM
Ġsre dnammoc
Ġeci la
tno ps
Ġstel lub
Ġd roW
Ġgnid dik
snoit cudorp
08 71
Ġhtid uJ
Ġsto irtaP
Ġsren nur
Ġli r
reh da
k lat
s tsetorp
Ġy crem
Ġyti p
Ġdewo lf
Ġadna ma
Ġsdraw kcab
edis ni
ica lg
s nom
ht il
Ġni ffirG
Ġereh ps
spil lihP
e lop
bf b
se tte
Ġsec nuonna
Ġht urT
Ġssen kaew
Ġmuit ros
curts ed
Ġnam rehS
trap eD
c cus
ta molpid
Ġle giN
Ġyle nol
rev res
s yaD
Ġgni usne
yel seW
Ã ľ
Ġdet cejbus
nia H
sev ihcrA
euq inhcet
Ġa dnoH
Ġse cudortni
Ġht i
Ġgni tam
ro muh
Ġni L
Ġla rimda
Ġen roht
Ġt lover
Ġena iD
ua T
Ġra v
Ġthgin diM
elb i
yrts udnI
orie naJ
Ġsta tibah
Ġtsaf leB
Ġy noclab
di F
la ppA
Ġerus nu
Ġec remmoc
ĠM G
i leB
uo p
Ġan noD
tse uqer
e eB
snoit ide
Ġseni rambus
ĠOCS ENU
mony lop
i eh
k ruB
Ġna idraug
Ġla turb
Ġht idE
Ġyra rtnoc
Ġram O
tca pmi
rff us
Ġecna n
cud noC
Ġb or
Ġu l
yaw daorB
na idrauG
Ġeyo ks
rot coD
rehta F
ma ht
el ca
Ġyalp emag
Ġhca erb
sa cuaC
tne dnepedni
Ġsruo H
Ġnoita cav
stnem nrevog
Ġgnizila iceps
Ġo pp
Ġor ta
Ġyeb ba
noit ibihxe
Ġsez is
luc rebut
ygolo mytE
Ġa bo
llab esaB
s pmac
del f
Ġgni cnuonna
gni b
Ġlaci nahceM
Ġnot toC
s we
Ġsti forp
ibih pmA
Ġslle b
ri W
noitu los
ega tnavda
Ġn wO
Ġero dommoC
Ġyti nreta
Ġst ceffa
Ġerow s
Ġsla reneg
Ġemerp us
Ġer it
ga v
sre mraf
Ġredi vorp
ĠS N
c yb
Ġylt cerroc
dli uG
Ġsi rap
Ġdep uorg
Ġdeta leR
Ġkca raB
Ġnoitne vni
Ġse cuder
red leifdim
Ġseit nap
nap siH
Ġegrahc sid
doo M
Ġdeye vrus
Ġst raeh
sde eL
Ġdena elc
olp u
Ġevisi ced
ih si
Ġstneipi cer
Ġdet pure
Ġseta ler
Ġse citsu
Ġdevo leb
Ġn nif
Ġnai rat
sre weiv
Ġnot roM
Ġyrtsi mehC
so lC
Ġsgni s
Ã ½
Ġgnigni ws
s pu
targ noc
ir fA
ne edrebA
Ġsnoga rD
Ġcilo bmys
x onK
na toB
Ġel uR
ma lF
Ġs lessurB
Ġerca ssam
à ¶
Ġsemit emoS
Ġtsa F
Ï Ģ
Ġralu tit
eri pme
to pS
Ġnam weN
Ġdek ohc
Ġro tnem
Ġs tocS
t foS
Ġdah C
Ġo ob
er reiP
Ġsnois serpxe
k iL
Ġni etsni
Ġadna gU
dipe L
ts uJ
seta d
Ġedarg leB
e tneves
f laH
Ġre gniS
ela s
pp iN
Ġseni bmoc
re miL
Ġgnini maxe
se idnI
yra srev
Ġyri uqni
pe crep
Ġdel gna
Ġnoi sa
ks ihw
pa rap
a gna
re L
Ġ8 581
Ġytila uqe
Ġren reW
Ġst fihs
oo T
evit isop
Ġe rdnA
ya dnoM
tsi naip
lia ted
hsi lpmocca
ruo noh
mi rep
Ġsuo itibma
zi es
Ġre is
ygolo hcysp
Ġeil le
Ġhta o
Ġepy to
sci medaca
yltneuqes noC
gni htolc
no pxe
co nnI
Ġyad sendeW
M U
Ġde hta
Ġnoitasi nagrO
Ġeram thgin
ruo baL
gni tset
Ġyel seW
nu rb
Ġ2 01
se nne
Ġai V
csa P
Ġmih arbI
Ġeg dol
Ġera lC
Ġk cus
or ge
cepxe nu
o le
ma F
ilu iG
Ġren gaW
Ġe mia
O W
Ġnoita dommocca
Ã© l
sne draG
Ġnet rag
Ġana j
Ġciteht nys
Ġrethg it
luo eS
ti lps
Ġna droj
y to
Ġgur hs
m ihs
8 081
ti F
Ġni loc
Ġdesi velet
nav illuS
ria p
ega tS
sor G
Ġret toP
ga hB
Ġ4 581
Ġf filC
ter ger
Ġgni moC
Ġ6 581
suo R
Ġgnipe ews
ya lc
à ²
Ġdedne ma
Ġsnoita lu
do v
Ġxe selddiM
s noisses
ha T
Ġnoitacifit rec
ome M
ÙĦ Ø§
regir fer
yaw A
Ġsne t
Ġda uqS
gni dnuf
rep mi
Ġhtuom stroP
itne d
era v
no zamA
Ġdna H
nwor C
Ġruob rah
t reboR
aka tanraK
cej bO
Ġno ziroh
srota cude
Ġnam pahC
Ġsnoita srevnoc
Ġno veD
ret hgif
Ġsle gna
Ġre llor
Ġyl rettu
11 81
Ġste ertS
yaw hgih
der rucco
esu ba
nne k
cime s
po G
Ġgnis serpxe
Ġre tsacdaorb
R F
c orP
lc ycne
py H
raw S
ja N
lor vehC
Ġna ssaH
Ġsnois sime
Ġgnida eL
ot reper
Ġs lissof
to uq
Ġgninna ps
Ġsi sirC
Ġse not
Ġne elhta
Ġniat ruc
ĠSO EN
Ġsei bab
Ġder retni
Ġe liM
Ġesit repxe
cita rcomeD
i o
Ġspit regnif
hcra noM
Ġst rihs
Ġega tni
Ġne vaH
det curtsnoc
Ġyro tu
Ġesi daraP
nnu f
l Ã¶
Ġla yartrop
Ġsnot tub
h da
Ġa fa
Ġla eN
ecna ssia
Ġstsir w
Ġt cideneB
dne v
su K
Ġya bmoB
Ġlatne M
gro eg
niK cM
ho D
Ġedi vid
Ġdeb bats
Ġmyno duesp
Åį hS
ĠÄĩ ive
Ġinaj iabrezA
Ġeno rp
Ġs robhgien
los bo
Ġati R
Ġsret roper
bu P
ylla B
le suf
a mi
Ġste op
Ġregne ssaP
Ġht flewt
garf f
sse ssA
i kS
Ġs taefed
Ġyl lek
3 971
Ġolo aP
sgni teem
Ġotne marcaS
mo v
Ġev ilo
Ġpo H
los noC
Ġts dim
Ġnoisse forp
Ġla irT
Ġsna retev
Ġdrof deB
Ġdel warc
iler P
tu hS
egna rO
not tub
Ġos noflA
Ġeni ccav
Ġhtne vele
mu M
ylla cit
Ġi lu
Ġi wa
C V
ti rab
ĠL SU
la gel
Ġye ca
Ġsno ilattab
Ġse lissim
ta eF
Ġla ngiS
Ġdeta vitluc
Ġgnisa hc
Ġdehsi lbatsE
Ġma etS
Ġyltne reffid
Ġdeman nu
Ġdeifit rof
Ġtsi mehc
Ġtne liS
Ġdleif gnirpS
Ġretaw rednu
Ġgniruo p
Ġmu isa
Ġse dir
8 971
se hguH
Ġse tepmoc
gno rtS
ylimaF semrof
Ġsre woP
Ġor tem
le inaD
ma etS
Ġsre cnad
Ġhsa lF
Ġot nI
Ġ5 581
noi nipo
na uJ
kni p
sci lohtaC
y O
Ġaci noM
noit itepmoC
reb muN
Ġela nif
rehte goT
u z
ir S
gno ey
Å ĳ
Ġle oN
se Y
Ġgo lana
Ġecne g
ga lF
Ġyt hgim
Ġgni dnah
Ġrets noM
ret carahC
Ġi eW
Ġn nI
hpro ma
Ġsehc taw
mu roF
rene ger
Ù Ĭ
Ġstrop ria
ti eZ
Ġeka W
Ġcita m
Ġnod elbmiW
Ġdlo poeL
noit ila
Ġdetnu ah
ne da
tu g
ylp pus
rae rof
nia rB
Ġz elÃ¡znoG
Ġre niatnoc
Ġelgna irt
Ġdepp ihw
ru gif
Ġo narpos
tne rap
snoita cif
no lA
lima C
Ġot u
re cnad
la miH
Ġreit norF
Ġrewo ls
gni vil
na it
Ġklaw edis
Ġra elcnu
sba H
a meniC
tsa nA
Ġdne lb
Ġykcu L
ledi eH
Ġgnisa hcrup
Ġm rahc
lle ps
s noisse
Ġsna ol
ni H
pu D
Ġsme oP
Ġtnei nevnoc
Ġb beW
Ġnoita ralceD
st luda
ma b
Ġniva g
Ġmsi rorret
ulf nI
Ġsel ttaB
Ġy duJ
7 081
ruo ce
d Ã³
Ġst un
fit om
Ġnaly d
Ġnive k
Ġsu te
Ġgiz pieL
noita dnuof
Ġylsuo muhtsop
Ġthgin revo
ron noC
hpma p
ti urcer
snoita cinummoC
to cs
rot cA
5 081
Ġgni ve
Ġtne dnopserroc
sua H
Ġevita roballoc
Ġgni tsop
Ġthgi li
tsu R
p uoc
Ġgni ralced
hp S
Ġnos mohT
i niM
Ġdet resni
pme K
di xo
st caf
Ġdet lem
Ġeva S
sret tam
nac loV
ru cni
Ġse ettimmoc
l its
Ġrota nidrooc
Ġd rap
yr hC
Ġeir iarP
ret P
Ġyaw A
sno r
Ã ĺ
du rt
Ñ Ĩ
B T
a ku
sk cu
Ġdek raps
Ġsav nac
Ġi di
Ġgniri uqca
du rp
Ð¾Ð º
Ġde draug
de V
reh oc
Ġel gnuj
Ġei p
ca lG
ĠCB C
Ġihse dalgnaB
Ġdra b
tsni eL
t luciffid
Ġyaw deepS
Ġs ye
Ġerohs ffo
Ġra l
Ġed ylC
Ġnoitu cesorp
Ġn roht
Ġwa rD
lo veR
Ġnots A
or K
Ġseil pmi
Ġnagro m
Ġthgir wyalp
sti derc
s sid
Ġy draH
si uq
hte eB
Ġci bo
se ra
Ġthg iwD
2 081
Ġniat nuof
Ġnoita vonni
Ġodra udE
Ġlacilb iB
Ġsesi crexe
sla u
tamit lU
Ġyhta pmys
do cor
Ġkra medart
Ġderut rot
we z
Ġylsuo vren
lu ca
Ġre llat
Ġtnar raw
Ġna sus
Ġdesse ssa
Ġsna ir
Ġga l
kcor B
gni toohs
Ġw ah
Ġani tsirhC
me hT
Ġdeni lcni
Ġsro rre
co n
rat nu
ah W
Ġcitse moD
Ġpa t
Ġgnite eM
Ġret lif
5 31
Ġtek sab
Ġelliv siuoL
Ġse gelloC
Ġnoi napmoC
lit u
s pam
Ġemit efiL
ht ur
rets A
csa maD
Ġyb erehw
Ġcit ore
Ġto irpyC
Ġssi K
hco H
Ġdleif ria
Ġtna txe
Ġsuo reneg
cni uQ
k sed
y getarts
sthgi R
reta c
Ġgniyr ram
tsaf leB
sre giT
w R
Ġl h
Ġdeta itogen
draob yek
Ġciteht sea
Ġgni rapmoc
es reP
Ġsev ihcra
4 081
Y B
Ġlla M
Ġst pircs
yra tnemucod
D T
Ġe ihpos
rae ps
Ġhanna h
cca M
luc reH
Ġsdrow s
so T
Ġde gno
re dnik
Ù Ī
Ġeni viD
ai L
Ġovo soK
Ġa gni
Ġlanreta p
Ġytila uQ
Ġsma R
Ġsdnal diM
Ġlaici duJ
Ġera lced
Ġoi loftrop
Ġ4 01
Ġai nemrA
ne mu
eb ut
Ġcit so
eu S
bo G
Ġk rej
Ġyti xelpmoc
lli a
Ġytiliba pac
Ġsuoici led
Ġnoca ed
Ġrota lsnart
Ġa ret
tir C
Ġyti rahC
no rC
Ġruo m
Ġnoita cided
kco D
Ġn uJ
wo dahs
Ġma hg
swo dniW
Ġlacigolo eht
Ġgninioj da
Ġdetsa t
Ġgni cnivnoc
Ġlaci hte
Ġnoitu llop
sa k
na idemoc
tta hC
Ġsu rua
Ġrob rah
e varg
Ġka olc
ruo noH
Ġsu ile
ita ert
dluo b
Ġytiliba ni
Ġtsi cisyhp
rel tserw
Ġaif oS
Ġhta eH
Ġla H
terb il
. âĢĿ
Ġdek ooc
ko J
Ġseva rg
Ġner raD
Ġwob niaR
mo k
li r
Ġsre hsilbup
Ġde rd
Ġht oob
O A
Ġdets ur
ĠR J
Ġssele moh
Ġni tsuj
ero hs
air dnaxelA
cs wen
o icos
Ġse viL
Ġdet ressa
j elA
tse N
Ġs reva
Ġred leif
Ġy zzi
gni ppa
Ġhallu dbA
e vaw
Ġseb ut
Ġrega neet
Ġte liot
Ġtce freP
Ġana D
Ġt drah
retsa nom
ya N
rot plucs
Ġdeni bmoC
roh K
ni uQ
ylbme ssa
nu k
Ġelo R
wa rps
dne mert
s tta
Ġgnitu pmoc
Ġded nim
Ġot ua
tsaeht uos
Ġseti S
Ġdekci w
Ġci namreG
lb euP
Ġreve f
Ġralu ci
Ġoi ca
Ġdehsu lf
Ġrethguad dnarg
p ilihP
is yhP
snoita lupop
sa pmoc
yalp sid
sne erG
ye noH
Ġgnip pohS
k ced
6 971
Ġyro s
Ġo ol
Ġtna tsiser
gi G
d dA
Ġy suo
Ġ Ð°Ð
Ġo aR
nret S
Ġnoisi lloc
Ġde gniw
hc neb
sre motsuc
hcti ws
Ġecne cil
spihs noitaler
Ġtsila noitaN
yla nA
ytilib on
P DC
y vaeh
Ġnoitca rf
kni P
Ġtuo hs
Ġeda isrevinU
sel hcS
Ġsehc uot
Ġsu lP
Ġh suR
Ġtna dnuba
Ġretse croW
Ġgni tegrat
nif noc
Ġdere dduhs
st recnoc
e not
Ġssele su
car D
Ġesi we
sk nat
Ġ Ã¶
kna S
scit elhta
Ġnoit idepxE
e fas
tra uQ
tup sid
hs I
Ġyra ici
Ġ05 4
K H
h sum
sa D
Ġrek ram
i cifed
Ġo emac
Ġsn rub
Ġlatne r
ne ila
yr K
Ġsoc norB
Ġelba z
tsu D
Ġrev elc
Ġe noc
Ġgnirru ceR
e sir
dne pxe
tsoh G
Ġsnoit pircsed
Ġgnirevoc sid
re dno
ĠF AA
Ġdetnirp er
Ġti urcer
Ġyppah nu
Ġ1 581
Ġxe t
Ġyllanoit netni
daol nwod
sret upmoc
Ġyre nihcam
Ġy dduB
Ġev lewT
rem roF
thg ils
Ġton k
Ġtniop pa
Ġam salp
Ġecna moR
Ġni ra
Ġnaino shtimS
Ġcire hpsomta
Ġdek ooh
Ġdenoit cnas
Ġsrot itepmoC
yt fif
Ġda ts
Ġy ah
sro loc
rt lU
Ġste J
rosse cederp
po eP
Ġstrop riA
se cnivorp
Ġoo ttat
Ġyl htnoM
Ġtle nk
Ġro lya
Ġdere tsa
pa tS
Ġst raeH
Ġstnemu noM
Ġsk nu
Ġdoo H
tel lub
uq cA
Ġgniy pucco
pec noC
lam ron
lah W
Ġmo tnahP
Ġyro ti
2 971
ces orP
yhpargom lif
Ġo gna
neg uE
Ġgnicna D
Ġecne ruaL
Ġne leh
ai sinuT
ruob hgieN
irbili uqe
Ġsgni dnats
Ġyl raey
ihca lappA
Ġi eb
stsil cyc
sei vaD
Ġeca roH
Ġdna rts
Ġkoob dnaH
sih pmeM
kca rT
05 7
Ġgnihsu rb
re xob
Ġala uK
lo noH
P B
Ġsesi ar
Ġazzi p
Ã´ C
Ġreta rc
Ġsehc ti
Ġeta itogen
Ġser roT
rec xe
Ġyad rutas
e uqs
ecna tsissa
Ġnot lraC
Ġsrega lliv
5 971
Ġo cir
noita pucco
Ġnwonk nU
Ġdeil pmi
Ġnaira vaB
Ġdeta ucave
ih a
ma da
Ġsuo iverP
Ġecneulf noc
cyb mareC
Ġegdelwonk ca
Ġno htaraM
Ġse ssapmocne
Ġdecna nif
Ġdeid ob
Ġci nilc
m liW
stfa rc
no me
Ġdeg geb
nu er
Ġdehsi lop
roC cM
Ġdek cilf
Ġsu iP
Ġnoitazila er
re lb
su pmaC
Ġsnia lp
cna B
yug N
Ġsecne tnes
dnu G
y daer
Ġay ita
Ġsna moR
Ġluo eS
Ġsk cal
Ġdesa hc
Ġes proc
Ġli pup
ha P
Ġsre iks
Ġstnemer usaem
Ġli vE
hguo ne
Ġlia M
Ġ $
Ġgni oG
Ġgnir refsnart
Ġnoitulo seR
dle F
Ġi Y
Ġs ÃŃ
Ġdeg de
sk cip
Ġn rev
ĠC V
gu D
rete me
Ġgnihsa rc
gno Y
ha N
Ġne wo
Ġder dnuH
Ġderev ihs
9 871
Ġtne ra
Ġroti dE
snoita luger
Ġyf sitas
Ġot la
Ġpot pal
Ġnot loB
Ġz u
do mer
le erf
Ġro gI
Ġsuomyno pe
Ġsei rat
rote hr
Ġe ira
Ġeek orehC
Ġte ud
nni uG
Ġelu dehcS
Ġai craG
Ġmu ucav
Ġssen tif
Ġno sna
Ġp ir
Ġeb moc
Ġeg reme
Ġa cu
Ġselit peR
w es
mo na
Ġsa erA
sim itpo
re gniS
ssa ssA
Ġdenia ted
Ġetu hca
Ġgnihsa lf
lc ne
cni v
hc taM
ps orp
Ġyra id
sua rtS
lua v
Ġz o
Ġname loC
Ġem user
w erbeH
Ġsevita itini
Ġre tsop
Ġ," )
Ġan nodaM
Ġno sugreF
sehc narb
uqes buS
Ġydd ub
Ġci sne
Ġrenna b
mod ba
Ġnois reV
Ġssen das
bu K
Ġeta ni
Ġno naC
cre ip
00 51
ob A
sni etorp
re psE
Ġderi mda
noit ne
sne K
Ġx ilfteN
Ġnot tuS
si n
Ġles nuoc
Ġgnita tor
pa rehT
sse B
Ġhgi eL
dec nuonna
Ġdeta nidrooc
Ġsdra dnatS
Ġeta nidrooc
Ġgnita rtsnomed
Ġna tse
Ġylt pmorp
ave neG
Ġralu lle
Ġgnim raw
Ġgni lif
Ġnoitce ffa
Ġsme ts
ner w
Ġev orppa
Ġgni revocer
era W
Ġu n
yr reb
Ġseil lihP
sra llod
Ġfeileb sid
Ġta m
Ġsecna tsni
Ġy dnac
ed roB
ny w
git il
e nal
dne rB
ĉĉ ĉĉ
Ġmo ttoB
si rF
Ġeu S
eta bed
la noitan
Ġti artS
csi fnoc
Ġhparg eleT
eci rP
Ġdet nuocca
Ġgniht yrevE
Ġnoitacif issalC
Ġece in
o fni
uce lom
lli T
Ġygolo iB
Ġrek col
Ġo legnA
pe Z
Ġseva c
Ġyas dniL
Ġsiso ngaid
Ġgnits iwt
cep sus
Ġy recorg
l Ãģ
Ã³ C
sre di
Ġseire llag
pa cni
Ġe ffa
nre ts
eca llaW
Ġgni bb
Ġpma ts
Ġte kco
Ġgnil rad
Ġcihpargo tohp
eci rp
Ġe nubirT
Ġste nalp
se gelloc
Ġelp ruP
de iD
Ġnay neK
sel gaE
tta l
Ġnoita ercer
Ġbo m
de sab
Ġeli nevuj
Ġnome ad
Ġtse uQ
Ġsre mmiwS
dda p
Ġdenioj er
seite icos
no tS
Ġgni dnopser
Ġla rips
ecna cifingis
gi H
ĠL A
Ġs yolpme
Ġyad sruhT
Ġgni cnanif
ĠÃ º
lo tS
Ġse nummoc
Ġse rolpxe
k ahC
Ġgno rtS
Ġtne gru
Ġycna f
ht roW
Ġdraw retfa
tt ub
Ġmsa isuhtne
Ġdet buod
Ġsre musnoc
bu h
kcart dnuoS
ĠF S
Ġorts aC
n ra
wo llaH
Ġgniht emoS
Ġecne greme
ua D
Ġed yH
s tib
Ġna rG
Ġa rap
Ġle noiL
Ġnos divaD
Ġgni dniw
hta mretfA
Ġyte iraV
srota nes
ps nart
hp tseW
Ġcito xe
Ġe ÃŁ
Ġtfarce caps
Ġnoisser peD
Ġyllacita mard
Ġd nilB
Ġyl mlac
Ġdra reG
Ġsehsi nif
llo h
dnal hgiH
sne psid
ĠC ES
Ġsenile diug
ygre nE
Ġni re
retni rps
Ġnoitne ted
se ve
s mialc
Ġn roH
Ġnoita icerppa
si natS
Ġetaidem retnI
su P
lua rdyh
Ġa rua
Ġht ar
ra luger
thgie W
Ġs raeh
sit ruC
Ġb ut
Ġci nomrahlihP
Ġs on
Ġa er
Ġsgni l
L E
ne ga
sre hposolihp
Ġdi oretsa
Ġne D
Ġtes sa
Ġgnig geb
Ġa N
evi F
mu art
ht tam
Ġeugola tac
Ġe tir
Ġgni reht
ser gorp
ĠC TU
noit ucexe
i q
Ġn yr
Ġrete xE
rep raH
yg ryK
Ġeca l
Ġsu po
9 971
Ġynne j
mua eB
uo K
Ġ8 01
nois serped
s ruot
Ġy dni
tne rT
Ġtne reffiD
ro peD
Ġa teb
[...]
