{
  "version": "1.0",
  "truncation": null,
  "padding": null,
  "added_tokens": [
    {
      "id": 0,
      "content": ">|txetfodne|<",
      "single_word": false,
      "lstrip": false,
      "rstrip": false,
      "normalized": false,
      "special": true
    }
  ],
  "normalizer": null,
  "pre_tokenizer": {
    "type": "ByteLevel",
    "add_prefix_space": false,
    "trim_offsets": true,
    "use_regex": true
  },
  "post_processor": {
    "type": "ByteLevel",
    "add_prefix_space": true,
    "trim_offsets": false,
    "use_regex": true
  },
  "decoder": {
    "type": "ByteLevel",
    "add_prefix_space": true,
    "trim_offsets": true,
    "use_regex": true
  },
  "model": {
    "type": "BPE",
    "dropout": null,
    "unk_token": null,
    "continuing_subword_prefix": "",
    "end_of_word_suffix": "",
    "fuse_unk": false,
    "byte_fallback": false,
    "vocab": {
      ">|txetfodne|<": 0,
      "!": 1,
      "\"": 2,
      "#": 3,
      "$": 4,
      "%": 5,
      "&": 6,
      "'": 7,
      "(": 8,
      ")": 9,
      "*": 10,
      "+": 11,
      ",": 12,
      "-": 13,
      ".": 14,
      "/": 15,
      "0": 16,
      "1": 17,
      "2": 18,
      "3": 19,
      "4": 20,
      "5": 21,
      "6": 22,
      "7": 23,
      "8": 24,
      "9": 25,
      ":": 26,
      ";": 27,
      "<": 28,
      "=": 29,
      ">": 30,
      "?": 31,
      "@": 32,
      "A": 33,
      "B": 34,
      "C": 35,
      "D": 36,
      "E": 37,
      "F": 38,
      "G": 39,
      "H": 40,
      "I": 41,
      "J": 42,
      "K": 43,
      "L": 44,
      "M": 45,
      "N": 46,
      "O": 47,
      "P": 48,
      "Q": 49,
      "R": 50,
      "S": 51,
      "T": 52,
      "U": 53,
      "V": 54,
      "W": 55,
      "X": 56,
      "Y": 57,
      "Z": 58,
      "[": 59,
      "\\": 60,
      "]": 61,
      "^": 62,
      "_": 63,
      "`": 64,
      "a": 65,
      "b": 66,
      "c": 67,
      "d": 68,
      "e": 69,
      "f": 70,
      "g": 71,
      "h": 72,
      "i": 73,
      "j": 74,
      "k": 75,
      "l": 76,
      "m": 77,
      "n": 78,
      "o": 79,
      "p": 80,
      "q": 81,
      "r": 82,
      "s": 83,
      "t": 84,
      "u": 85,
      "v": 86,
      "w": 87,
      "x": 88,
      "y": 89,
      "z": 90,
      "{": 91,
      "|": 92,
      "}": 93,
      "~": 94,
      "¡": 95,
      "¢": 96,
      "£": 97,
      "¤": 98,
      "¥": 99,
      "¦": 100,
      "§": 101,
      "¨": 102,
      "©": 103,
      "ª": 104,
      "«": 105,
      "¬": 106,
      "®": 107,
      "¯": 108,
      "°": 109,
      "±": 110,
      "²": 111,
      "³": 112,
      "´": 113,
      "µ": 114,
      "¶": 115,
      "·": 116,
      "¸": 117,
      "¹": 118,
      "º": 119,
      "»": 120,
      "¼": 121,
      "½": 122,
      "¾": 123,
      "¿": 124,
      "À": 125,
      "Á": 126,
      "Â": 127,
      "Ã": 128,
      "Ä": 129,
      "Å": 130,
      "Æ": 131,
      "Ç": 132,
      "È": 133,
      "É": 134,
      "Ê": 135,
      "Ë": 136,
      "Ì": 137,
      "Í": 138,
      "Î": 139,
      "Ï": 140,
      "Ð": 141,
      "Ñ": 142,
      "Ò": 143,
      "Ó": 144,
      "Ô": 145,
      "Õ": 146,
      "Ö": 147,
      "×": 148,
      "Ø": 149,
      "Ù": 150,
      "Ú": 151,
      "Û": 152,
      "Ü": 153,
      "Ý": 154,
      "Þ": 155,
      "ß": 156,
      "à": 157,
      "á": 158,
      "â": 159,
      "ã": 160,
      "ä": 161,
      "å": 162,
      "æ": 163,
      "ç": 164,
      "è": 165,
      "é": 166,
      "ê": 167,
      "ë": 168,
      "ì": 169,
      "í": 170,
      "î": 171,
      "ï": 172,
      "ð": 173,
      "ñ": 174,
      "ò": 175,
      "ó": 176,
      "ô": 177,
      "õ": 178,
      "ö": 179,
      "÷": 180,
      "ø": 181,
      "ù": 182,
      "ú": 183,
      "û": 184,
      "ü": 185,
      "ý": 186,
      "þ": 187,
      "ÿ": 188,
      "Ā": 189,
      "ā": 190,
      "Ă": 191,
      "ă": 192,
      "Ą": 193,
      "ą": 194,
      "Ć": 195,
      "ć": 196,
      "Ĉ": 197,
      "ĉ": 198,
      "Ċ": 199,
      "ċ": 200,
      "Č": 201,
      "č": 202,
      "Ď": 203,
      "ď": 204,
      "Đ": 205,
      "đ": 206,
      "Ē": 207,
      "ē": 208,
      "Ĕ": 209,
      "ĕ": 210,
      "Ė": 211,
      "ė": 212,
      "Ę": 213,
      "ę": 214,
      "Ě": 215,
      "ě": 216,
      "Ĝ": 217,
      "ĝ": 218,
      "Ğ": 219,
      "ğ": 220,
      "Ġ": 221,
      "ġ": 222,
      "Ģ": 223,
      "ģ": 224,
      "Ĥ": 225,
      "ĥ": 226,
      "Ħ": 227,
      "ħ": 228,
      "Ĩ": 229,
      "ĩ": 230,
      "Ī": 231,
      "ī": 232,
      "Ĭ": 233,
      "ĭ": 234,
      "Į": 235,
      "į": 236,
      "İ": 237,
      "ı": 238,
      "Ĳ": 239,
      "ĳ": 240,
      "Ĵ": 241,
      "ĵ": 242,
      "Ķ": 243,
      "ķ": 244,
      "ĸ": 245,
      "Ĺ": 246,
      "ĺ": 247,
      "Ļ": 248,
      "ļ": 249,
      "Ľ": 250,
      "ľ": 251,
      "Ŀ": 252,
      "ŀ": 253,
      "Ł": 254,
      "ł": 255,
      "Ń": 256,
      "Ġe": 257,
      "Ġs": 258,
      "ht": 259,
      "Ġd": 260,
      "ni": 261,
      "re": 262,
      "na": 263,
      "Ġt": 264,
      "no": 265,
      "Ġ,": 266,
      "Ġeht": 267,
      "ne": 268,
      "Ġy": 269,
      "ro": 270,
      "ra": 271,
      "Ġde": 272,
      "la": 273,
      "Ġo": 274,
      "it": 275,
      "Ġf": 276,
      "uo": 277,
      "Ġfo": 278,
      "Ġa": 279,
      "er": 280,
      "gni": 281,
      "Ġdna": 282,
      "Ġre": 283,
      "Ġ.": 284,
      "Ġni": 285,
      "ts": 286,
      "Ġgni": 287,
      "Ġno": 288,
      "Ġot": 289,
      "ci": 290,
      "Ġsa": 291,
      "mo": 292,
      "ta": 293,
      "se": 294,
      "le": 295,
      "Ġeh": 296,
      "ih": 297,
      "Ġse": 298,
      "ca": 299,
      "ti": 300,
      "Ġna": 301,
      "lo": 302,
      "li": 303,
      "si": 304,
      "Ġla": 305,
      "ma": 306,
      "Ġta": 307,
      "Ġro": 308,
      "sa": 309,
      "ru": 310,
      "hc": 311,
      "or": 312,
      "Ġht": 313,
      "Ġsaw": 314,
      "el": 315,
      "ita": 316,
      "Ġsi": 317,
      "Ġn": 318,
      "wo": 319,
      "ce": 320,
      "Ġne": 321,
      "91": 322,
      "ir": 323,
      "ri": 324,
      "me": 325,
      "Ġl": 326,
      "da": 327,
      "Ġh": 328,
      "Ġk": 329,
      "is": 330,
      "nu": 331,
      "su": 332,
      "02": 333,
      "Ġyl": 334,
      "Ġi": 335,
      "tne": 336,
      "ga": 337,
      "hw": 338,
      "il": 339,
      "iw": 340,
      "id": 341,
      "po": 342,
      "ĠehT": 343,
      "ah": 344,
      "Ġrof": 345,
      "te": 346,
      "Ġev": 347,
      "Ġel": 348,
      "rev": 349,
      "Ġhtiw": 350,
      "ba": 351,
      "so": 352,
      "Ġm": 353,
      "rf": 354,
      "Ġsih": 355,
      "Ġmo": 356,
      "Ġtaht": 357,
      "hg": 358,
      "nuo": 359,
      "pa": 360,
      "Ġyb": 361,
      "Ġtne": 362,
      "lu": 363,
      "Ġere": 364,
      "de": 365,
      "lp": 366,
      "âĢ": 367,
      "oo": 368,
      "Ġti": 369,
      "es": 370,
      "ya": 371,
      "noc": 372,
      "ed": 373,
      "co": 374,
      "ub": 375,
      "rof": 376,
      "ret": 377,
      "eb": 378,
      "Ġmorf": 379,
      "rt": 380,
      "moc": 381,
      "rae": 382,
      "noita": 383,
      "orp": 384,
      "dna": 385,
      "Ġp": 386,
      "us": 387,
      "Ġya": 388,
      "xe": 389,
      "Ġec": 390,
      "Ġnoita": 391,
      "ruo": 392,
      "we": 393,
      "ps": 394,
      "vo": 395,
      "Ġ)": 396,
      "Ġreh": 397,
      "âĢĵ": 398,
      "ve": 399,
      "Ġdet": 400,
      "eht": 401,
      "''": 402,
      "lc": 403,
      "``": 404,
      "Ġ``": 405,
      "ka": 406,
      "di": 407,
      "rg": 408,
      "mu": 409,
      "nia": 410,
      "rts": 411,
      "ser": 412,
      "Ġdl": 413,
      "Ġg": 414,
      "Ġsre": 415,
      "Ġhc": 416,
      "sre": 417,
      "cu": 418,
      "Ġ|": 419,
      "uq": 420,
      "on": 421,
      "Ġnoit": 422,
      "hs": 423,
      "Ġlla": 424,
      "ff": 425,
      "Ġci": 426,
      "tS": 427,
      "gi": 428,
      "mi": 429,
      "102": 430,
      "Ġreht": 431,
      "002": 432,
      "Ġehs": 433,
      "noit": 434,
      "Ġret": 435,
      "rap": 436,
      "Ġeta": 437,
      "Ġtuo": 438,
      "lla": 439,
      "cit": 440,
      "to": 441,
      "Ġdah": 442,
      "Ġuo": 443,
      "Ġeno": 444,
      "Ġera": 445,
      "Ġwo": 446,
      "Ġyti": 447,
      "Ġem": 448,
      "Ġts": 449,
      "in": 450,
      "pe": 451,
      "Ġst": 452,
      "va": 453,
      "Ġdeta": 454,
      "Ġthg": 455,
      "Ġeb": 456,
      "Ġ:": 457,
      "Ġuoy": 458,
      "Ġerew": 459,
      "hC": 460,
      "Ġos": 461,
      "cne": 462,
      "lb": 463,
      "Ġra": 464,
      "Ġri": 465,
      "du": 466,
      "cer": 467,
      "ĠnI": 468,
      "et": 469,
      "81": 470,
      "Ġtub": 471,
      "row": 472,
      "Ġdluo": 473,
      "Ġwe": 474,
      "Ġreb": 475,
      "do": 476,
      "wa": 477,
      "Ġ\"": 478,
      "Ġ0": 479,
      "Ġte": 480,
      "Ġyra": 481,
      "rep": 482,
      "eh": 483,
      "vi": 484,
      "tse": 485,
      "Ġhci": 486,
      "fe": 487,
      "nI": 488,
      "Ġema": 489,
      "Ġle": 490,
      "gna": 491,
      "dne": 492,
      "tsi": 493,
      "tu": 494,
      "Ġtse": 495,
      "nam": 496,
      "Ġym": 497,
      "Ġda": 498,
      "Ġ||": 499,
      "fa": 500,
      "go": 501,
      "Ġnwo": 502,
      "Ġhcihw": 503,
      "Ġylla": 504,
      "Ġton": 505,
      "rop": 506,
      "rp": 507,
      "rem": 508,
      "Ġhg": 509,
      "rif": 510,
      "ew": 511,
      "hsi": 512,
      "ia": 513,
      "ua": 514,
      "dra": 515,
      "Ġ,)": 516,
      "nil": 517,
      "ep": 518,
      "res": 519,
      "op": 520,
      "Ġevah": 521,
      "Ġma": 522,
      "rut": 523,
      "em": 524,
      "Ġkca": 525,
      "nk": 526,
      "rb": 527,
      "ila": 528,
      "lli": 529,
      "Ġ1": 530,
      "991": 531,
      "yalp": 532,
      "Ġdra": 533,
      "Ġega": 534,
      "dis": 535,
      "Ġsiht": 536,
      "cs": 537,
      "Ġnia": 538,
      "ĠâĢĵ": 539,
      "if": 540,
      "cna": 541,
      "Ġosla": 542,
      "tsa": 543,
      "ĠeH": 544,
      "Ġsti": 545,
      "lle": 546,
      "dro": 547,
      "bo": 548,
      "Ġdek": 549,
      "pmoc": 550,
      "Ġgno": 551,
      "rA": 552,
      "wt": 553,
      "Ġ2": 554,
      "Ġpu": 555,
      "Ġdnuo": 556,
      "iv": 557,
      "og": 558,
      "ssa": 559,
      "Ġsu": 560,
      "raM": 561,
      "Ġes": 562,
      "Ġsah": 563,
      "lA": 564,
      "Ġyeht": 565,
      "Ġ5": 566,
      "Ġhguo": 567,
      "Ġek": 568,
      "Ġrieht": 569,
      "Ġmih": 570,
      "Ġtna": 571,
      "Ġtsrif": 572,
      "Ġrehto": 573,
      "Ġruo": 574,
      "Ġeg": 575,
      "Ġemo": 576,
      "oc": 577,
      "dnu": 578,
      "nim": 579,
      "Ġero": 580,
      "en": 581,
      "Ġohw": 582,
      "ĠA": 583,
      "Ġtsa": 584,
      "ĠĊ": 585,
      "ob": 586,
      "Ġrebme": 587,
      "ihs": 588,
      "hta": 589,
      "Ġsei": 590,
      "nif": 591,
      "ef": 592,
      "nret": 593,
      "cnere": 594,
      "Ġ;": 595,
      "mrof": 596,
      "llo": 597,
      "Ġgnit": 598,
      "Ġtsu": 599,
      "cud": 600,
      "Ġtnem": 601,
      "sse": 602,
      "Ġ4": 603,
      "noi": 604,
      "Ġ-": 605,
      "Ġeu": 606,
      "Ġneeb": 607,
      "Ġsk": 608,
      "Ġ3": 609,
      "Ġnaci": 610,
      "Ġlle": 611,
      "raey": 612,
      "remA": 613,
      "ceb": 614,
      "Ġtso": 615,
      "nA": 616,
      "rd": 617,
      "Ġlanoita": 618,
      "pma": 619,
      "Ġsse": 620,
      "feR": 621,
      "Ġ6": 622,
      "lia": 623,
      "tta": 624,
      "tnec": 625,
      "erp": 626,
      "Ġden": 627,
      "Ġeca": 628,
      "Ġotni": 629,
      "Ġeci": 630,
      "cnerefeR": 631,
      "891": 632,
      "hT": 633,
      "ram": 634,
      "lg": 635,
      "sid": 636,
      "Ġlai": 637,
      "Ġstne": 638,
      "Ġnai": 639,
      "lf": 640,
      "ut": 641,
      "gno": 642,
      "Ġdluow": 643,
      "rF": 644,
      "pp": 645,
      "Ġ7": 646,
      "Ġsuo": 647,
      "ohc": 648,
      "dnuo": 649,
      "Ġhsi": 650,
      "ces": 651,
      "Ġdeti": 652,
      "loc": 653,
      "era": 654,
      "serp": 655,
      "hca": 656,
      "Ġdia": 657,
      "ge": 658,
      "ot": 659,
      "lif": 660,
      "sed": 661,
      "ĠtI": 662,
      "Ġecne": 663,
      "mmoc": 664,
      "Ġlaci": 665,
      "sna": 666,
      "Ġme": 667,
      "lbu": 668,
      "Ġrevo": 669,
      "Ġnehw": 670,
      "secnerefeR": 671,
      "Ġlo": 672,
      "Ġeni": 673,
      "ĠĠ": 674,
      "Ġnoi": 675,
      "srev": 676,
      "Ġgnik": 677,
      "Ġyt": 678,
      "sk": 679,
      "nU": 680,
      "Ġ8": 681,
      "Ġeda": 682,
      "uA": 683,
      "hp": 684,
      "moC": 685,
      "ug": 686,
      "Ġelba": 687,
      "cni": 688,
      "Ġowt": 689,
      "Ġx": 690,
      "Ġtsi": 691,
      "Ġkoo": 692,
      "791": 693,
      "nE": 694,
      "fo": 695,
      "Ġyle": 696,
      "ĠnaciremA": 697,
      "lcni": 698,
      "rot": 699,
      "reb": 700,
      "st": 701,
      "Ġtuoba": 702,
      "Ġretfa": 703,
      "tnoc": 704,
      "ye": 705,
      "Ġeka": 706,
      "xE": 707,
      "Ġli": 708,
      "ffo": 709,
      "tir": 710,
      "Ġeru": 711,
      "its": 712,
      "wor": 713,
      "bu": 714,
      "Ġerom": 715,
      "ihc": 716,
      "lim": 717,
      "Ġod": 718,
      "raP": 719,
      "za": 720,
      "Ġemit": 721,
      "Ġnam": 722,
      "vres": 723,
      "inU": 724,
      "Ġai": 725,
      "reht": 726,
      "Ġeer": 727,
      "yt": 728,
      "Ġtahw": 729,
      "Ġecna": 730,
      "Ġet": 731,
      "nna": 732,
      "Ġese": 733,
      "pu": 734,
      "dulcni": 735,
      "Ġdoo": 736,
      "Ġdesa": 737,
      "Ġneht": 738,
      "Ġlli": 739,
      "Ġdias": 740,
      "Ġgniru": 741,
      "rots": 742,
      "Ġreta": 743,
      "nom": 744,
      "poep": 745,
      "col": 746,
      "rob": 747,
      "Ġdlo": 748,
      "reve": 749,
      "Ġereht": 750,
      "Ġ9": 751,
      "ihw": 752,
      "Ġsnoita": 753,
      "691": 754,
      "Ġeso": 755,
      "Ġon": 756,
      "Ġesu": 757,
      "ĠweN": 758,
      "rht": 759,
      "Ġdere": 760,
      "ger": 761,
      "eL": 762,
      "ppa": 763,
      "Ġ''": 764,
      "od": 765,
      "teb": 766,
      "ceps": 767,
      "Ġed": 768,
      "Ġdid": 769,
      "Ġ?": 770,
      "lop": 771,
      "zi": 772,
      "Ġgniht": 773,
      "leh": 774,
      "Ġylno": 775,
      "Ġyaw": 776,
      "mer": 777,
      "ys": 778,
      "Ġer": 779,
      "Ġekil": 780,
      "noC": 781,
      "nois": 782,
      "Ġkcab": 783,
      "00": 784,
      "Ġdluoc": 785,
      "Ġew": 786,
      "les": 787,
      "yti": 788,
      "itne": 789,
      "Ġnac": 790,
      "Ġdehsi": 791,
      "Ġseta": 792,
      "Ġerehw": 793,
      "dnal": 794,
      "Ġsgni": 795,
      "ngi": 796,
      "Ġdesu": 797,
      "Ġnois": 798,
      "too": 799,
      "dno": 800,
      "Ġyna": 801,
      "dni": 802,
      "ho": 803,
      "ira": 804,
      "yl": 805,
      "loC": 806,
      "pi": 807,
      "Ġfi": 808,
      "rats": 809,
      "ol": 810,
      "tna": 811,
      "iti": 812,
      "Ġhca": 813,
      "neg": 814,
      "kca": 815,
      "emo": 816,
      "ĊĊ": 817,
      "man": 818,
      "irc": 819,
      "golo": 820,
      "Ġll": 821,
      "nuoc": 822,
      "Ġgnin": 823,
      "gne": 824,
      "Ġerof": 825,
      "Ġtsom": 826,
      "Ġsnoit": 827,
      "ria": 828,
      "ur": 829,
      "491": 830,
      "erc": 831,
      "nuoC": 832,
      "Ġhtuo": 833,
      "srevinU": 834,
      "orP": 835,
      "ĠdetinU": 836,
      "suo": 837,
      "Ġllab": 838,
      "liub": 839,
      "ico": 840,
      "591": 841,
      "Ġsna": 842,
      "71": 843,
      "ar": 844,
      "Ġpo": 845,
      "im": 846,
      "Ġmeht": 847,
      "roN": 848,
      "Ġyr": 849,
      "lima": 850,
      "ai": 851,
      "Ġmu": 852,
      "Âł": 853,
      "ĠI": 854,
      "caf": 855,
      "Ġreve": 856,
      "retni": 857,
      "eS": 858,
      "Ġdel": 859,
      "Ġnaht": 860,
      "Ġdne": 861,
      "tnem": 862,
      "yo": 863,
      "cele": 864,
      "iD": 865,
      "ks": 866,
      "Ġesa": 867,
      "Ġedam": 868,
      "Ġdno": 869,
      "Ġlanret": 870,
      "dlo": 871,
      "ced": 872,
      "ek": 873,
      "ral": 874,
      "roW": 875,
      "Ġ'": 876,
      "iL": 877,
      "sla": 878,
      "tam": 879,
      "Ġ.)": 880,
      "Ġrae": 881,
      "rus": 882,
      "Ã©": 883,
      "lbup": 884,
      "Ġeti": 885,
      "rT": 886,
      "lev": 887,
      "cA": 888,
      "rG": 889,
      "sne": 890,
      "Ġtsuj": 891,
      "hS": 892,
      "Ġedis": 893,
      "Ġneew": 894,
      "Ġsla": 895,
      "Ġemos": 896,
      "irt": 897,
      "pm": 898,
      "Ġerofeb": 899,
      "nwo": 900,
      "revo": 901,
      "om": 902,
      "Ġhguorht": 903,
      "rac": 904,
      "sit": 905,
      "01": 906,
      "irB": 907,
      "Ġyrau": 908,
      "gro": 909,
      "tni": 910,
      "cudorp": 911,
      "rc": 912,
      "saes": 913,
      "sop": 914,
      "Ġecni": 915,
      "parg": 916,
      "Ġcit": 917,
      "ss": 918,
      "vorp": 919,
      "rahc": 920,
      "Ġgnita": 921,
      "Ġsp": 922,
      "bus": 923,
      "ja": 924,
      "sum": 925,
      "pS": 926,
      "Ġwon": 927,
      "Ġnoisi": 928,
      "ĠlanretxE": 929,
      "Ġneewteb": 930,
      "Ġnrob": 931,
      "Ġela": 932,
      "Ġwen": 933,
      "eni": 934,
      "Ġsya": 935,
      "thg": 936,
      "tirw": 937,
      "ev": 938,
      "wollo": 939,
      "sim": 940,
      "Ġdnal": 941,
      "lba": 942,
      "ruc": 943,
      "Ġevit": 944,
      "rB": 945,
      "Ġser": 946,
      "ĠnO": 947,
      "ida": 948,
      "ĠC": 949,
      "gis": 950,
      "Ġgnirud": 951,
      "rutnec": 952,
      "rib": 953,
      "emos": 954,
      "391": 955,
      "niaga": 956,
      "bme": 957,
      "cirts": 958,
      "Ġsm": 959,
      "rub": 960,
      "toof": 961,
      "irp": 962,
      "kci": 963,
      "hoJ": 964,
      "Ġthgir": 965,
      "eler": 966,
      "Ġnre": 967,
      "eg": 968,
      "limaf": 969,
      "Ġnet": 970,
      "Ġevita": 971,
      "Ġloohc": 972,
      "ĠsihT": 973,
      "sei": 974,
      "vom": 975,
      "Ġllew": 976,
      "curts": 977,
      "Ġnot": 978,
      "Ġdi": 979,
      "htiw": 980,
      "Ġnwod": 981,
      "ĠytisrevinU": 982,
      "lgnE": 983,
      "gnis": 984,
      "Ġef": 985,
      "cS": 986,
      "..": 987,
      "yh": 988,
      "Ġu": 989,
      "61": 990,
      "cerid": 991,
      "geb": 992,
      "Ġder": 993,
      "Ġgnieb": 994,
      "roF": 995,
      "Ġyro": 996,
      "raC": 997,
      "Ġtsniaga": 998,
      "lP": 999,
      "cif": 1000,
      "mun": 1001,
      "ha": 1002,
      "fer": 1003,
      "Ġwa": 1004,
      "ron": 1005,
      "Ġnwonk": 1006,
      "erg": 1007,
      "Ġlliw": 1008,
      "Ġnos": 1009,
      "reG": 1010,
      "orb": 1011,
      "cej": 1012,
      "cel": 1013,
      "ler": 1014,
      "yna": 1015,
      "Ġeva": 1016,
      "vit": 1017,
      "vni": 1018,
      "Ġhcus": 1019,
      "ĠâĢ": 1020,
      "Ġeerht": 1021,
      "leb": 1022,
      "cca": 1023,
      "Ġrednu": 1024,
      "ie": 1025,
      "lupo": 1026,
      "Ġgniv": 1027,
      "Ġelb": 1028,
      "Ġelt": 1029,
      "ehT": 1030,
      "ms": 1031,
      "wollof": 1032,
      "Ġtrap": 1033,
      "ib": 1034,
      "Ġelihw": 1035,
      "sm": 1036,
      "nne": 1037,
      "Ġthguo": 1038,
      "eta": 1039,
      "Ġdnuora": 1040,
      "niop": 1041,
      "Ġesua": 1042,
      "tsis": 1043,
      "ĠS": 1044,
      "pac": 1045,
      "uJ": 1046,
      "idnI": 1047,
      "erb": 1048,
      "51": 1049,
      "eu": 1050,
      "Ġteg": 1051,
      "Ġlit": 1052,
      "tuo": 1053,
      "ets": 1054,
      "Ġynam": 1055,
      "mit": 1056,
      "Ġdaeh": 1057,
      "ubla": 1058,
      "dl": 1059,
      "mow": 1060,
      "ool": 1061,
      "ig": 1062,
      "Ġrot": 1063,
      "Ġtu": 1064,
      "llac": 1065,
      "calp": 1066,
      "Ġssa": 1067,
      "ls": 1068,
      "sknil": 1069,
      "ĠlanoitaN": 1070,
      "Ġlare": 1071,
      "nni": 1072,
      "lbatse": 1073,
      "Ġ%": 1074,
      "liW": 1075,
      "not": 1076,
      "Ġsel": 1077,
      "erG": 1078,
      "hsa": 1079,
      "lC": 1080,
      "Ġtneme": 1081,
      "naC": 1082,
      "Ġlitnu": 1083,
      "Ġkrow": 1084,
      "Ġneve": 1085,
      "citi": 1086,
      "Ġesuo": 1087,
      "Ġffo": 1088,
      "sir": 1089,
      "Ġemaceb": 1090,
      "Ġtf": 1091,
      "doo": 1092,
      "pargo": 1093,
      "Ġhsit": 1094,
      "nuJ": 1095,
      "sreyalp": 1096,
      "Ġelpoep": 1097,
      "rec": 1098,
      "Ġretal": 1099,
      "Ġhtob": 1100,
      "repo": 1101,
      "cO": 1102,
      "suM": 1103,
      "ko": 1104,
      "Ġkci": 1105,
      "siv": 1106,
      "fA": 1107,
      "hci": 1108,
      "uorg": 1109,
      "naJ": 1110,
      "eG": 1111,
      "Ġdeb": 1112,
      "eD": 1113,
      "Ġsraey": 1114,
      "Ġpihs": 1115,
      "dA": 1116,
      "Ġhta": 1117,
      "Ġto": 1118,
      "tsiH": 1119,
      "Ġwonk": 1120,
      "ĠdlroW": 1121,
      "eP": 1122,
      "Ġwoh": 1123,
      "Ġlu": 1124,
      "rO": 1125,
      "ĠehS": 1126,
      "Ġgnika": 1127,
      "Ġdene": 1128,
      "Ġsdra": 1129,
      "Ġ,\"": 1130,
      "trop": 1131,
      "tro": 1132,
      "ciffo": 1133,
      "Ġhguoht": 1134,
      "los": 1135,
      "tpe": 1136,
      "291": 1137,
      "lupop": 1138,
      "Ġdenia": 1139,
      "voN": 1140,
      "Ġdnoces": 1141,
      "um": 1142,
      "Ġsema": 1143,
      "Ġz": 1144,
      "Ġsro": 1145,
      "lB": 1146,
      "Ġruoy": 1147,
      "Ġgnidulcni": 1148,
      "rotsih": 1149,
      "Ġ&": 1150,
      "noipma": 1151,
      "roY": 1152,
      "rbe": 1153,
      "oj": 1154,
      "Ġgnid": 1155,
      "irts": 1156,
      "21": 1157,
      "rP": 1158,
      "ceD": 1159,
      "loP": 1160,
      "til": 1161,
      "Ġen": 1162,
      "elpoep": 1163,
      "nai": 1164,
      "gnahc": 1165,
      "roc": 1166,
      "sht": 1167,
      "ffid": 1168,
      "raeppa": 1169,
      "Ġgniy": 1170,
      "elpmoc": 1171,
      "Ġkoot": 1172,
      "Ġrewo": 1173,
      "rtnoc": 1174,
      "uG": 1175,
      "daer": 1176,
      "Ġyrutnec": 1177,
      "Ġso": 1178,
      "isop": 1179,
      "ega": 1180,
      "Ġllits": 1181,
      "Ġyltne": 1182,
      "rtsuA": 1183,
      "Ġeuga": 1184,
      "gel": 1185,
      "llab": 1186,
      "Ġlau": 1187,
      "sab": 1188,
      "Ġdni": 1189,
      "leved": 1190,
      "sI": 1191,
      "raB": 1192,
      "dnah": 1193,
      ".)": 1194,
      "snoita": 1195,
      "Ġtro": 1196,
      "Ġyrev": 1197,
      "ilartsuA": 1198,
      "pme": 1199,
      "Ġyad": 1200,
      "Ġees": 1201,
      "Ġerut": 1202,
      "srep": 1203,
      "trap": 1204,
      "Ġylrae": 1205,
      "sor": 1206,
      "leif": 1207,
      "ngila": 1208,
      "ec": 1209,
      "Ġred": 1210,
      "Ġesuaceb": 1211,
      "irb": 1212,
      "reS": 1213,
      "raH": 1214,
      "Ġog": 1215,
      "vele": 1216,
      "tso": 1217,
      "Ġdellac": 1218,
      "tpeS": 1219,
      "loohc": 1220,
      "tis": 1221,
      "ĠhtuoS": 1222,
      "12": 1223,
      "tneC": 1224,
      "seta": 1225,
      "reves": 1226,
      "Ġmlif": 1227,
      "giro": 1228,
      "Ġseit": 1229,
      "Ġemas": 1230,
      "revog": 1231,
      "txe": 1232,
      "41": 1233,
      "Ġlanoitanret": 1234,
      "eB": 1235,
      "Ġkni": 1236,
      "citilop": 1237,
      "ĠhsitirB": 1238,
      "nitnoc": 1239,
      "Ġdev": 1240,
      "ĠretfA": 1241,
      "Ġdedne": 1242,
      "eR": 1243,
      "xa": 1244,
      "ter": 1245,
      "31": 1246,
      "ĠnhoJ": 1247,
      "pxe": 1248,
      "irep": 1249,
      "ov": 1250,
      "Ġdenrut": 1251,
      "Ġdraw": 1252,
      "Ġka": 1253,
      "Ġfles": 1254,
      "Ġgnivi": 1255,
      "luf": 1256,
      "lat": 1257,
      "Ġeman": 1258,
      "ruE": 1259,
      "Ġdeyalp": 1260,
      "Ġria": 1261,
      "Ġw": 1262,
      "Ġyam": 1263,
      "Ġdnuof": 1264,
      "raw": 1265,
      "Ġsno": 1266,
      "\"=": 1267,
      "tneserp": 1268,
      "dom": 1269,
      "nev": 1270,
      "Ġtrop": 1271,
      "Ġecnis": 1272,
      "cita": 1273,
      "Ġei": 1274,
      "Ġecalp": 1275,
      "idu": 1276,
      "mih": 1277,
      "noM": 1278,
      "rednu": 1279,
      "ero": 1280,
      "cus": 1281,
      "Ġsd": 1282,
      "naM": 1283,
      "Ġsev": 1284,
      "poleved": 1285,
      "nigiro": 1286,
      "cen": 1287,
      "sser": 1288,
      "ped": 1289,
      "Ġdep": 1290,
      "Ġseye": 1291,
      "Ġniaga": 1292,
      "rpA": 1293,
      "Ġpe": 1294,
      "eps": 1295,
      "duts": 1296,
      "irf": 1297,
      "diser": 1298,
      "taef": 1299,
      "nem": 1300,
      "gu": 1301,
      "shtrib": 1302,
      "nagro": 1303,
      "Ġmaet": 1304,
      "lih": 1305,
      "Ġtes": 1306,
      "Ġgniog": 1307,
      "ssA": 1308,
      "ĠyaM": 1309,
      "dael": 1310,
      "Ġdesab": 1311,
      "tsil": 1312,
      "ruoc": 1313,
      "Ġdehc": 1314,
      "cet": 1315,
      "mmoC": 1316,
      "ĠrebmetpeS": 1317,
      "Ġrem": 1318,
      "Ġylimaf": 1319,
      "hgih": 1320,
      "Ġrebmun": 1321,
      "eH": 1322,
      "ĠâĢĶ": 1323,
      "Ġlanoit": 1324,
      "Ġsret": 1325,
      "Ġesi": 1326,
      "nummoc": 1327,
      "ĠyraunaJ": 1328,
      "snart": 1329,
      "Ġeseht": 1330,
      "iB": 1331,
      "Ġdesaeler": 1332,
      "red": 1333,
      "091": 1334,
      "ĠhcraM": 1335,
      "hgi": 1336,
      "Ġrebot": 1337,
      "danaC": 1338,
      "eno": 1339,
      "ĠrebotcO": 1340,
      "Ġhcum": 1341,
      "ecna": 1342,
      "tsys": 1343,
      "nrevog": 1344,
      "hto": 1345,
      "Ġtfel": 1346,
      "peR": 1347,
      "Ġhcae": 1348,
      "Ġdleh": 1349,
      "pus": 1350,
      "epo": 1351,
      "nar": 1352,
      "Ġlareves": 1353,
      "Ġke": 1354,
      "Ġedi": 1355,
      "naw": 1356,
      "Ġecaf": 1357,
      "Ġyel": 1358,
      "Ġraey": 1359,
      "geR": 1360,
      "ĠeeS": 1361,
      "Ġemoc": 1362,
      "uS": 1363,
      "rahC": 1364,
      "lah": 1365,
      "luc": 1366,
      "ĠsA": 1367,
      "roC": 1368,
      "morp": 1369,
      "reh": 1370,
      "Ġnageb": 1371,
      "idem": 1372,
      "ĠenuJ": 1373,
      "dnats": 1374,
      "Ġenil": 1375,
      "Ġha": 1376,
      "reta": 1377,
      "drocer": 1378,
      "ceR": 1379,
      "Ġtxe": 1380,
      "-|": 1381,
      "Ġrev": 1382,
      "Ġtsug": 1383,
      "Ġefil": 1384,
      "raeh": 1385,
      "Ġdevi": 1386,
      "Ġani": 1387,
      "Ġyawa": 1388,
      "civ": 1389,
      "oC": 1390,
      "erac": 1391,
      "ffa": 1392,
      "Ġereh": 1393,
      "uos": 1394,
      "ĠyluJ": 1395,
      "Ġnow": 1396,
      "Ġluf": 1397,
      "Ġekam": 1398,
      "stne": 1399,
      "ĠlirpA": 1400,
      "Ġelo": 1401,
      "neG": 1402,
      "rup": 1403,
      "Ġbu": 1404,
      "Ġniat": 1405,
      "Ġngi": 1406,
      "Ġste": 1407,
      "Ġez": 1408,
      "ĠtsuguA": 1409,
      "sy": 1410,
      "vid": 1411,
      "Ġruof": 1412,
      "nab": 1413,
      "solc": 1414,
      "irav": 1415,
      "Ġgnire": 1416,
      "Ġnreht": 1417,
      "eT": 1418,
      "revewo": 1419,
      "kco": 1420,
      "Ġtno": 1421,
      "niM": 1422,
      "ĠrebmevoN": 1423,
      "oR": 1424,
      "Ġgnol": 1425,
      "Ġtsal": 1426,
      "Ġ02": 1427,
      "Ġ...": 1428,
      "rab": 1429,
      "ref": 1430,
      "uqer": 1431,
      "ĠrebmeceD": 1432,
      "Ġ.\"": 1433,
      "Ġekat": 1434,
      "sub": 1435,
      "Ġreven": 1436,
      "Ġdesi": 1437,
      "snoit": 1438,
      "Ġremrof": 1439,
      "Ġtca": 1440,
      "Ġsnia": 1441,
      "dnuof": 1442,
      "nos": 1443,
      "rbeF": 1444,
      "eM": 1445,
      "dob": 1446,
      "ircsed": 1447,
      "ihW": 1448,
      "Ġmrof": 1449,
      "dE": 1450,
      "nosaes": 1451,
      "dem": 1452,
      "yts": 1453,
      "paJ": 1454,
      "Ġrehta": 1455,
      "Ġdec": 1456,
      "forp": 1457,
      "rotsiH": 1458,
      "Ġrehtona": 1459,
      "ea": 1460,
      "ert": 1461,
      "rtsi": 1462,
      "Ġb": 1463,
      "ĠĠĠĠ": 1464,
      "ecer": 1465,
      "irP": 1466,
      "Ġseires": 1467,
      "nur": 1468,
      "edi": 1469,
      "Ġelpo": 1470,
      "med": 1471,
      "itra": 1472,
      "Ġgniwollof": 1473,
      "hgua": 1474,
      "yS": 1475,
      "os": 1476,
      "ĠsetatS": 1477,
      "'t": 1478,
      "981": 1479,
      "suR": 1480,
      "ssec": 1481,
      "Ġswo": 1482,
      "Ġssor": 1483,
      "'re": 1484,
      "luser": 1485,
      "Ġesoht": 1486,
      "elb": 1487,
      "sac": 1488,
      "Ġ000": 1489,
      "noipmahC": 1490,
      "Ġdedi": 1491,
      "pihs": 1492,
      "Ġloohcs": 1493,
      "11": 1494,
      "ugna": 1495,
      "Ġsma": 1496,
      "mA": 1497,
      "rgorp": 1498,
      "Ġdeir": 1499,
      "oB": 1500,
      "ceS": 1501,
      "Ġemoh": 1502,
      "Ġyrt": 1503,
      "lliv": 1504,
      "riht": 1505,
      "tem": 1506,
      "unitnoc": 1507,
      "hguo": 1508,
      "cnu": 1509,
      "liF": 1510,
      "Ġtel": 1511,
      "utits": 1512,
      "Ġtnew": 1513,
      "hW": 1514,
      "Ġoot": 1515,
      "II": 1516,
      "Ġdeman": 1517,
      "boR": 1518,
      "Ġemac": 1519,
      "Ġdro": 1520,
      "ciM": 1521,
      "reB": 1522,
      "ĠhtroN": 1523,
      "ud": 1524,
      "nerF": 1525,
      "Ġgninia": 1526,
      "Ã¡": 1527,
      "Ġdnah": 1528,
      "pser": 1529,
      "lav": 1530,
      "sgni": 1531,
      "ll": 1532,
      "ĠyehT": 1533,
      "ĠetatS": 1534,
      "sro": 1535,
      "car": 1536,
      "ĠyraurbeF": 1537,
      "raW": 1538,
      "ted": 1539,
      "Ġmoor": 1540,
      "'d": 1541,
      "Ġevis": 1542,
      "Ġetats": 1543,
      "tte": 1544,
      "Ġetu": 1545,
      "ei": 1546,
      "citrap": 1547,
      "revoc": 1548,
      "Ġnosaes": 1549,
      "illiW": 1550,
      "ytnuoC": 1551,
      "reP": 1552,
      "mil": 1553,
      "Ġdeni": 1554,
      "Ġsser": 1555,
      "Ġyllau": 1556,
      "inu": 1557,
      "Ġllabtoof": 1558,
      "ĠsiH": 1559,
      "rah": 1560,
      "Ġdehsilbatse": 1561,
      "dda": 1562,
      "nac": 1563,
      "bmem": 1564,
      "Ġtnaw": 1565,
      "Ġgnola": 1566,
      "ganam": 1567,
      "lF": 1568,
      "Ġtcirts": 1569,
      "Ġdeg": 1570,
      "elloC": 1571,
      "ssap": 1572,
      "seR": 1573,
      "ki": 1574,
      "Ġsni": 1575,
      "Ġdetacol": 1576,
      "noisse": 1577,
      "eru": 1578,
      "cM": 1579,
      "Ġylra": 1580,
      "Ġdoog": 1581,
      "Ġdevres": 1582,
      "muh": 1583,
      "nes": 1584,
      "Ġdem": 1585,
      "ĠhsilgnE": 1586,
      "jam": 1587,
      "Ġnoisivele": 1588,
      "reffid": 1589,
      "rfA": 1590,
      "yra": 1591,
      "law": 1592,
      "kna": 1593,
      "Ġdemrof": 1594,
      "kat": 1595,
      "ĠloohcS": 1596,
      "Ġye": 1597,
      "carahc": 1598,
      "Ġstnem": 1599,
      "Ġsne": 1600,
      "ym": 1601,
      "Ġsci": 1602,
      "ĠeugaeL": 1603,
      "Ġstna": 1604,
      "rD": 1605,
      "Ġkniht": 1606,
      "wot": 1607,
      "htaed": 1608,
      "Ġllams": 1609,
      "rruc": 1610,
      "ĠV": 1611,
      "ffe": 1612,
      "pmoC": 1613,
      "ĠD": 1614,
      "lis": 1615,
      "Ġseiti": 1616,
      "Ġrebmem": 1617,
      "Ġdeksa": 1618,
      "Ġthgil": 1619,
      "gam": 1620,
      "tel": 1621,
      "Ġralu": 1622,
      "Ġmi": 1623,
      "mag": 1624,
      "Ġssel": 1625,
      "moR": 1626,
      "fi": 1627,
      "9102": 1628,
      "reneg": 1629,
      "Ġlati": 1630,
      "Ġsle": 1631,
      "ĠtA": 1632,
      "Ġlar": 1633,
      "ĠkroY": 1634,
      "Ġdekool": 1635,
      "Ġ\".": 1636,
      "Ġkco": 1637,
      "881": 1638,
      "lov": 1639,
      "osla": 1640,
      "ird": 1641,
      "Ġwef": 1642,
      "Ġesuoh": 1643,
      "hpargo": 1644,
      "eporuE": 1645,
      "sci": 1646,
      "daeh": 1647,
      "Ġdeid": 1648,
      "Ġthguoht": 1649,
      "wen": 1650,
      "dnoL": 1651,
      "cude": 1652,
      "nimo": 1653,
      "ecne": 1654,
      "wS": 1655,
      "Ġaera": 1656,
      "Ġru": 1657,
      "Ġ!": 1658,
      "tsu": 1659,
      "oob": 1660,
      "vaD": 1661,
      "Ġgnihtemos": 1662,
      "vig": 1663,
      "ehc": 1664,
      "Ġsega": 1665,
      "elc": 1666,
      "tek": 1667,
      "yr": 1668,
      "Ġemag": 1669,
      "roloc": 1670,
      "emit": 1671,
      "tser": 1672,
      "ylO": 1673,
      "meda": 1674,
      "ciremA": 1675,
      "sel": 1676,
      "Ġthgi": 1677,
      "Ġydob": 1678,
      "Ġytila": 1679,
      "meht": 1680,
      "smlif": 1681,
      "Ġtpe": 1682,
      "Ġnais": 1683,
      "Ġdeif": 1684,
      "Ġrehte": 1685,
      "Ġyre": 1686,
      "laW": 1687,
      "lihc": 1688,
      "kcab": 1689,
      "llabtoof": 1690,
      "ke": 1691,
      "raes": 1692,
      "reH": 1693,
      "pmylO": 1694,
      "Ġytic": 1695,
      "htua": 1696,
      "saer": 1697,
      "Ġelttil": 1698,
      "ĠhcnerF": 1699,
      "iduts": 1700,
      "Ġmubla": 1701,
      "Ġhgih": 1702,
      "ĠraW": 1703,
      "hcs": 1704,
      "lef": 1705,
      "Ġgnil": 1706,
      "Ġyli": 1707,
      "Ġtog": 1708,
      "Ġpuorg": 1709,
      "Ġtxen": 1710,
      "setatS": 1711,
      "Ġsyaw": 1712,
      "eW": 1713,
      "Ġeri": 1714,
      "Ġtliub": 1715,
      "ihC": 1716,
      "nhc": 1717,
      "Ġdes": 1718,
      "Ġytili": 1719,
      "03": 1720,
      "Ġseru": 1721,
      "Ġgnisu": 1722,
      "krow": 1723,
      "ugnal": 1724,
      "Ġfe": 1725,
      "Ġkna": 1726,
      "dim": 1727,
      "Ġretsi": 1728,
      "lpxe": 1729,
      "Ġdevom": 1730,
      "Ġyte": 1731,
      "mia": 1732,
      "lup": 1733,
      "fed": 1734,
      "Ġ01": 1735,
      "Ġyrati": 1736,
      "weiv": 1737,
      "disnoc": 1738,
      "Ġnihtiw": 1739,
      "ĠerehT": 1740,
      "Ġren": 1741,
      "gnos": 1742,
      "05": 1743,
      "Ġnwot": 1744,
      "ĠP": 1745,
      "Ġdetrats": 1746,
      "ws": 1747,
      "Ġeud": 1748,
      "Ġsemit": 1749,
      "rag": 1750,
      "cart": 1751,
      "Ġlia": 1752,
      "cip": 1753,
      "napaJ": 1754,
      "Ġhcru": 1755,
      "ppah": 1756,
      "net": 1757,
      "esuo": 1758,
      "Ġrood": 1759,
      "Ġdez": 1760,
      "Ġdluohs": 1761,
      "Ġreg": 1762,
      "lum": 1763,
      "Ġdeviecer": 1764,
      "0102": 1765,
      "ani": 1766,
      "Ġdehsilbup": 1767,
      "Ġcisum": 1768,
      "uQ": 1769,
      "darg": 1770,
      "rdlihc": 1771,
      "Ġtuohtiw": 1772,
      "gnol": 1773,
      "ĠgniviL": 1774,
      "icossA": 1775,
      "tsid": 1776,
      "uqe": 1777,
      "ĠnamreG": 1778,
      "cor": 1779,
      "Ġdnab": 1780,
      "ĠroF": 1781,
      "Ġcita": 1782,
      "Ġyleta": 1783,
      "led": 1784,
      "tan": 1785,
      "Ġylsuo": 1786,
      "non": 1787,
      "Ġyalp": 1788,
      "dloh": 1789,
      "âĢĻ": 1790,
      "eN": 1791,
      "ruf": 1792,
      "teP": 1793,
      "tocS": 1794,
      "Ġlaru": 1795,
      "draw": 1796,
      "gnar": 1797,
      "681": 1798,
      "Ġredro": 1799,
      "Ġevif": 1800,
      "tap": 1801,
      "aw": 1802,
      "dd": 1803,
      "hcS": 1804,
      "liM": 1805,
      "Ġdehca": 1806,
      "Ġlacol": 1807,
      "Ġena": 1808,
      "mono": 1809,
      "erd": 1810,
      "ord": 1811,
      "Ġegral": 1812,
      "itep": 1813,
      "Ġrep": 1814,
      "Ġsehc": 1815,
      "dneped": 1816,
      "Ġnem": 1817,
      "Ġnretse": 1818,
      "Ġderu": 1819,
      "hsu": 1820,
      "Ġep": 1821,
      "Ġyreve": 1822,
      "Ġkool": 1823,
      "deM": 1824,
      "tca": 1825,
      "Ġsta": 1826,
      "ics": 1827,
      "ffO": 1828,
      "Ġygolo": 1829,
      "erts": 1830,
      "781": 1831,
      "nosrep": 1832,
      "elp": 1833,
      "ĠlanoitanretnI": 1834,
      "zinagro": 1835,
      "orppa": 1836,
      "mma": 1837,
      "taw": 1838,
      "Ġgnine": 1839,
      "rua": 1840,
      "Ġthgin": 1841,
      "ĠelpoeP": 1842,
      "nua": 1843,
      "iW": 1844,
      "ĠL": 1845,
      "Ġnoisivelet": 1846,
      "ussi": 1847,
      "did": 1848,
      "vda": 1849,
      "cxe": 1850,
      "tA": 1851,
      "cod": 1852,
      "eci": 1853,
      "Ġgninni": 1854,
      "Ġretaw": 1855,
      "Ġgna": 1856,
      "nuoy": 1857,
      "viD": 1858,
      "Ġgnidro": 1859,
      "Ġana": 1860,
      "loohcs": 1861,
      "cinu": 1862,
      "Ġsec": 1863,
      "yreve": 1864,
      "ssalc": 1865,
      "nisub": 1866,
      "niap": 1867,
      "Ã³": 1868,
      "uqs": 1869,
      "rad": 1870,
      "Ġpa": 1871,
      "Ġdetce": 1872,
      "Ġnoil": 1873,
      "revewoH": 1874,
      "Ġstsi": 1875,
      "Ġcilbup": 1876,
      "tset": 1877,
      "Ġtup": 1878,
      "Ġdero": 1879,
      "iR": 1880,
      "got": 1881,
      "gre": 1882,
      "uB": 1883,
      "Ġtseb": 1884,
      "tot": 1885,
      "Ġydaer": 1886,
      "tsir": 1887,
      "Ġdo": 1888,
      "Ġtnereffid": 1889,
      "ac": 1890,
      "Ġepo": 1891,
      "Ġdewo": 1892,
      "Ġyhw": 1893,
      "laM": 1894,
      "bab": 1895,
      "Ġnrut": 1896,
      "toN": 1897,
      "ĠtseW": 1898,
      "nuonna": 1899,
      "Ġlacit": 1900,
      "ĠgniruD": 1901,
      "Ġtn": 1902,
      "ilaC": 1903,
      "leB": 1904,
      "tit": 1905,
      "1102": 1906,
      "Ġegd": 1907,
      "Ġdecalp": 1908,
      "roh": 1909,
      "mus": 1910,
      "seD": 1911,
      "Ġraen": 1912,
      "ĠytiC": 1913,
      "ĠR": 1914,
      "von": 1915,
      "SU": 1916,
      "idda": 1917,
      "Ġrehtaf": 1918,
      "Ġdleif": 1919,
      "Ġdengis": 1920,
      "lG": 1921,
      "Ġerus": 1922,
      "roM": 1923,
      "Ġderi": 1924,
      "Ġdelli": 1925,
      "orB": 1926,
      "iler": 1927,
      "uqes": 1928,
      "yb": 1929,
      "Ġkoob": 1930,
      "niat": 1931,
      "Ġniam": 1932,
      "inrof": 1933,
      "Ġtcej": 1934,
      "Ġevo": 1935,
      "rig": 1936,
      "Ġgnos": 1937,
      "Ġrota": 1938,
      "Ġdebircsed": 1939,
      "Ġdetnaw": 1940,
      "Ġdeen": 1941,
      "heb": 1942,
      "oN": 1943,
      "9002": 1944,
      "nruo": 1945,
      "sraey": 1946,
      "itna": 1947,
      "2102": 1948,
      "pmac": 1949,
      "Ġnoitalupop": 1950,
      "ahs": 1951,
      "Ġtnemnrevog": 1952,
      "52": 1953,
      "riv": 1954,
      "Ġpot": 1955,
      "ici": 1956,
      "liv": 1957,
      "Ġroi": 1958,
      "Ġgnivah": 1959,
      "eca": 1960,
      "Ġwas": 1961,
      "kcu": 1962,
      "ip": 1963,
      "Ġseod": 1964,
      "inrofilaC": 1965,
      "sni": 1966,
      "3102": 1967,
      "dluo": 1968,
      "ny": 1969,
      "8002": 1970,
      "Ġlanoitan": 1971,
      "ĠT": 1972,
      "Ġgnidliub": 1973,
      "niF": 1974,
      "Ġelbis": 1975,
      "uoS": 1976,
      "sirp": 1977,
      "ner": 1978,
      "Ġwenk": 1979,
      "Ġdepp": 1980,
      "Ġecno": 1981,
      "4102": 1982,
      "yoR": 1983,
      "Ġhgi": 1984,
      "ĠtsiL": 1985,
      "Ġelgnis": 1986,
      "celloc": 1987,
      "Ġdenepo": 1988,
      "niam": 1989,
      "yad": 1990,
      "erut": 1991,
      "Ġlanif": 1992,
      "7002": 1993,
      "Ġtlef": 1994,
      "ÃŃ": 1995,
      "Ã¼": 1996,
      "worg": 1997,
      "noh": 1998,
      "tac": 1999,
      "erht": 2000,
      "Ġnoitisop": 2001,
      "Ġsdne": 2002,
      "Ġyas": 2003,
      "mef": 2004,
      "wal": 2005,
      "Ġsrebmem": 2006,
      "Ġsn": 2007,
      "Ġyek": 2008,
      "Ġ21": 2009,
      "\".": 2010,
      "saB": 2011,
      "Ġynapmoc": 2012,
      "bA": 2013,
      "Ġetal": 2014,
      "lbupeR": 2015,
      "curtsnoc": 2016,
      "Ġdriht": 2017,
      "Ġtce": 2018,
      "lua": 2019,
      "5102": 2020,
      "gniK": 2021,
      "yaw": 2022,
      "siM": 2023,
      "Ġ,.": 2024,
      "Ġnetfo": 2025,
      "ĠM": 2026,
      "ina": 2027,
      "Ġssorca": 2028,
      "Ġ81": 2029,
      "Ġgnir": 2030,
      "ton": 2031,
      "Ġedo": 2032,
      "miT": 2033,
      "Ġdniheb": 2034,
      "Ġdlrow": 2035,
      "Ġeuq": 2036,
      "ruT": 2037,
      "luci": 2038,
      "weN": 2039,
      "Ġsthg": 2040,
      "Ġdedulcni": 2041,
      "Ġar": 2042,
      "Ġelam": 2043,
      "ruB": 2044,
      "Ġwohs": 2045,
      "yel": 2046,
      "Ġnevig": 2047,
      "Ġmsi": 2048,
      "Ġtra": 2049,
      "lims": 2050,
      "ulf": 2051,
      "revoG": 2052,
      "gb": 2053,
      "meD": 2054,
      "ylla": 2055,
      "6102": 2056,
      "tneserper": 2057,
      "Ġyen": 2058,
      "ediv": 2059,
      "Ġnoitats": 2060,
      "ruot": 2061,
      "tI": 2062,
      "rolocgb": 2063,
      "diserP": 2064,
      "42": 2065,
      "oM": 2066,
      "iM": 2067,
      "sseccus": 2068,
      "yc": 2069,
      "laP": 2070,
      "tib": 2071,
      "dnuorg": 2072,
      "reva": 2073,
      "Ġnemow": 2074,
      "ren": 2075,
      "reboR": 2076,
      "ĠmailliW": 2077,
      "Ġpleh": 2078,
      "rI": 2079,
      "nig": 2080,
      "Ġ12": 2081,
      "ku": 2082,
      "7102": 2083,
      "ahC": 2084,
      "Ġevag": 2085,
      "Ġdnuorg": 2086,
      "Ġata": 2087,
      "6002": 2088,
      "ertS": 2089,
      "Ġdede": 2090,
      "ort": 2091,
      "Ġycne": 2092,
      "dnuor": 2093,
      "rom": 2094,
      "Ġlanigiro": 2095,
      "pso": 2096,
      "ils": 2097,
      "Ġtsew": 2098,
      "Ġama": 2099,
      "tcirts": 2100,
      "Ġegalliv": 2101,
      "Ġnoitamrof": 2102,
      "erf": 2103,
      "Ġdlot": 2104,
      "Ġgnikam": 2105,
      "lovni": 2106,
      "22": 2107,
      "htaC": 2108,
      "Ġegro": 2109,
      "ĠnailartsuA": 2110,
      "Ġtnorf": 2111,
      "ĠĊĠĊ": 2112,
      "Ġgnivil": 2113,
      "tsac": 2114,
      "rtsinim": 2115,
      "paC": 2116,
      "Ġgnis": 2117,
      "Ġyno": 2118,
      "Ġelp": 2119,
      "mad": 2120,
      "Ġgnihc": 2121,
      "Ġseiceps": 2122,
      "8102": 2123,
      "Ġ51": 2124,
      "sno": 2125,
      "nO": 2126,
      "tats": 2127,
      "ssor": 2128,
      ".\"": 2129,
      "iverp": 2130,
      "Ġrojam": 2131,
      "sle": 2132,
      "gg": 2133,
      "yam": 2134,
      "Ġnettirw": 2135,
      "iV": 2136,
      "rauq": 2137,
      "Ġnepo": 2138,
      "Ġgnidne": 2139,
      "Ġdetrop": 2140,
      "ĠK": 2141,
      "Ġeciov": 2142,
      "ĠF": 2143,
      "mohT": 2144,
      "icoS": 2145,
      "Ġflesmih": 2146,
      "Ġdrof": 2147,
      "ere": 2148,
      "hsilbatse": 2149,
      "Ġdekrow": 2150,
      "Ġlanoisse": 2151,
      "sp": 2152,
      "tua": 2153,
      "Ġlaitne": 2154,
      "metsys": 2155,
      "Ġhtaed": 2156,
      "gnA": 2157,
      "ĠnehW": 2158,
      "Ġemoceb": 2159,
      "tsop": 2160,
      "laV": 2161,
      "tropmi": 2162,
      "maC": 2163,
      "efil": 2164,
      "ihsre": 2165,
      "ubir": 2166,
      "Ġdetniop": 2167,
      "muS": 2168,
      "nuoM": 2169,
      "stsi": 2170,
      "rC": 2171,
      "ngised": 2172,
      "ĠnaidnI": 2173,
      "euQ": 2174,
      "vol": 2175,
      "nalp": 2176,
      "diserp": 2177,
      "sae": 2178,
      "sol": 2179,
      "mina": 2180,
      "dliub": 2181,
      "riF": 2182,
      "Ġaci": 2183,
      "Ġyllai": 2184,
      "rtS": 2185,
      "Ġdnif": 2186,
      "ihcra": 2187,
      "sipe": 2188,
      "Ġdeunitnoc": 2189,
      "ppus": 2190,
      "llA": 2191,
      "wT": 2192,
      "veR": 2193,
      "Ġyllaer": 2194,
      "ene": 2195,
      "Ġhtla": 2196,
      "Ġdecudorp": 2197,
      "ĠB": 2198,
      "itsir": 2199,
      "Ġia": 2200,
      "Ġnev": 2201,
      "iF": 2202,
      "icS": 2203,
      "ercs": 2204,
      "ĠnaeporuE": 2205,
      "kam": 2206,
      "Ġlaico": 2207,
      "neS": 2208,
      "Ġetis": 2209,
      "shtaed": 2210,
      "Ġsdnah": 2211,
      "nart": 2212,
      "lbuP": 2213,
      "namrof": 2214,
      "cnuoC": 2215,
      "raeser": 2216,
      "Ġedulcni": 2217,
      "Ġbulc": 2218,
      "siD": 2219,
      "mra": 2220,
      "Ġr": 2221,
      "ĠO": 2222,
      "elyts": 2223,
      "elA": 2224,
      "Ġdeirram": 2225,
      "Ġoida": 2226,
      "ĠlayoR": 2227,
      "Ġrehtegot": 2228,
      "ĠlareneG": 2229,
      "ruoC": 2230,
      "ĠnaS": 2231,
      "ruof": 2232,
      "Ġnees": 2233,
      "Ġeltta": 2234,
      "lE": 2235,
      "ĠesuoH": 2236,
      "ĠenO": 2237,
      "lpme": 2238,
      "moW": 2239,
      "cnarF": 2240,
      "bmu": 2241,
      "Ġwor": 2242,
      "mom": 2243,
      "Ġ91": 2244,
      "Ġtsol": 2245,
      "bew": 2246,
      "Ġlarut": 2247,
      "Ġrewop": 2248,
      "Ġgnoma": 2249,
      "orts": 2250,
      "Ġtsum": 2251,
      "nopser": 2252,
      "mod": 2253,
      "0002": 2254,
      "ĠegelloC": 2255,
      "oP": 2256,
      "rebme": 2257,
      "noisi": 2258,
      "Ġtniop": 2259,
      "sret": 2260,
      "ĠhgiH": 2261,
      "Ġseni": 2262,
      "itini": 2263,
      "laS": 2264,
      "Ġderaeppa": 2265,
      "5002": 2266,
      "Ġdenruter": 2267,
      "itepmoc": 2268,
      "oJ": 2269,
      "bma": 2270,
      "Ġdecnuonna": 2271,
      "wop": 2272,
      "tra": 2273,
      "Ġhguone": 2274,
      "ĠnaidanaC": 2275,
      "Ġ11": 2276,
      "Ġxis": 2277,
      "soJ": 2278,
      "nod": 2279,
      "Ġllet": 2280,
      "picinu": 2281,
      "loohcS": 2282,
      "Ġdenioj": 2283,
      "ez": 2284,
      "Ġgniwo": 2285,
      "32": 2286,
      "ĠsemaJ": 2287,
      "tt": 2288,
      "mialc": 2289,
      "04": 2290,
      "Ġih": 2291,
      "Ġsuoi": 2292,
      "Ġthgim": 2293,
      "ĠE": 2294,
      "bal": 2295,
      "ccA": 2296,
      "Ġnotgni": 2297,
      "tsni": 2298,
      "uce": 2299,
      "tooF": 2300,
      "Ġniw": 2301,
      "uoL": 2302,
      "cco": 2303,
      "tneve": 2304,
      "csid": 2305,
      "hguad": 2306,
      "Ġtfa": 2307,
      "erF": 2308,
      "nre": 2309,
      "namreG": 2310,
      "Ġmk": 2311,
      "581": 2312,
      "seit": 2313,
      "mE": 2314,
      "hciR": 2315,
      "âĢĶ": 2316,
      "ortni": 2317,
      "carp": 2318,
      "Ġweiv": 2319,
      "ĠytnuoC": 2320,
      "Ġnur": 2321,
      "Ġdetaerc": 2322,
      "hP": 2323,
      "vaN": 2324,
      "tits": 2325,
      "ĠegroeG": 2326,
      "Ġrehtom": 2327,
      "seuq": 2328,
      "ilatI": 2329,
      "tneme": 2330,
      "Ã¶": 2331,
      "esuoh": 2332,
      "mees": 2333,
      "Ġbo": 2334,
      "rtsu": 2335,
      "ttes": 2336,
      "Ġmetsys": 2337,
      "Ġecit": 2338,
      "nrevoG": 2339,
      "Ġnretsa": 2340,
      "Ġtsomla": 2341,
      "Ġssen": 2342,
      "tf": 2343,
      "msi": 2344,
      "kroY": 2345,
      "Ġegnahc": 2346,
      "olf": 2347,
      "ela": 2348,
      "Ġlanoitanretni": 2349,
      "Ġan": 2350,
      "0202": 2351,
      "Ġdetcele": 2352,
      "Ġ03": 2353,
      "Ġ61": 2354,
      "gif": 2355,
      "Ġ41": 2356,
      "Ġseno": 2357,
      "cennoc": 2358,
      "ygolo": 2359,
      "vel": 2360,
      "Ġdega": 2361,
      "Ġsyawla": 2362,
      "Ġsuoirav": 2363,
      "ĠnoitaicossA": 2364,
      "Ġevol": 2365,
      "Ġseci": 2366,
      "neH": 2367,
      "Ġsyad": 2368,
      "Ġspihs": 2369,
      "Ġlacitilop": 2370,
      "Ġevig": 2371,
      "droceR": 2372,
      "bmo": 2373,
      "nav": 2374,
      "gnu": 2375,
      "gaM": 2376,
      "ĠmorF": 2377,
      "Ġsrot": 2378,
      "limis": 2379,
      "icossa": 2380,
      "62": 2381,
      "Ġesolc": 2382,
      "hcti": 2383,
      "Ġtnemtrap": 2384,
      "vael": 2385,
      "Ġdaor": 2386,
      "Ġrevi": 2387,
      "Ġsht": 2388,
      "cov": 2389,
      "itse": 2390,
      "ĠtsaE": 2391,
      "Ġnoillim": 2392,
      "Ġdezi": 2393,
      "medacA": 2394,
      "cilp": 2395,
      "itsirhC": 2396,
      "Ġscit": 2397,
      "orw": 2398,
      "tal": 2399,
      "gniS": 2400,
      "per": 2401,
      "uod": 2402,
      "Ġgniti": 2403,
      "gral": 2404,
      "vitse": 2405,
      "Ġac": 2406,
      "Ġyawlia": 2407,
      "Ġlacigolo": 2408,
      "erga": 2409,
      "lec": 2410,
      "rat": 2411,
      "Ġecivres": 2412,
      "ric": 2413,
      "Ġtrohs": 2414,
      "riV": 2415,
      "rolF": 2416,
      "ten": 2417,
      "4002": 2418,
      "uorG": 2419,
      "Ġegaugnal": 2420,
      "Ġretsa": 2421,
      "reerac": 2422,
      "ĠtsriF": 2423,
      "lor": 2424,
      "72": 2425,
      "etis": 2426,
      "Ġal": 2427,
      "Ġtroppus": 2428,
      "Ġdrocer": 2429,
      "Ġnamow": 2430,
      "tim": 2431,
      "Ġnekat": 2432,
      "uc": 2433,
      "ciV": 2434,
      "Ġgnikrow": 2435,
      "noiger": 2436,
      "pmetta": 2437,
      "Ġflah": 2438,
      "Ġkcalb": 2439,
      "roP": 2440,
      "maet": 2441,
      "hpe": 2442,
      "Ġnwor": 2443,
      "Ġgniya": 2444,
      "yre": 2445,
      "vaeh": 2446,
      "uot": 2447,
      "Ġrac": 2448,
      "82": 2449,
      "Ġevil": 2450,
      "caM": 2451,
      "xeM": 2452,
      "teg": 2453,
      "reJ": 2454,
      "ĠdivaD": 2455,
      "Ġtsael": 2456,
      "uL": 2457,
      "Ġrek": 2458,
      "Ġyratilim": 2459,
      "Ġ31": 2460,
      "Ġnoisrev": 2461,
      "Ġskrow": 2462,
      "Ġtser": 2463,
      "rome": 2464,
      "cep": 2465,
      "rtcele": 2466,
      "rw": 2467,
      "ĠVT": 2468,
      "Ġoi": 2469,
      "irra": 2470,
      "vart": 2471,
      "Ġlareneg": 2472,
      "cudortni": 2473,
      "nwot": 2474,
      "yrotsiH": 2475,
      "sec": 2476,
      "Ġxa": 2477,
      "ĠtseB": 2478,
      "lae": 2479,
      "cetorp": 2480,
      "uoc": 2481,
      "Ġir": 2482,
      "Ġetihw": 2483,
      "Ġdeil": 2484,
      "Ġretteb": 2485,
      "Ġreerac": 2486,
      "ide": 2487,
      "ned": 2488,
      "las": 2489,
      "ĠesehT": 2490,
      "Ġ71": 2491,
      "efed": 2492,
      "reT": 2493,
      "Ġydaerla": 2494,
      "etti": 2495,
      "Ġlatot": 2496,
      "rE": 2497,
      "py": 2498,
      "ihP": 2499,
      "drawa": 2500,
      "tto": 2501,
      "yhpargo": 2502,
      "ivo": 2503,
      "Ġylt": 2504,
      "dniw": 2505,
      "raK": 2506,
      "Ġoga": 2507,
      "namrofrep": 2508,
      "llew": 2509,
      "#=": 2510,
      "vitca": 2511,
      "veD": 2512,
      "Ġmra": 2513,
      "0991": 2514,
      "rco": 2515,
      "laB": 2516,
      "Ġsruo": 2517,
      "fos": 2518,
      "bmoc": 2519,
      "sopmoc": 2520,
      "udarg": 2521,
      "diM": 2522,
      "Ġrei": 2523,
      "taM": 2524,
      "Ġor": 2525,
      "divid": 2526,
      "hsaW": 2527,
      "ly": 2528,
      "Ġnoissim": 2529,
      "Ġraw": 2530,
      "nep": 2531,
      "Ġam": 2532,
      "nor": 2533,
      "Ġgnihton": 2534,
      "uh": 2535,
      "erC": 2536,
      "tnemu": 2537,
      "Ġelor": 2538,
      "riA": 2539,
      "Ġtaerg": 2540,
      "lac": 2541,
      "tsisnoc": 2542,
      "Ġtsila": 2543,
      "Ġsy": 2544,
      "ruh": 2545,
      "Ġdehcaer": 2546,
      "ros": 2547,
      "ahS": 2548,
      "ĠllA": 2549,
      "Ġesac": 2550,
      "retnec": 2551,
      "uD": 2552,
      "taP": 2553,
      "reV": 2554,
      "ime": 2555,
      "poc": 2556,
      "noD": 2557,
      "Ġgnihtyna": 2558,
      "Ġdrah": 2559,
      "ihS": 2560,
      "idart": 2561,
      "rahs": 2562,
      "ĠyB": 2563,
      "mula": 2564,
      "ĠymrA": 2565,
      "Ġkcart": 2566,
      "AC": 2567,
      "enil": 2568,
      "dnab": 2569,
      "fles": 2570,
      "ĠyrotsiH": 2571,
      "Ġlanoisseforp": 2572,
      "soR": 2573,
      "met": 2574,
      "Ġssec": 2575,
      "Ġhsa": 2576,
      "nhoJ": 2577,
      "Ġsl": 2578,
      "Ġgnuoy": 2579,
      "Ġtni": 2580,
      "reM": 2581,
      "Ġserut": 2582,
      "Ġreyalp": 2583,
      "Ġgniyalp": 2584,
      "Ġsgniht": 2585,
      "Ġyrots": 2586,
      "iS": 2587,
      "monoce": 2588,
      "Ġdraob": 2589,
      "Ġrehtie": 2590,
      "yrutnec": 2591,
      "Ġhsina": 2592,
      "Ġnoitca": 2593,
      "3002": 2594,
      "Ġsts": 2595,
      "Ġedisni": 2596,
      "Ġderevoc": 2597,
      "Ġgnip": 2598,
      "Ġgnikool": 2599,
      "mail": 2600,
      "esuM": 2601,
      "ĠriA": 2602,
      "nwod": 2603,
      "kram": 2604,
      "Ġleah": 2605,
      "ĠesenapaJ": 2606,
      "Ġ52": 2607,
      "ĠpuC": 2608,
      "rohtua": 2609,
      "tiug": 2610,
      "lib": 2611,
      "Ġsemag": 2612,
      "dnoces": 2613,
      "Ġredna": 2614,
      "gocer": 2615,
      "481": 2616,
      "Ġgnidnats": 2617,
      "ĠII": 2618,
      "Ġeltit": 2619,
      "Ġga": 2620,
      "geL": 2621,
      "Ġleef": 2622,
      "Ġsknil": 2623,
      "Ġderedisnoc": 2624,
      "Ġoediv": 2625,
      "Ġyrotsih": 2626,
      "rum": 2627,
      "fnoc": 2628,
      "ĠtreboR": 2629,
      "cof": 2630,
      "ĠtnediserP": 2631,
      "picitrap": 2632,
      "Ġlua": 2633,
      "eda": 2634,
      "Ġsedi": 2635,
      "uqca": 2636,
      "nhcet": 2637,
      "itlum": 2638,
      "Ġtnatropmi": 2639,
      "âĢľ": 2640,
      "Ġlluf": 2641,
      "Ġdesop": 2642,
      "lloc": 2643,
      "Ġelbat": 2644,
      "rops": 2645,
      "rael": 2646,
      "Ġnar": 2647,
      "92": 2648,
      "niaS": 2649,
      "Ġdema": 2650,
      "ĠÃ©": 2651,
      "kS": 2652,
      "Ġhguohtla": 2653,
      "nihC": 2654,
      "Ġeld": 2655,
      "Ġpeek": 2656,
      "ercni": 2657,
      "aci": 2658,
      "etsni": 2659,
      "Ġdetnioppa": 2660,
      "Ġtnes": 2661,
      "ward": 2662,
      "ana": 2663,
      "Ġsesu": 2664,
      "Ġdednuof": 2665,
      "Ġgnu": 2666,
      "itnedi": 2667,
      "virp": 2668,
      "Ġlortnoc": 2669,
      "xeT": 2670,
      "ns": 2671,
      "Ġcifi": 2672,
      "suoh": 2673,
      "recnoc": 2674,
      "nodnoL": 2675,
      "Ġeil": 2676,
      "Ġrehtruf": 2677,
      "Ġstrop": 2678,
      "Ġdael": 2679,
      "lihP": 2680,
      "ereht": 2681,
      "miS": 2682,
      "napmoc": 2683,
      "Ġgnikat": 2684,
      "nnu": 2685,
      "Ġmah": 2686,
      "cudE": 2687,
      "ĠhtiW": 2688,
      "loV": 2689,
      "ĠtcirtsiD": 2690,
      "Ġcilo": 2691,
      "iP": 2692,
      "Ġhtuom": 2693,
      "rota": 2694,
      "dividni": 2695,
      "Ġtcirtsid": 2696,
      "loiv": 2697,
      "roT": 2698,
      "mah": 2699,
      "ais": 2700,
      "Ġseil": 2701,
      "ĠgnidroccA": 2702,
      "teM": 2703,
      "erof": 2704,
      "Ġdetcerid": 2705,
      "Ġlivi": 2706,
      "Ġdeve": 2707,
      "Ġetutits": 2708,
      "irT": 2709,
      "ĠytraP": 2710,
      "Ġetorw": 2711,
      "daM": 2712,
      "gA": 2713,
      "yaM": 2714,
      "Ġgnimoc": 2715,
      "cifin": 2716,
      "deta": 2717,
      "2002": 2718,
      "ailartsuA": 2719,
      "lur": 2720,
      "vorP": 2721,
      "weJ": 2722,
      "Ġraf": 2723,
      "elba": 2724,
      "Ġ0102": 2725,
      "sita": 2726,
      "elloc": 2727,
      "1002": 2728,
      "nuom": 2729,
      "Ġdewollof": 2730,
      "ĠnA": 2731,
      "Ġat": 2732,
      "Ġstneme": 2733,
      "nosre": 2734,
      "Ġspo": 2735,
      "Ġsmra": 2736,
      "ytisrevinU": 2737,
      "Ġdrow": 2738,
      "0891": 2739,
      "seires": 2740,
      "icos": 2741,
      "Ġua": 2742,
      "loH": 2743,
      "roB": 2744,
      "Ġdloh": 2745,
      "Ġnamuh": 2746,
      "etS": 2747,
      "ĠsecnerefeR": 2748,
      "elborp": 2749,
      "sia": 2750,
      "||": 2751,
      "Ġdoots": 2752,
      "ili": 2753,
      "Ġnerdlihc": 2754,
      "noipmahc": 2755,
      "tov": 2756,
      "nap": 2757,
      "groeG": 2758,
      "cnoc": 2759,
      "Ġdesolc": 2760,
      "ĠN": 2761,
      "noissim": 2762,
      "iceps": 2763,
      "dia": 2764,
      "ulfni": 2765,
      "ĠnailatI": 2766,
      "Ġwal": 2767,
      "Ġnu": 2768,
      "level": 2769,
      "1202": 2770,
      "Ġdedrocer": 2771,
      "Ġsecna": 2772,
      "Ġssalc": 2773,
      "jni": 2774,
      "yolpme": 2775,
      "duj": 2776,
      "Ġdengi": 2777,
      "ruS": 2778,
      "Ġlaiciffo": 2779,
      "ĠcisuM": 2780,
      "syhp": 2781,
      "moh": 2782,
      "Ġgnille": 2783,
      "Ġenod": 2784,
      "Ġgnihca": 2785,
      "tnev": 2786,
      "Ġak": 2787,
      "dleif": 2788,
      "Ġsreyalp": 2789,
      "ciffO": 2790,
      "ceffe": 2791,
      "Ġ/": 2792,
      "pets": 2793,
      "Ġnoos": 2794,
      "gnif": 2795,
      "ĠdrawA": 2796,
      "nemow": 2797,
      "Ġdehsinif": 2798,
      "nifed": 2799,
      "liaf": 2800,
      "Ġnoitcudorp": 2801,
      "Ġtsac": 2802,
      "ytiC": 2803,
      "ĠllabtooF": 2804,
      "tiL": 2805,
      "ainrofilaC": 2806,
      "Ġeerf": 2807,
      "daorb": 2808,
      "Ġtib": 2809,
      "Ġevisne": 2810,
      "Ġsra": 2811,
      "bulc": 2812,
      "euga": 2813,
      "enigne": 2814,
      "liava": 2815,
      "ĠnaissuR": 2816,
      "laC": 2817,
      "Ġhtron": 2818,
      "Ġdecna": 2819,
      "nruoj": 2820,
      "reporp": 2821,
      "Ġdnats": 2822,
      "Ġsey": 2823,
      "tepmoc": 2824,
      "Ġetip": 2825,
      "iG": 2826,
      "nual": 2827,
      "Ġsdnal": 2828,
      "ĠgniK": 2829,
      "serpxe": 2830,
      "pap": 2831,
      "retnI": 2832,
      "mlif": 2833,
      "Ġ22": 2834,
      "ĠnretseW": 2835,
      "irepxe": 2836,
      "refer": 2837,
      "ĠreviR": 2838,
      "roba": 2839,
      "utca": 2840,
      "iter": 2841,
      "Ġsdraw": 2842,
      "det": 2843,
      "ĠlartneC": 2844,
      "ffus": 2845,
      "cisum": 2846,
      "ĠremmuS": 2847,
      "Ġssenisub": 2848,
      "loh": 2849,
      "dlrow": 2850,
      "Ġderet": 2851,
      "yrt": 2852,
      "doow": 2853,
      "traM": 2854,
      "gil": 2855,
      "Ġesruoc": 2856,
      "Ġdnim": 2857,
      "ĠaL": 2858,
      "ire": 2859,
      "cilbup": 2860,
      "ĠselrahC": 2861,
      "ĠSU": 2862,
      "rehta": 2863,
      "ĠylraE": 2864,
      "Ġhcruhc": 2865,
      "Ġtneserp": 2866,
      "Ġkcu": 2867,
      "Ġhtuos": 2868,
      "Ġdepoleved": 2869,
      "Ġsdrow": 2870,
      "sev": 2871,
      "Ġtnempoleved": 2872,
      "Ġthgua": 2873,
      "Ġdr": 2874,
      "ileb": 2875,
      "moceb": 2876,
      "raE": 2877,
      "Ġedistuo": 2878,
      "ihca": 2879,
      "'m": 2880,
      "ĠrehtO": 2881,
      "leD": 2882,
      "tsissa": 2883,
      "Ġdetse": 2884,
      "Ġpots": 2885,
      "pot": 2886,
      "Ġtem": 2887,
      "Ġdei": 2888,
      "Ġdoow": 2889,
      "niar": 2890,
      "rtsinimda": 2891,
      "Ġpihsre": 2892,
      "Ġ8002": 2893,
      "Ġylluf": 2894,
      "Ġytiliba": 2895,
      "mI": 2896,
      "Ġgnihsi": 2897,
      "Ġerif": 2898,
      "ĠCB": 2899,
      "cepS": 2900,
      "Ġriah": 2901,
      "fas": 2902,
      "ruos": 2903,
      "Ġ6002": 2904,
      "Ġdetelpmoc": 2905,
      "rede": 2906,
      "baborp": 2907,
      "Ġdrawot": 2908,
      "Ġsde": 2909,
      "Ġsetu": 2910,
      "Ġdnuor": 2911,
      "uH": 2912,
      "dnepedni": 2913,
      "Ġslle": 2914,
      "Ġenoemos": 2915,
      "rapes": 2916,
      "tohp": 2917,
      "ilihP": 2918,
      "Ġralimis": 2919,
      "ĠsamohT": 2920,
      "Ġ1102": 2921,
      "Ġeciffo": 2922,
      "ssorc": 2923,
      "cnuf": 2924,
      "ema": 2925,
      "nag": 2926,
      "Ġytinummoc": 2927,
      "Ġdraeh": 2928,
      "ĠnoisiviD": 2929,
      "els": 2930,
      "0791": 2931,
      "nal": 2932,
      "ĠnodnoL": 2933,
      "snoc": 2934,
      "Ġseu": 2935,
      "Ġ=": 2936,
      "drof": 2937,
      "Ġene": 2938,
      "Ġgniyrt": 2939,
      "Ġthguorb": 2940,
      "Ġeruta": 2941,
      "sus": 2942,
      "taL": 2943,
      "dal": 2944,
      "legnA": 2945,
      "Ġgnile": 2946,
      "Ġdaer": 2947,
      "tsirhC": 2948,
      "cid": 2949,
      "cetihcra": 2950,
      "yalP": 2951,
      "cifingis": 2952,
      "9991": 2953,
      "hcru": 2954,
      "inmula": 2955,
      "Ġdneirf": 2956,
      "Ġsria": 2957,
      "seni": 2958,
      "Ġytrap": 2959,
      "Ġ42": 2960,
      "Ġtubed": 2961,
      "nummoC": 2962,
      "pmaxe": 2963,
      "laeZ": 2964,
      "crem": 2965,
      "Ġtnemom": 2966,
      "eroK": 2967,
      "ry": 2968,
      "Ġlevel": 2969,
      "drawA": 2970,
      "pmis": 2971,
      "Ġediw": 2972,
      "celE": 2973,
      "ngis": 2974,
      "maS": 2975,
      "ĠluaP": 2976,
      "Ġrosse": 2977,
      "trops": 2978,
      "ilauq": 2979,
      "xo": 2980,
      "ĠelihW": 2981,
      "ecnarF": 2982,
      "Ġyram": 2983,
      "euq": 2984,
      "Ġesne": 2985,
      "Ġdellik": 2986,
      "ingocer": 2987,
      "Ġlaicos": 2988,
      "ees": 2989,
      "Ġlatne": 2990,
      "ĠleahciM": 2991,
      "ulo": 2992,
      "dnuos": 2993,
      "Ġrel": 2994,
      "retil": 2995,
      "06": 2996,
      "Ġnopu": 2997,
      "uM": 2998,
      "ey": 2999,
      "der": 3000,
      "ĠCF": 3001,
      "rets": 3002,
      "Ġebyam": 3003,
      "Ġksa": 3004,
      "Ġotno": 3005,
      "scit": 3006,
      "381": 3007,
      "kil": 3008,
      "pots": 3009,
      "tub": 3010,
      "ubirtnoc": 3011,
      "Ġoni": 3012,
      "noriv": 3013,
      "Ġdeirt": 3014,
      "Ġtsil": 3015,
      "Ġtraeh": 3016,
      "ĠlicnuoC": 3017,
      "Ġsrae": 3018,
      "fil": 3019,
      "rcomeD": 3020,
      "dluohs": 3021,
      "etats": 3022,
      "Ġyrtnuoc": 3023,
      "ĠhcruhC": 3024,
      "reviR": 3025,
      "Ġtrats": 3026,
      "my": 3027,
      "Ġsir": 3028,
      "Ã¤": 3029,
      "Ġay": 3030,
      "ggus": 3031,
      "Ġee": 3032,
      "hpo": 3033,
      "cepser": 3034,
      "Ġsto": 3035,
      "Ġnommoc": 3036,
      "tno": 3037,
      "Ġedu": 3038,
      "Ġllabtek": 3039,
      "Ġevom": 3040,
      "wsna": 3041,
      "del": 3042,
      "Ġyrot": 3043,
      "Ġea": 3044,
      "Ġ2102": 3045,
      "dir": 3046,
      "Ġyllanif": 3047,
      "ceriD": 3048,
      "Ġevael": 3049,
      "Ġtuohguo": 3050,
      "Ġhcraeser": 3051,
      "imS": 3052,
      "Ġstnemhsilbatse": 3053,
      "Ġeli": 3054,
      "srot": 3055,
      "Ġstneduts": 3056,
      "picinum": 3057,
      "Ġoc": 3058,
      "tsixe": 3059,
      "cudnoc": 3060,
      "Ġdeppa": 3061,
      "Ġsecne": 3062,
      "Ġdediced": 3063,
      "vrus": 3064,
      "noH": 3065,
      "Ġefiw": 3066,
      "Ġane": 3067,
      "nniw": 3068,
      "dewS": 3069,
      "ran": 3070,
      "Ġhte": 3071,
      "ĠtaerG": 3072,
      "leM": 3073,
      "Ġralupop": 3074,
      "Ġyllausu": 3075,
      "Ġelbissop": 3076,
      "ceip": 3077,
      "Ġ001": 3078,
      "pmi": 3079,
      "Ġwolle": 3080,
      "Ġtey": 3081,
      "cihC": 3082,
      "art": 3083,
      "ircs": 3084,
      "fni": 3085,
      "jaM": 3086,
      "Ġnosrep": 3087,
      "kni": 3088,
      "tcirtsiD": 3089,
      "Ġtol": 3090,
      "Ġgnidael": 3091,
      "pO": 3092,
      "Ġdeniamer": 3093,
      "notgni": 3094,
      "Ġdaetsni": 3095,
      "Ġba": 3096,
      "vaf": 3097,
      "erI": 3098,
      "ilrae": 3099,
      "gnoC": 3100,
      "Ġllac": 3101,
      "lub": 3102,
      "Ġnruter": 3103,
      "reg": 3104,
      "Ġtsae": 3105,
      "ruC": 3106,
      "apmac": 3107,
      "ĠesenihC": 3108,
      "dnuf": 3109,
      "orht": 3110,
      "Ġlarede": 3111,
      "ĠnamoR": 3112,
      "Ġtohs": 3113,
      "Ġetuo": 3114,
      "8991": 3115,
      "Ġdezila": 3116,
      "xelA": 3117,
      "Ġtsap": 3118,
      "htA": 3119,
      "leR": 3120,
      "Ġtreb": 3121,
      "pahc": 3122,
      "tsoh": 3123,
      "par": 3124,
      "Ġ)(": 3125,
      "neb": 3126,
      "08": 3127,
      "Ġtih": 3128,
      "Ġrehtar": 3129,
      "omorp": 3130,
      "caJ": 3131,
      "hcra": 3132,
      "semag": 3133,
      "Ġtnerruc": 3134,
      "Ġlaer": 3135,
      "Ġ7002": 3136,
      "yek": 3137,
      "forP": 3138,
      "smubla": 3139,
      "cejorp": 3140,
      "Ġrehtorb": 3141,
      "fif": 3142,
      "Ġrethguad": 3143,
      "cab": 3144,
      "seiti": 3145,
      "Ġaiv": 3146,
      "yro": 3147,
      "loraC": 3148,
      "Ġgnihtyreve": 3149,
      "rim": 3150,
      "llor": 3151,
      "hte": 3152,
      "Ġ9002": 3153,
      "Ġnoitne": 3154,
      "dnalgnE": 3155,
      "Ġeciv": 3156,
      "diw": 3157,
      "ruF": 3158,
      "dli": 3159,
      "Ġelamef": 3160,
      "llaf": 3161,
      "luB": 3162,
      "Ġytiro": 3163,
      "Ġdetsil": 3164,
      "hgiH": 3165,
      "aidnI": 3166,
      "Ġdoirep": 3167,
      "ĠĊĊ": 3168,
      "Ġmret": 3169,
      "Ġsecalp": 3170,
      "ĠkraP": 3171,
      "pur": 3172,
      "zti": 3173,
      "Ġerac": 3174,
      "neB": 3175,
      "Ġgniod": 3176,
      "Ġkrad": 3177,
      "dnA": 3178,
      "eileb": 3179,
      "Ġnoitamrofni": 3180,
      "Ġdengised": 3181,
      "7991": 3182,
      "Ġho": 3183,
      "htron": 3184,
      "ĠemoS": 3185,
      "kciuq": 3186,
      "cir": 3187,
      "Ġgninnur": 3188,
      "Ġylbaborp": 3189,
      "raS": 3190,
      "rucco": 3191,
      "Ġhtgne": 3192,
      "ama": 3193,
      "lana": 3194,
      "Ġsuore": 3195,
      "Ġkcor": 3196,
      "bb": 3197,
      "idnoc": 3198,
      "adanaC": 3199,
      "Ġhctam": 3200,
      "nwoT": 3201,
      "Ġ32": 3202,
      "Ġseg": 3203,
      "Ġyhpargo": 3204,
      "raD": 3205,
      "nuH": 3206,
      "Ġdedda": 3207,
      "doht": 3208,
      "Ġ05": 3209,
      "eraC": 3210,
      "tfel": 3211,
      "nigriV": 3212,
      "Ġylev": 3213,
      "Ġ4102": 3214,
      "mac": 3215,
      "Ġssi": 3216,
      "issa": 3217,
      "dot": 3218,
      "sma": 3219,
      "Ġsnois": 3220,
      "arsI": 3221,
      "ĠbulC": 3222,
      "Ġleu": 3223,
      "Ġlaiceps": 3224,
      "Ġfle": 3225,
      "nerdlihc": 3226,
      "tsaC": 3227,
      "Ġsrehto": 3228,
      "nuh": 3229,
      "cnirp": 3230,
      "Ġeugael": 3231,
      "sega": 3232,
      "feD": 3233,
      "Ġyca": 3234,
      "Ġwol": 3235,
      "ĠnacirfA": 3236,
      "Ġenim": 3237,
      "tneg": 3238,
      "sreh": 3239,
      "Ġdegnahc": 3240,
      "elf": 3241,
      "Ġtnei": 3242,
      "Ġdn": 3243,
      "Ġyllanigiro": 3244,
      "ivoS": 3245,
      "Ġalle": 3246,
      "Ġnae": 3247,
      "Ġdla": 3248,
      "ĠdnarG": 3249,
      "ucexe": 3250,
      "Ġdemrofrep": 3251,
      "Ġnoitcele": 3252,
      "Ġit": 3253,
      "utis": 3254,
      "Ġyllautneve": 3255,
      "emag": 3256,
      "Ġdetaler": 3257,
      "6991": 3258,
      "Ġdlos": 3259,
      "drah": 3260,
      "idutS": 3261,
      "ĠtnemtrapeD": 3262,
      "ĠnoinU": 3263,
      "teem": 3264,
      "0691": 3265,
      "Ġevoba": 3266,
      "pA": 3267,
      "idua": 3268,
      "ruM": 3269,
      "Ġ\",": 3270,
      "cidni": 3271,
      "Ġdedeen": 3272,
      "Ġdenoit": 3273,
      "rete": 3274,
      "Ġevitca": 3275,
      "cixeM": 3276,
      "Ġdelle": 3277,
      "ĠoT": 3278,
      "Ġdewolla": 3279,
      "ruob": 3280,
      "mix": 3281,
      "Ġneves": 3282,
      "rcria": 3283,
      "Ġecneref": 3284,
      "Ġsecivres": 3285,
      "ynamreG": 3286,
      "repus": 3287,
      "Ġdellup": 3288,
      "ĠcipmylO": 3289,
      "Ġstse": 3290,
      "zarB": 3291,
      "zagam": 3292,
      "ĠsoL": 3293,
      "Ġteef": 3294,
      "Ġnoitani": 3295,
      "niW": 3296,
      "Ġ]": 3297,
      "wohs": 3298,
      "nahc": 3299,
      "wol": 3300,
      "irg": 3301,
      "Ġnretsew": 3302,
      "ĠcilohtaC": 3303,
      "terp": 3304,
      "Ġsmaet": 3305,
      "Ġdedna": 3306,
      "Ġrets": 3307,
      "roH": 3308,
      "Ġdoolb": 3309,
      "owt": 3310,
      "gur": 3311,
      "Ġgnikni": 3312,
      "nneP": 3313,
      "gitse": 3314,
      "Ġegareva": 3315,
      "zz": 3316,
      "revewoh": 3317,
      "Ġyde": 3318,
      "Ġelc": 3319,
      "iN": 3320,
      "latI": 3321,
      "Ġ3102": 3322,
      "Ġtsegral": 3323,
      "Ġdenwo": 3324,
      "hK": 3325,
      "ata": 3326,
      "Ġgnorts": 3327,
      "ste": 3328,
      "Ġsnoi": 3329,
      "irF": 3330,
      "naP": 3331,
      "ĠhsinapS": 3332,
      "Ġaedi": 3333,
      "Ġ6102": 3334,
      "sA": 3335,
      "ĠÃ": 3336,
      "liS": 3337,
      "lliV": 3338,
      "Ġsyas": 3339,
      "aera": 3340,
      "ĠyrneH": 3341,
      "esa": 3342,
      "lI": 3343,
      "ĠreH": 3344,
      "Ġdnik": 3345,
      "Ġlrig": 3346,
      "Ġoidar": 3347,
      "kraP": 3348,
      "ena": 3349,
      "5991": 3350,
      "Ġrotcerid": 3351,
      "Ġdnuos": 3352,
      "Ġecilop": 3353,
      "Ġeid": 3354,
      "Ġsdrawot": 3355,
      "sts": 3356,
      "ĠĠĠĠĠĠĠĠ": 3357,
      "ĠetutitsnI": 3358,
      "ĠtruoC": 3359,
      "ĠraeY": 3360,
      "Ġgnilli": 3361,
      "Ġsedulcni": 3362,
      "Ġdemees": 3363,
      "sta": 3364,
      "Ġ5102": 3365,
      "Ġyllaci": 3366,
      "Ġroolf": 3367,
      "top": 3368,
      "raG": 3369,
      "Ġslli": 3370,
      "Ġthgie": 3371,
      "Ġwerd": 3372,
      "htuos": 3373,
      "retfa": 3374,
      "Ġdle": 3375,
      "ĠpuorG": 3376,
      "Ġ-|": 3377,
      "Ġstneve": 3378,
      "Ġdex": 3379,
      "aciremA": 3380,
      "ortsed": 3381,
      "manruot": 3382,
      "tseW": 3383,
      "sti": 3384,
      "**": 3385,
      "Ġlatnem": 3386,
      "Ġelbaliava": 3387,
      "Ġyltnerruc": 3388,
      "Ġenots": 3389,
      "Ġeetti": 3390,
      "Ġnredom": 3391,
      "seb": 3392,
      "Ġdecne": 3393,
      "srellabtoof": 3394,
      "Ġare": 3395,
      "Ġ:)": 3396,
      "sema": 3397,
      "Ġshtnom": 3398,
      "let": 3399,
      "Ġsmrof": 3400,
      "yte": 3401,
      "Ġsemitemos": 3402,
      "suh": 3403,
      "ĠG": 3404,
      "pihsnoipmahC": 3405,
      "urt": 3406,
      "Ġtneve": 3407,
      "Ġdetroper": 3408,
      "Ġnaem": 3409,
      "ĠdrahciR": 3410,
      "riB": 3411,
      "Ġc": 3412,
      "Ġtuohguorht": 3413,
      "Ġllabe": 3414,
      "ĠymedacA": 3415,
      "Ġetavirp": 3416,
      "cepse": 3417,
      "Ġdevlovni": 3418,
      "suB": 3419,
      "ĠtS": 3420,
      "Ġ0002": 3421,
      "Ġstniop": 3422,
      "Ġais": 3423,
      "Ġnoitacif": 3424,
      "Ġnosa": 3425,
      "trohs": 3426,
      "ĠpihsnoipmahC": 3427,
      "Ġselc": 3428,
      "Ġhtrib": 3429,
      "Ġff": 3430,
      "Ġtnediserp": 3431,
      "Ġdehsu": 3432,
      "soM": 3433,
      "xes": 3434,
      "loS": 3435,
      "ĠnaitsirhC": 3436,
      "Ġesaeler": 3437,
      "iro": 3438,
      "Ġspil": 3439,
      "noitaler": 3440,
      "dnarg": 3441,
      "bis": 3442,
      "ĠreteP": 3443,
      "eka": 3444,
      "4991": 3445,
      "Ġdeya": 3446,
      "raen": 3447,
      "Ġderutaef": 3448,
      "ĠretsiniM": 3449,
      "ssi": 3450,
      "egelloC": 3451,
      "ĠcirotsiH": 3452,
      "Ġserutaef": 3453,
      "Ġstsila": 3454,
      "ĠteivoS": 3455,
      "ratiug": 3456,
      "Ġygre": 3457,
      "Ġdedrawa": 3458,
      "Ġnil": 3459,
      "roffe": 3460,
      "Ġtrops": 3461,
      "Ġyllaicepse": 3462,
      "ews": 3463,
      "Ġepyt": 3464,
      "ĠtrA": 3465,
      "xis": 3466,
      "retal": 3467,
      "Ġ62": 3468,
      "lys": 3469,
      "ĠteertS": 3470,
      "Ġtcaf": 3471,
      "ever": 3472,
      "Ġ82": 3473,
      "Ġyduts": 3474,
      "Ġgninniw": 3475,
      "yrotsih": 3476,
      "tuf": 3477,
      "uqS": 3478,
      "tirB": 3479,
      "Ġlartnec": 3480,
      "scipmylO": 3481,
      "ytila": 3482,
      "poh": 3483,
      "Ġyks": 3484,
      "Ġretcarahc": 3485,
      "EN": 3486,
      "vE": 3487,
      "daor": 3488,
      "AN": 3489,
      "Ġdessap": 3490,
      "nimon": 3491,
      "Ġgib": 3492,
      "Ġegna": 3493,
      "ĠmliF": 3494,
      "ĠkcalB": 3495,
      "dle": 3496,
      "Ġnab": 3497,
      "Ġdecalper": 3498,
      "cilop": 3499,
      "luger": 3500,
      "Äģ": 3501,
      "Ġecrof": 3502,
      "Ġara": 3503,
      "erB": 3504,
      "hgif": 3505,
      "reted": 3506,
      "ĠecniS": 3507,
      "repO": 3508,
      "Ġtaes": 3509,
      "Ġ72": 3510,
      "Ġecar": 3511,
      "Ġmargorp": 3512,
      "dnalsI": 3513,
      "2991": 3514,
      "ytic": 3515,
      "lab": 3516,
      "Ġgnitteg": 3517,
      "Ġsuoiverp": 3518,
      "lam": 3519,
      "gnE": 3520,
      "mubla": 3521,
      "pucco": 3522,
      "vitseF": 3523,
      "ecni": 3524,
      "eman": 3525,
      "Ġredne": 3526,
      "ĊĊĠ": 3527,
      "Ġegats": 3528,
      "Ġnoitcurtsnoc": 3529,
      "namoR": 3530,
      "utitsnoc": 3531,
      "Ġmod": 3532,
      "neD": 3533,
      "buS": 3534,
      "gid": 3535,
      "cih": 3536,
      "07": 3537,
      "3991": 3538,
      "saem": 3539,
      "irC": 3540,
      "luC": 3541,
      "irO": 3542,
      "rapmoc": 3543,
      "rips": 3544,
      "ĠdeR": 3545,
      "peek": 3546,
      "Ġske": 3547,
      "irtnuoc": 3548,
      "catta": 3549,
      "Ġdela": 3550,
      "Ġylkciuq": 3551,
      "tide": 3552,
      "Ġsaera": 3553,
      "ooB": 3554,
      "ĠhguohtlA": 3555,
      "ĠdnalgnE": 3556,
      "zila": 3557,
      "Ã¨": 3558,
      "doM": 3559,
      "Ġ5002": 3560,
      "Ġtneps": 3561,
      "Ġdnu": 3562,
      "mailraP": 3563,
      "tuD": 3564,
      "Ġseca": 3565,
      "nemoW": 3566,
      "Ġecnedi": 3567,
      "puS": 3568,
      "Ġrefer": 3569,
      "Ġesohw": 3570,
      "Ġsgnidliub": 3571,
      "Ġretse": 3572,
      "Ġderocs": 3573,
      "Ġdecudortni": 3574,
      "Ġdevil": 3575,
      "Ġ4002": 3576,
      "cafu": 3577,
      "Ġdevorp": 3578,
      "uqesbus": 3579,
      "Ġllaf": 3580,
      "Ġdecrof": 3581,
      "ruoT": 3582,
      "Ġegdirb": 3583,
      "nys": 3584,
      "Ġtluser": 3585,
      "ihcrA": 3586,
      "iuq": 3587,
      "OC": 3588,
      "rotciV": 3589,
      "ĠĊĠ": 3590,
      "dirolF": 3591,
      "repxe": 3592,
      "erT": 3593,
      "Ġytiru": 3594,
      "edis": 3595,
      "ww": 3596,
      "Ġtpek": 3597,
      "Ġaid": 3598,
      "val": 3599,
      "oG": 3600,
      "irtsid": 3601,
      "ihsa": 3602,
      "Ġnek": 3603,
      "idemmi": 3604,
      "Ġnoitces": 3605,
      "ĠstI": 3606,
      "derc": 3607,
      "Ġpeed": 3608,
      "nosreP": 3609,
      "Ġflesreh": 3610,
      "yrtnuoc": 3611,
      "Ġngised": 3612,
      "Ġdrawrof": 3613,
      "Ġgniro": 3614,
      "cudorP": 3615,
      "ak": 3616,
      "caP": 3617,
      "Ġregnol": 3618,
      "ĠU": 3619,
      "paps": 3620,
      "narT": 3621,
      "thgir": 3622,
      "53": 3623,
      "sserP": 3624,
      "rocni": 3625,
      "tes": 3626,
      "09": 3627,
      "hgien": 3628,
      "lof": 3629,
      "didnac": 3630,
      "Ġtoo": 3631,
      "Ġseinapmoc": 3632,
      "neM": 3633,
      "Ġklat": 3634,
      "081": 3635,
      "Ġyekco": 3636,
      "rewop": 3637,
      "Ġyrota": 3638,
      "hgual": 3639,
      "nuocca": 3640,
      "Ġina": 3641,
      "Ġeritne": 3642,
      "pmE": 3643,
      "Ġderut": 3644,
      "1991": 3645,
      "ssecorp": 3646,
      "doirep": 3647,
      "Ġspuorg": 3648,
      "ddu": 3649,
      "Ġeko": 3650,
      "mor": 3651,
      "llaG": 3652,
      "ĠtcA": 3653,
      "lap": 3654,
      "Äĩ": 3655,
      "Ġgnina": 3656,
      "Ġselp": 3657,
      "Ġ8102": 3658,
      "ssaM": 3659,
      "uoD": 3660,
      "Ġgnivael": 3661,
      "ĠnrehtroN": 3662,
      "muH": 3663,
      "raperp": 3664,
      "Ġdedivorp": 3665,
      "Ġsetunim": 3666,
      "Ġdemialc": 3667,
      "ubirtsid": 3668,
      "rebiL": 3669,
      "Ġedosipe": 3670,
      "ylimaf": 3671,
      "snai": 3672,
      "talp": 3673,
      "Ġegnar": 3674,
      "CB": 3675,
      "ĠdnoceS": 3676,
      "cerp": 3677,
      "wonk": 3678,
      "idlos": 3679,
      "keew": 3680,
      "puC": 3681,
      "Ġdera": 3682,
      "oga": 3683,
      "Ġesle": 3684,
      "eri": 3685,
      "Ġgniniart": 3686,
      "dloG": 3687,
      "\"(": 3688,
      "aS": 3689,
      "dneirf": 3690,
      "Ġelims": 3691,
      "moor": 3692,
      "gnil": 3693,
      "setoN": 3694,
      "dnuorgkcab": 3695,
      "Ġdesiar": 3696,
      "Ġsus": 3697,
      "Åį": 3698,
      "ged": 3699,
      "nhceT": 3700,
      "navlys": 3701,
      "Ġyllautca": 3702,
      "milc": 3703,
      "uR": 3704,
      "Ġflesym": 3705,
      "Ġvo": 3706,
      "orT": 3707,
      "Ġylba": 3708,
      "Ġenog": 3709,
      "erP": 3710,
      "noitcele": 3711,
      "Ġllaw": 3712,
      "dnow": 3713,
      "Ġxe": 3714,
      "Ġniatrec": 3715,
      "ihT": 3716,
      "nut": 3717,
      "psoh": 3718,
      "Ġelliv": 3719,
      "Ġtcejorp": 3720,
      "Ġecaps": 3721,
      "ĠâĢĿ": 3722,
      "ihxe": 3723,
      "Ġ7102": 3724,
      "itneics": 3725,
      "Ġnug": 3726,
      "Ġelohw": 3727,
      "Ġ92": 3728,
      "Ġxo": 3729,
      "htla": 3730,
      "Ġsrota": 3731,
      "itrA": 3732,
      "raeseR": 3733,
      "Ġnav": 3734,
      "ĠhsirI": 3735,
      "cil": 3736,
      "rehto": 3737,
      "Ġyenom": 3738,
      "gitsevni": 3739,
      "Ġylthg": 3740,
      "Ġeveileb": 3741,
      "Ġgninrut": 3742,
      "citiloP": 3743,
      "Ġyltna": 3744,
      "pircs": 3745,
      "Ġcino": 3746,
      "ĠllaH": 3747,
      "Ġecud": 3748,
      "Ġgnini": 3749,
      "navlysnneP": 3750,
      "nae": 3751,
      "narb": 3752,
      "rM": 3753,
      "ilE": 3754,
      "Ġneet": 3755,
      "ĠtsoM": 3756,
      "Ġsnaem": 3757,
      "Ġ9102": 3758,
      "ore": 3759,
      "retcarahc": 3760,
      "ralC": 3761,
      "tneser": 3762,
      "ĠyteicoS": 3763,
      "Ġyrarop": 3764,
      "gga": 3765,
      "vomer": 3766,
      "ĠredrO": 3767,
      "rpS": 3768,
      "niw": 3769,
      "ĠsmliF": 3770,
      "ĠowT": 3771,
      "Ġdaed": 3772,
      "pmaC": 3773,
      "mixorppa": 3774,
      "cim": 3775,
      "nug": 3776,
      "ĠKU": 3777,
      "Ġdeklaw": 3778,
      "neP": 3779,
      "weiver": 3780,
      "Ġgninnigeb": 3781,
      "Ġca": 3782,
      "...": 3783,
      "liba": 3784,
      "lem": 3785,
      "Ġtas": 3786,
      "noitan": 3787,
      "Ġhcaoc": 3788,
      "Ġpohsi": 3789,
      "srevinu": 3790,
      "lihp": 3791,
      "Ġsdi": 3792,
      "Ġ0202": 3793,
      "ĠtnuoM": 3794,
      "baL": 3795,
      "Ġhtruof": 3796,
      "nidro": 3797,
      "reser": 3798,
      "stna": 3799,
      "dnuoF": 3800,
      "Ġylgni": 3801,
      "lsi": 3802,
      "mm": 3803,
      "retaw": 3804,
      "nit": 3805,
      "Ġyru": 3806,
      "taC": 3807,
      "Ġthgiew": 3808,
      "Ġdetats": 3809,
      "9891": 3810,
      "ĠcilbuP": 3811,
      "63": 3812,
      "nup": 3813,
      "Ġenohp": 3814,
      "Ġnoiger": 3815,
      "Ġsnoitats": 3816,
      "Ġderetne": 3817,
      "laG": 3818,
      "Ġsdna": 3819,
      "13": 3820,
      "Ġkcatta": 3821,
      "irram": 3822,
      "lsnart": 3823,
      "Ġedivorp": 3824,
      "Ġnoitacude": 3825,
      "Ġretnec": 3826,
      "Ġrepp": 3827,
      "Ġflo": 3828,
      "mot": 3829,
      "bi": 3830,
      "0591": 3831,
      "llaw": 3832,
      "ĠdaoR": 3833,
      "Ġegelloc": 3834,
      "Ġtnod": 3835,
      "Ġsenil": 3836,
      "Ġnom": 3837,
      "ĠriS": 3838,
      "bmeM": 3839,
      "itua": 3840,
      "nimod": 3841,
      "rgim": 3842,
      "Ġyda": 3843,
      "Ġnor": 3844,
      "hcrup": 3845,
      "reyalp": 3846,
      "nots": 3847,
      "ĠretneC": 3848,
      "eugaeL": 3849,
      "Ġemu": 3850,
      "ĠcilbupeR": 3851,
      "sretirw": 3852,
      "ssenisub": 3853,
      "cnac": 3854,
      "crep": 3855,
      "Ġraeh": 3856,
      "lucitrap": 3857,
      "SI": 3858,
      "dirb": 3859,
      "Ġelyts": 3860,
      "Ġdlog": 3861,
      "ĠlaiciffO": 3862,
      "sdra": 3863,
      "tniop": 3864,
      "nnahc": 3865,
      "tsom": 3866,
      "Ġthgif": 3867,
      "Ġhsu": 3868,
      "Ġwolla": 3869,
      "txet": 3870,
      "cremmoc": 3871,
      "dnuorrus": 3872,
      "roprocni": 3873,
      "ĠmuesuM": 3874,
      "Ġned": 3875,
      "simmoc": 3876,
      "Ġlagel": 3877,
      "utitsni": 3878,
      "lip": 3879,
      "sam": 3880,
      "llams": 3881,
      "cnuoc": 3882,
      "Ġsyalp": 3883,
      "uqerf": 3884,
      "mron": 3885,
      "yC": 3886,
      "ĠtnemnrevoG": 3887,
      "riG": 3888,
      "Ġlarutan": 3889,
      "nuoY": 3890,
      "mehc": 3891,
      "Ġetair": 3892,
      "isrev": 3893,
      "yM": 3894,
      "lizarB": 3895,
      "ssen": 3896,
      "ttab": 3897,
      "saC": 3898,
      "Ġlufsseccus": 3899,
      "itca": 3900,
      "Ġraluger": 3901,
      "waL": 3902,
      "gol": 3903,
      "Ġtset": 3904,
      "tab": 3905,
      "ĠekaL": 3906,
      "ehs": 3907,
      "tep": 3908,
      "cuder": 3909,
      "Ġretu": 3910,
      "Ġdoof": 3911,
      "Ġgninepo": 3912,
      "Ġsloohcs": 3913,
      "Ġdetaefed": 3914,
      "kcirc": 3915,
      "Ġstrap": 3916,
      "tsug": 3917,
      "ihp": 3918,
      "Ġyats": 3919,
      "etisbew": 3920,
      "Ġeerged": 3921,
      "Ġnots": 3922,
      "Ġdednetta": 3923,
      "zne": 3924,
      "norivne": 3925,
      "ratS": 3926,
      "anihC": 3927,
      "Ġsed": 3928,
      "Ġyob": 3929,
      "Ġsdneirf": 3930,
      "Ġdlihc": 3931,
      "Ġyako": 3932,
      "ddus": 3933,
      "Ġses": 3934,
      "Ġatna": 3935,
      "citirc": 3936,
      "lupoP": 3937,
      "grub": 3938,
      "cihev": 3939,
      "Ġylsuoiverp": 3940,
      "leH": 3941,
      "ĠnotgnihsaW": 3942,
      "papswen": 3943,
      "Ġsruoh": 3944,
      "Ġdedd": 3945,
      "Ġsthgir": 3946,
      "Ġnosre": 3947,
      "pyt": 3948,
      "luciffid": 3949,
      "ĠX": 3950,
      "Ġsekam": 3951,
      "Ġgnivom": 3952,
      "Ġenola": 3953,
      "cide": 3954,
      "Ġylraen": 3955,
      "dnopser": 3956,
      "maH": 3957,
      "Ġdeppots": 3958,
      "43": 3959,
      "Ġllef": 3960,
      "iled": 3961,
      "Ġ2002": 3962,
      "001": 3963,
      "aM": 3964,
      "Ġrewol": 3965,
      "Ġdab": 3966,
      "Ġnoitidda": 3967,
      "yH": 3968,
      "Ġffa": 3969,
      "ĠAF": 3970,
      "pirc": 3971,
      "woH": 3972,
      "Ġytu": 3973,
      "ĠW": 3974,
      "nosirp": 3975,
      "Ġsecrof": 3976,
      "Ġylne": 3977,
      "cafunam": 3978,
      "8891": 3979,
      "oL": 3980,
      "medaca": 3981,
      "Ġaes": 3982,
      "kaP": 3983,
      "Ġdelb": 3984,
      "lati": 3985,
      "waH": 3986,
      "Ġgnissim": 3987,
      "Ġtuc": 3988,
      "Ġmohw": 3989,
      "Ġezis": 3990,
      "xO": 3991,
      "eF": 3992,
      "hcam": 3993,
      "ilc": 3994,
      "Ġllabteksab": 3995,
      "Ġswohs": 3996,
      "rek": 3997,
      "Ġ3002": 3998,
      "Ġsekat": 3999,
      "Ġretirw": 4000,
      "Ġkeew": 4001,
      "erihs": 4002,
      "Ġrevoc": 4003,
      "rbiL": 4004,
      "Ġsgnos": 4005,
      "Ġtruoc": 4006,
      "flah": 4007,
      "saw": 4008,
      "Ġgnitirw": 4009,
      "woh": 4010,
      "coL": 4011,
      "lsI": 4012,
      "rtsudni": 4013,
      "ynapmoc": 4014,
      "Ġsreht": 4015,
      "ĠetihW": 4016,
      "Ġnaig": 4017,
      "Ġad": 4018,
      "wolloF": 4019,
      "Ġsevita": 4020,
      "noil": 4021,
      "ome": 4022,
      "Ġnrehtuos": 4023,
      "gE": 4024,
      "nuoma": 4025,
      "irtsuA": 4026,
      "kaerb": 4027,
      "elliv": 4028,
      "Ġgnivig": 4029,
      "Ġseira": 4030,
      "ĠhsittocS": 4031,
      "ses": 4032,
      "frep": 4033,
      "Ġgninrom": 4034,
      "7891": 4035,
      "Ġssecorp": 4036,
      "rre": 4037,
      "lliM": 4038,
      "Ġhpe": 4039,
      "33": 4040,
      "niL": 4041,
      "peD": 4042,
      "Ġyawliar": 4043,
      "Ġdetneserper": 4044,
      "worc": 4045,
      "cuL": 4046,
      "lk": 4047,
      "AR": 4048,
      "lohcs": 4049,
      "pole": 4050,
      "Ġdeddon": 4051,
      "Ġnrehtron": 4052,
      "ziti": 4053,
      "Ġecnamrofrep": 4054,
      "ihciM": 4055,
      "sicnarF": 4056,
      "Ġ1002": 4057,
      "at": 4058,
      "tirret": 4059,
      "ppilihP": 4060,
      "yen": 4061,
      "ĠkeerG": 4062,
      "sucsid": 4063,
      "ĠynapmoC": 4064,
      "tsrif": 4065,
      "pacse": 4066,
      "Ġlanosrep": 4067,
      "rga": 4068,
      "Ġdeda": 4069,
      "Ġdeneppah": 4070,
      "Ġgrub": 4071,
      "Ġrevir": 4072,
      "Ġdooh": 4073,
      "Ġaidem": 4074,
      "Ġderref": 4075,
      "duJ": 4076,
      "Ġetelpmoc": 4077,
      "noloc": 4078,
      "tom": 4079,
      "Ġdetne": 4080,
      "ĠyawliaR": 4081,
      "yraM": 4082,
      "drager": 4083,
      "Ġgnidi": 4084,
      "44": 4085,
      "hsilgnE": 4086,
      "ĠhsiweJ": 4087,
      "Ġgnidrocca": 4088,
      "teB": 4089,
      "ĠgniwolloF": 4090,
      "ĠsdroceR": 4091,
      "ysp": 4092,
      "Ġerutcurts": 4093,
      "ini": 4094,
      "Ġlaed": 4095,
      "Ġtndid": 4096,
      "ĠaidnI": 4097,
      "iarts": 4098,
      "cnanif": 4099,
      "Ġretsis": 4100,
      "saercni": 4101,
      "6891": 4102,
      "971": 4103,
      "up": 4104,
      "kU": 4105,
      "Ġ;)": 4106,
      "ĠelttaB": 4107,
      "Ġstnerap": 4108,
      "Ġduo": 4109,
      "Ġllik": 4110,
      "am": 4111,
      "ĠnrehtuoS": 4112,
      "gnarra": 4113,
      "Ġah": 4114,
      "learsI": 4115,
      "gnoS": 4116,
      "uj": 4117,
      "ihO": 4118,
      "gnik": 4119,
      "Ġdeiduts": 4120,
      "73": 4121,
      "utroP": 4122,
      "Ġxes": 4123,
      "noitats": 4124,
      "Ġgniyas": 4125,
      "Ġdesuac": 4126,
      "Ġelpoeps": 4127,
      "Ġtnacifingis": 4128,
      "Ġsuoig": 4129,
      "taN": 4130,
      "raF": 4131,
      "htroN": 4132,
      "5891": 4133,
      "Ġyletamixorppa": 4134,
      "bmuloC": 4135,
      "Ġtseretni": 4136,
      "orC": 4137,
      "Ġlufe": 4138,
      "ĠainrofilaC": 4139,
      "Ġremmus": 4140,
      "ĠfI": 4141,
      "Ġdeka": 4142,
      "cilf": 4143,
      "000": 4144,
      "Ġsuht": 4145,
      "elpo": 4146,
      "lesmeht": 4147,
      "thgil": 4148,
      "ese": 4149,
      "ĠyM": 4150,
      "ĠdlO": 4151,
      "tfa": 4152,
      "muj": 4153,
      "Ġter": 4154,
      "tlu": 4155,
      "wols": 4156,
      "83": 4157,
      "Ġhtaerb": 4158,
      "Ġnalp": 4159,
      "stnem": 4160,
      "dnuh": 4161,
      "naip": 4162,
      "Ġyltsom": 4163,
      "tnoM": 4164,
      "Ġgnimrof": 4165,
      "ĠyratiliM": 4166,
      "Ġskoob": 4167,
      "54": 4168,
      "Ġerta": 4169,
      "Ġgnipp": 4170,
      "ĠrojaM": 4171,
      "AS": 4172,
      "ruoy": 4173,
      "tsuc": 4174,
      "Ġgnide": 4175,
      "tibah": 4176,
      "tnemucod": 4177,
      "Ġano": 4178,
      "Ġdepleh": 4179,
      "maxe": 4180,
      "Ġyrater": 4181,
      "merP": 4182,
      "hR": 4183,
      "raL": 4184,
      "ul": 4185,
      "Ġetad": 4186,
      "Ġerutuf": 4187,
      "Ġatad": 4188,
      "ĠstrA": 4189,
      "Ġgnimoceb": 4190,
      "acirfA": 4191,
      "vas": 4192,
      "uT": 4193,
      "rK": 4194,
      "Ġcir": 4195,
      "mys": 4196,
      "margorp": 4197,
      "Ġdehcnual": 4198,
      "sacco": 4199,
      "Ġyvaeh": 4200,
      "cnirP": 4201,
      "isi": 4202,
      "DI": 4203,
      "Ġteem": 4204,
      "haM": 4205,
      "cejbo": 4206,
      "Ġdeniat": 4207,
      "koob": 4208,
      "oS": 4209,
      "Ġtfarcria": 4210,
      "ĠretsigeR": 4211,
      "Ġkaerb": 4212,
      "ĠailartsuA": 4213,
      "Ġgnidloh": 4214,
      "ĠsrebmeM": 4215,
      "ĠhctuD": 4216,
      "vnoc": 4217,
      "nop": 4218,
      "4891": 4219,
      "Ġgreb": 4220,
      "Ġette": 4221,
      "iws": 4222,
      "ĠdnalaeZ": 4223,
      "Ġsuoma": 4224,
      "Ġsserp": 4225,
      "Ġdena": 4226,
      "uoY": 4227,
      "cehc": 4228,
      "ova": 4229,
      "teN": 4230,
      "Ġregna": 4231,
      "llec": 4232,
      "hgie": 4233,
      "ĠuoY": 4234,
      "Ġredael": 4235,
      "retsa": 4236,
      "Ġtsaf": 4237,
      "Ġrehgih": 4238,
      "ĠsemaG": 4239,
      "ĠhpesoJ": 4240,
      "poda": 4241,
      "Ġesrev": 4242,
      "ĠcitarcomeD": 4243,
      "enignE": 4244,
      "Ġlanoitidda": 4245,
      "Ġslia": 4246,
      "onil": 4247,
      "Ġnoitnetta": 4248,
      "moT": 4249,
      "evi": 4250,
      "Ġdeganam": 4251,
      "Ġamard": 4252,
      "Ġ04": 4253,
      "Ġ13": 4254,
      "ĠgiB": 4255,
      "Ġlaire": 4256,
      "Ġylekil": 4257,
      "Ġreilrae": 4258,
      "Ġyk": 4259,
      "dnaL": 4260,
      "Ġenoyna": 4261,
      "licaf": 4262,
      "cilppa": 4263,
      "Ġeurt": 4264,
      "Ġsrev": 4265,
      "poleveD": 4266,
      "Ġlanoitidart": 4267,
      "ĠliviC": 4268,
      "Ġyrtsi": 4269,
      "Ġeto": 4270,
      "rbelec": 4271,
      "Ġylbme": 4272,
      "Ġgnivres": 4273,
      "murd": 4274,
      "Ġskna": 4275,
      "Ġlacisum": 4276,
      "Ġsregnif": 4277,
      "Ġseda": 4278,
      "niarkU": 4279,
      "taert": 4280,
      "Ġyramirp": 4281,
      "Ġenif": 4282,
      "limaF": 4283,
      "sua": 4284,
      "Ġoiduts": 4285,
      "Ġsnur": 4286,
      "Ġsemoc": 4287,
      "Ġlaog": 4288,
      "toh": 4289,
      "Ġeulb": 4290,
      "Ġgniteem": 4291,
      "Ġfeihc": 4292,
      "Ġgnitrats": 4293,
      "rget": 4294,
      "coD": 4295,
      "ceB": 4296,
      "rel": 4297,
      "retse": 4298,
      "ĠecroF": 4299,
      "Ġyes": 4300,
      "sedo": 4301,
      "van": 4302,
      "eerht": 4303,
      "hparg": 4304,
      "3891": 4305,
      "xob": 4306,
      "Ġtnaem": 4307,
      "Ġenoyreve": 4308,
      "ehS": 4309,
      "snarT": 4310,
      "ĠyraM": 4311,
      "citcarp": 4312,
      "udni": 4313,
      "ĠecnarF": 4314,
      "gnit": 4315,
      "Ġgnileef": 4316,
      "Ġgnisi": 4317,
      "Ġgnib": 4318,
      "Ġsnai": 4319,
      "uP": 4320,
      "Ġhtlaeh": 4321,
      "Ġseka": 4322,
      "modgniK": 4323,
      "onillI": 4324,
      "Ġsme": 4325,
      "seno": 4326,
      "Ġtnednepedni": 4327,
      "tsikaP": 4328,
      "ĠdrawdE": 4329,
      "Ġnosi": 4330,
      "paew": 4331,
      "Ġala": 4332,
      "Ġsseni": 4333,
      "ulc": 4334,
      "Ġwoleb": 4335,
      "Ġdelims": 4336,
      "irA": 4337,
      "ĠecneicS": 4338,
      "Ġref": 4339,
      "llahc": 4340,
      "Ġyev": 4341,
      "tsoB": 4342,
      "Ġati": 4343,
      "Ġetipsed": 4344,
      "eK": 4345,
      "nruoJ": 4346,
      "Ġtnedi": 4347,
      "pada": 4348,
      "itap": 4349,
      "Ġlanoi": 4350,
      "ehw": 4351,
      "zA": 4352,
      "suhca": 4353,
      "Ġdereffo": 4354,
      "Ġrettam": 4355,
      "Ġtsehc": 4356,
      "Ġstrops": 4357,
      "Ġdeirrac": 4358,
      "Ġsetats": 4359,
      "Ġtcartnoc": 4360,
      "naS": 4361,
      "omo": 4362,
      "ĠfeihC": 4363,
      "taS": 4364,
      "Ġyllareneg": 4365,
      "Ã§": 4366,
      "eti": 4367,
      "lit": 4368,
      "temo": 4369,
      "nimret": 4370,
      "nretnI": 4371,
      "ĠefiL": 4372,
      "Ġdetaicossa": 4373,
      "Ġesab": 4374,
      "ĠtniaS": 4375,
      "Ġniks": 4376,
      "Ġaz": 4377,
      "Ġgnila": 4378,
      "csa": 4379,
      "tuO": 4380,
      "EC": 4381,
      "rtsni": 4382,
      "Ġlacidem": 4383,
      "Ġstinu": 4384,
      "ĠhcraeseR": 4385,
      "Ġcitsi": 4386,
      "hcaoc": 4387,
      "esi": 4388,
      "thgin": 4389,
      "ycne": 4390,
      "pE": 4391,
      "yoB": 4392,
      "rtsehc": 4393,
      "Ġyf": 4394,
      "ĠsdrawA": 4395,
      "tesuhca": 4396,
      "iks": 4397,
      "tnegrA": 4398,
      "oV": 4399,
      "Ġetar": 4400,
      "cartta": 4401,
      "Ġelddim": 4402,
      "Ġsniatnoc": 4403,
      "maR": 4404,
      "yeb": 4405,
      "tnewt": 4406,
      "Ġdog": 4407,
      "psihw": 4408,
      "2891": 4409,
      "tneserpeR": 4410,
      "Ġtsaeht": 4411,
      "Ġesnes": 4412,
      "kA": 4413,
      "Ġato": 4414,
      "neR": 4415,
      "cin": 4416,
      "romem": 4417,
      "Ġdeveileb": 4418,
      "tesuhcassaM": 4419,
      "Ġswen": 4420,
      "ĠnoitacudE": 4421,
      "Ð°": 4422,
      "iT": 4423,
      "ahT": 4424,
      "Ġkram": 4425,
      "Ġrehtehw": 4426,
      "ivitca": 4427,
      "woB": 4428,
      "netu": 4429,
      "Ġelpitlum": 4430,
      "dnuob": 4431,
      "Ġein": 4432,
      "ĠnaisA": 4433,
      "imerp": 4434,
      "tsuguA": 4435,
      "ilo": 4436,
      "ssab": 4437,
      "ssecen": 4438,
      "Ġhcaer": 4439,
      "ĠaciremA": 4440,
      "ĠadanaC": 4441,
      "liaR": 4442,
      "ĠnretsaE": 4443,
      "Ġtnemu": 4444,
      "Ġderiuqer": 4445,
      "Ġrenni": 4446,
      "Ġylralucitrap": 4447,
      "Ġthguac": 4448,
      "Ġlevon": 4449,
      "sso": 4450,
      "Ġdelia": 4451,
      "ilb": 4452,
      "hcrA": 4453,
      "zag": 4454,
      "narg": 4455,
      "Ġboj": 4456,
      "geta": 4457,
      "oD": 4458,
      "Ġkoohs": 4459,
      "udividni": 4460,
      "yal": 4461,
      "nimreted": 4462,
      "naps": 4463,
      "93": 4464,
      "PM": 4465,
      "uga": 4466,
      "Ġnov": 4467,
      "9791": 4468,
      "revnoc": 4469,
      "pU": 4470,
      "deb": 4471,
      "evo": 4472,
      "Ġror": 4473,
      "Ġmia": 4474,
      "Ġdetarepo": 4475,
      "Ġetiuq": 4476,
      "Ġlleh": 4477,
      "gami": 4478,
      "ugni": 4479,
      "tsyS": 4480,
      "tum": 4481,
      "ralced": 4482,
      "Ġsub": 4483,
      "Ġsniat": 4484,
      "Ġdeton": 4485,
      "nocE": 4486,
      "leda": 4487,
      "plu": 4488,
      "Ġtsehgih": 4489,
      "telpmoc": 4490,
      "ĠdnalsI": 4491,
      "Ġledom": 4492,
      "Ġelpuoc": 4493,
      "tob": 4494,
      "pmet": 4495,
      "Ġnosaer": 4496,
      "yortsed": 4497,
      "citame": 4498,
      "nuD": 4499,
      "esum": 4500,
      "dar": 4501,
      "Ġalo": 4502,
      "Ġtpecxe": 4503,
      "rbil": 4504,
      "Ġhcir": 4505,
      "sgnos": 4506,
      "yaB": 4507,
      "Ġdetcepxe": 4508,
      "citra": 4509,
      "ssem": 4510,
      "Ġflesti": 4511,
      "ĠynaM": 4512,
      "Ġgninna": 4513,
      "nretla": 4514,
      "ĠoidaR": 4515,
      "Ġnoitcelloc": 4516,
      "repuS": 4517,
      "ĠkraM": 4518,
      "laT": 4519,
      "won": 4520,
      "rifnoc": 4521,
      "Ġgnida": 4522,
      "siuoL": 4523,
      "Ġdettim": 4524,
      "Ġraelc": 4525,
      "94": 4526,
      "Ġssecca": 4527,
      "Ġgnig": 4528,
      "Ð¾": 4529,
      "Ġhtgnel": 4530,
      "noga": 4531,
      "neet": 4532,
      "IF": 4533,
      "Ġhaey": 4534,
      "Ġyletaidemmi": 4535,
      "Ġgnirb": 4536,
      "fnoC": 4537,
      "Ġtil": 4538,
      "Ġseb": 4539,
      "1891": 4540,
      "tnes": 4541,
      "Ġygrene": 4542,
      "seht": 4543,
      "Ġneerg": 4544,
      "ĠrehtruF": 4545,
      "Ġ9991": 4546,
      "ĠratS": 4547,
      "ĠyvaN": 4548,
      "taW": 4549,
      "puorg": 4550,
      "RA": 4551,
      "miL": 4552,
      "Ġgnitrop": 4553,
      "57": 4554,
      "Ġetaerc": 4555,
      "rU": 4556,
      "Ġsmlif": 4557,
      "monocE": 4558,
      "suoht": 4559,
      "tekram": 4560,
      "ttob": 4561,
      "dooW": 4562,
      "taht": 4563,
      "eadi": 4564,
      "Ġnoitati": 4565,
      "Ġderedro": 4566,
      "aC": 4567,
      "Ġpihsnoitaler": 4568,
      "ylatI": 4569,
      "Ġroines": 4570,
      "nneT": 4571,
      "Ġsuoremun": 4572,
      "ganaM": 4573,
      "Ġenin": 4574,
      "Ġcimonoce": 4575,
      "Ġlaunna": 4576,
      "an": 4577,
      "sehc": 4578,
      "Ġdetceles": 4579,
      "inaD": 4580,
      "mk": 4581,
      "ĠanihC": 4582,
      "Ġhcti": 4583,
      "Ġevres": 4584,
      "Ġnoisivid": 4585,
      "0491": 4586,
      "sivid": 4587,
      "Ġyletelpmoc": 4588,
      "remrof": 4589,
      "seJ": 4590,
      "ssel": 4591,
      "roht": 4592,
      "Ġssol": 4593,
      "ĠwaL": 4594,
      "0391": 4595,
      "Ġdevirra": 4596,
      "Ġteerts": 4597,
      "kcoR": 4598,
      "hpetS": 4599,
      "ĠnapaJ": 4600,
      "Ġecnaraeppa": 4601,
      "Ġnretsae": 4602,
      "Ġymra": 4603,
      "ecalp": 4604,
      "elpmaxe": 4605,
      "rps": 4606,
      "Ġsraeppa": 4607,
      "Ġseid": 4608,
      "susne": 4609,
      "ĠeettimmoC": 4610,
      "irat": 4611,
      "Ġecitsu": 4612,
      "Ġecnatsid": 4613,
      "Ġerihs": 4614,
      "Ġdnalsi": 4615,
      "daoR": 4616,
      "Ġdetimil": 4617,
      "sdnal": 4618,
      "siW": 4619,
      "sd": 4620,
      "Ġseva": 4621,
      "ĠcificaP": 4622,
      "bO": 4623,
      "Ġskeew": 4624,
      "narI": 4625,
      "erif": 4626,
      "ĊĠ": 4627,
      "psoH": 4628,
      "deR": 4629,
      "8791": 4630,
      "elttes": 4631,
      "citamehta": 4632,
      "Ġgniyl": 4633,
      "leu": 4634,
      "hse": 4635,
      "Ġsuneg": 4636,
      "taerg": 4637,
      "uoy": 4638,
      "Ġlav": 4639,
      "Ġada": 4640,
      "Ġxob": 4641,
      "Ġadna": 4642,
      "Ġaj": 4643,
      "knarF": 4644,
      "bed": 4645,
      "rprus": 4646,
      "Ġdetca": 4647,
      "Ġriahc": 4648,
      "retne": 4649,
      "ĠecivreS": 4650,
      "ublA": 4651,
      "netue": 4652,
      "deti": 4653,
      "pygE": 4654,
      "Ġdeppord": 4655,
      "Ġsuoigiler": 4656,
      "vresnoC": 4657,
      "roballoc": 4658,
      "yle": 4659,
      "eper": 4660,
      "yR": 4661,
      "civreS": 4662,
      "tcirtsid": 4663,
      "Ġslo": 4664,
      "Å¡": 4665,
      "84": 4666,
      "seru": 4667,
      "Ġylwols": 4668,
      "Ġlaicremmoc": 4669,
      "ĠH": 4670,
      "teertS": 4671,
      "Ġdesaercni": 4672,
      "4791": 4673,
      "ĠsiuoL": 4674,
      "rehtaf": 4675,
      "Ġyadot": 4676,
      "saM": 4677,
      "neerG": 4678,
      "ruoS": 4679,
      "ĠmaeT": 4680,
      "Ġyllaitini": 4681,
      "caF": 4682,
      "liw": 4683,
      "Ġoda": 4684,
      "dulc": 4685,
      "Ġdnatsrednu": 4686,
      "DC": 4687,
      "Ġgnikniht": 4688,
      "Ġdetti": 4689,
      "Ġv": 4690,
      "Ġlaudividni": 4691,
      "Ġtnemi": 4692,
      "Ġtnalp": 4693,
      "//": 4694,
      "lU": 4695,
      "revO": 4696,
      "siraP": 4697,
      "Ġnoitseuq": 4698,
      "5791": 4699,
      "Ġyltcerid": 4700,
      "2791": 4701,
      "Ġssalg": 4702,
      "Ġrohtua": 4703,
      "ĠoN": 4704,
      "Ġdesser": 4705,
      "Ġredluohs": 4706,
      "Ġnait": 4707,
      "yL": 4708,
      "cnI": 4709,
      "ee": 4710,
      "VT": 4711,
      "ĠdroL": 4712,
      "Ġdeeps": 4713,
      "cinummoc": 4714,
      "teD": 4715,
      "Ġlairts": 4716,
      "yor": 4717,
      "lliH": 4718,
      "6791": 4719,
      "doog": 4720,
      "\";": 4721,
      "Ġwerg": 4722,
      "Ġ)\"": 4723,
      "dehcs": 4724,
      "ĠsecalP": 4725,
      "Ġretpahc": 4726,
      "neK": 4727,
      "7791": 4728,
      "bissop": 4729,
      "Ã±": 4730,
      "ĠmodgniK": 4731,
      "mitse": 4732,
      "cilbupeR": 4733,
      "Ġyrros": 4734,
      "nob": 4735,
      "letni": 4736,
      "Ġhtrow": 4737,
      "Ġnwohs": 4738,
      "Ġerugif": 4739,
      "Ġ+": 4740,
      "nagrO": 4741,
      "gnessap": 4742,
      "Ġsedo": 4743,
      "Ġderiter": 4744,
      "Ġnoitacol": 4745,
      "htuoS": 4746,
      "yalaM": 4747,
      "Ġdehsa": 4748,
      "Ġlivic": 4749,
      "yT": 4750,
      "spo": 4751,
      "Ġnoitpe": 4752,
      "yes": 4753,
      "daorB": 4754,
      "riahc": 4755,
      "dlohesuoh": 4756,
      "draG": 4757,
      "dnaS": 4758,
      "ĠyaD": 4759,
      "Ġ(": 4760,
      "Ġdetroppus": 4761,
      "Ġslai": 4762,
      "ĠhsiloP": 4763,
      "lloH": 4764,
      "5491": 4765,
      "Ġdeerga": 4766,
      "retirw": 4767,
      "tiK": 4768,
      "elcu": 4769,
      "tapxe": 4770,
      "laer": 4771,
      "Ġtekram": 4772,
      "Ġ1202": 4773,
      "Ġlatipac": 4774,
      "ĠogacihC": 4775,
      "irG": 4776,
      "som": 4777,
      "tirW": 4778,
      "Ġdetepmoc": 4779,
      "Ġdenrae": 4780,
      "yla": 4781,
      "Ġyn": 4782,
      "ĠyaB": 4783,
      "pecca": 4784,
      "74": 4785,
      "#:": 4786,
      "hcaet": 4787,
      "Ġok": 4788,
      "gnaB": 4789,
      "Ġecneics": 4790,
      "Ġredlo": 4791,
      "CA": 4792,
      "Ġklaw": 4793,
      "ĠdraoB": 4794,
      "Ġart": 4795,
      "tth": 4796,
      "Ġsuomaf": 4797,
      "rihs": 4798,
      "Ġspah": 4799,
      "Ġtnemevom": 4800,
      "semaG": 4801,
      "Ġlabo": 4802,
      "ĠsaxeT": 4803,
      "ÅĤ": 4804,
      "Ġsniamer": 4805,
      "3791": 4806,
      "tsew": 4807,
      "Ġngiapmac": 4808,
      "sra": 4809,
      "nik": 4810,
      "Ġsegnahc": 4811,
      "Ġetuor": 4812,
      "greb": 4813,
      "loB": 4814,
      "oK": 4815,
      "ĠhtimS": 4816,
      "gorp": 4817,
      "Ġ8991": 4818,
      "ciP": 4819,
      "noitisop": 4820,
      "zitic": 4821,
      "Ġnoitide": 4822,
      "rm": 4823,
      "raf": 4824,
      "Ġtim": 4825,
      "hcruhC": 4826,
      "Ġssap": 4827,
      "iretam": 4828,
      "Ġderrefer": 4829,
      "Ġelttab": 4830,
      "skcaJ": 4831,
      "Ġegde": 4832,
      "lya": 4833,
      "secne": 4834,
      "picnirp": 4835,
      "ramirp": 4836,
      "sdrawA": 4837,
      "ik": 4838,
      "Ġdetneserp": 4839,
      "roD": 4840,
      "sohc": 4841,
      "toM": 4842,
      "ĠnitraM": 4843,
      "Ġ*": 4844,
      "oni": 4845,
      "mar": 4846,
      "64": 4847,
      "1791": 4848,
      "Ġnoititepmoc": 4849,
      "gra": 4850,
      "Ġnoisiced": 4851,
      "Ġtneduts": 4852,
      "ic": 4853,
      "mmargorp": 4854,
      "Ġkrap": 4855,
      "nimirc": 4856,
      "Ġnoitarepo": 4857,
      "Ġamo": 4858,
      "ĠriehT": 4859,
      "Ġregral": 4860,
      "ĠecnirP": 4861,
      "hsA": 4862,
      "Ġcificeps": 4863,
      "Ġraeppa": 4864,
      "ssertca": 4865,
      "idar": 4866,
      "luM": 4867,
      "laH": 4868,
      "sl": 4869,
      "'s": 4870,
      "Ġtis": 4871,
      "repmet": 4872,
      "Ġsevlesmeht": 4873,
      "8691": 4874,
      "ĠneerG": 4875,
      "Ġytirojam": 4876,
      "Ġlaredef": 4877,
      "//:": 4878,
      "Ġtroper": 4879,
      "dua": 4880,
      "nimorp": 4881,
      "ppA": 4882,
      "natS": 4883,
      "Ġhse": 4884,
      "Ġnoinu": 4885,
      "ĠlE": 4886,
      "reD": 4887,
      "yno": 4888,
      "Ð¸": 4889,
      "kcalB": 4890,
      "Ġ005": 4891,
      "rappa": 4892,
      "nnosrep": 4893,
      "ĠelttiL": 4894,
      "lpmoc": 4895,
      "baB": 4896,
      "roproC": 4897,
      "Ġecnedive": 4898,
      "imes": 4899,
      "Ġngis": 4900,
      "ĠtahT": 4901,
      "notgnihsaW": 4902,
      "Ġira": 4903,
      "crof": 4904,
      "ynapmoC": 4905,
      "Ġgnitca": 4906,
      "meni": 4907,
      "Ġnag": 4908,
      "Ġlacirotsih": 4909,
      "getac": 4910,
      "lucaf": 4911,
      "nwor": 4912,
      "mem": 4913,
      "Ġdnabsuh": 4914,
      "Ġstnemu": 4915,
      "ciN": 4916,
      "55": 4917,
      "Ġylpmis": 4918,
      "Ġrevewoh": 4919,
      "Ġgniklat": 4920,
      "Ġreka": 4921,
      "levon": 4922,
      "Ġecitcarp": 4923,
      "Ġesop": 4924,
      "Ġeussi": 4925,
      "Ġalu": 4926,
      "Ġrevlis": 4927,
      "Ġgniniamer": 4928,
      "gnorts": 4929,
      "9691": 4930,
      "SA": 4931,
      "rgetni": 4932,
      "871": 4933,
      "Ġdradnats": 4934,
      "Ġsnrut": 4935,
      "Ġkcen": 4936,
      "irrac": 4937,
      "ttaB": 4938,
      "reC": 4939,
      "Ġtlua": 4940,
      "cnitsid": 4941,
      "seg": 4942,
      "robhgien": 4943,
      "drag": 4944,
      "voM": 4945,
      "ituaeb": 4946,
      "Ġdeso": 4947,
      "Ġdehctaw": 4948,
      "taB": 4949,
      "nus": 4950,
      "Ġdeliaf": 4951,
      "celfer": 4952,
      "nahcem": 4953,
      "ylev": 4954,
      "ugra": 4955,
      "goR": 4956,
      "ivah": 4957,
      "dyS": 4958,
      "jaR": 4959,
      "raeY": 4960,
      "ĠgnoH": 4961,
      "Ġgnorw": 4962,
      "Ġanna": 4963,
      "naicitilop": 4964,
      "vitsef": 4965,
      "Ġdetaroprocni": 4966,
      "Ġeceip": 4967,
      "Ġlaicnanif": 4968,
      "tnemnrevog": 4969,
      "leT": 4970,
      "retnE": 4971,
      "solihp": 4972,
      "Ġtpmetta": 4973,
      "Ġllu": 4974,
      "Ġnoitazinagro": 4975,
      "Ġerutaef": 4976,
      "Ġstluser": 4977,
      "baz": 4978,
      "Ġetunim": 4979,
      "bmun": 4980,
      "Ġnoitazi": 4981,
      "noissimmoc": 4982,
      "mene": 4983,
      "ĠnÃ³": 4984,
      "nommoC": 4985,
      "lbme": 4986,
      "Ġtneicna": 4987,
      "Ġseri": 4988,
      "Ġtiaw": 4989,
      "liG": 4990,
      "Ġtcejbus": 4991,
      "dnalerI": 4992,
      "noitpe": 4993,
      "esuoH": 4994,
      "Ġcif": 4995,
      "redna": 4996,
      "itrap": 4997,
      "dab": 4998,
      "Ġ6991": 4999,
      "Ġdesopmoc": 5000,
      "gurts": 5001,
      "maT": 5002,
      "lik": 5003,
      "Ġseman": 5004,
      "Ġderevocsid": 5005,
      "Ġgnirae": 5006,
      "breS": 5007,
      "Ġyltneuqesbus": 5008,
      "Ġid": 5009,
      "Ġdellif": 5010,
      "Ġelif": 5011,
      "Ġdele": 5012,
      "barA": 5013,
      "Ġrats": 5014,
      "Ġesuac": 5015,
      "Ġerocs": 5016,
      "Ġtsitra": 5017,
      "dniW": 5018,
      "Ġrebmemer": 5019,
      "Ġsseccus": 5020,
      "ĠrepuS": 5021,
      "ĠevoL": 5022,
      "Ġdloc": 5023,
      "erD": 5024,
      "Ġesnopser": 5025,
      "Ġemocni": 5026,
      "Ġdeno": 5027,
      "elhtA": 5028,
      "ĠeeL": 5029,
      "hG": 5030,
      "Ġytreporp": 5031,
      "Ġdemus": 5032,
      "sinagro": 5033,
      "elgnis": 5034,
      "nutrop": 5035,
      "srebmem": 5036,
      "elE": 5037,
      "Ġffats": 5038,
      "Ġniap": 5039,
      "Ġgnirutaef": 5040,
      "Ġded": 5041,
      "ĠtnemailraP": 5042,
      "hgil": 5043,
      "Ġniart": 5044,
      "0291": 5045,
      "kruT": 5046,
      "gnoleb": 5047,
      "cided": 5048,
      "Ġderiuqca": 5049,
      "Ġedart": 5050,
      "nepo": 5051,
      "Ġtsop": 5052,
      "Ġylneddus": 5053,
      "redeF": 5054,
      "Ġetarapes": 5055,
      "Ġserutcurts": 5056,
      "Ġpets": 5057,
      "rJ": 5058,
      "bulC": 5059,
      "ntrap": 5060,
      "nevnoc": 5061,
      "Ġyranoit": 5062,
      "paP": 5063,
      "gen": 5064,
      "llaH": 5065,
      "ggi": 5066,
      "Ġsevil": 5067,
      "evit": 5068,
      "onA": 5069,
      "Ġreciffo": 5070,
      "saxeT": 5071,
      "issalc": 5072,
      "ĠstropS": 5073,
      "Ġsee": 5074,
      "Ġelbisnopser": 5075,
      "rofmoc": 5076,
      "dlihc": 5077,
      "Ġgninaem": 5078,
      "Ġgniw": 5079,
      "Ġdeussi": 5080,
      "Ġrosseforp": 5081,
      "xat": 5082,
      "Ġgniyf": 5083,
      "Ġgnitiaw": 5084,
      "Ġtcerid": 5085,
      "Ġnioj": 5086,
      "Ġtek": 5087,
      "Ġruoh": 5088,
      "oh": 5089,
      "Ġiks": 5090,
      "seiceps": 5091,
      "eccus": 5092,
      "doG": 5093,
      "luaP": 5094,
      "Ġspahrep": 5095,
      "jda": 5096,
      "reF": 5097,
      "Ġsmret": 5098,
      "iluJ": 5099,
      "Ġtoh": 5100,
      "srehto": 5101,
      "7691": 5102,
      "Ġnoitce": 5103,
      "Ġeunitnoc": 5104,
      "slacov": 5105,
      "ecnivorP": 5106,
      "ĠkcarT": 5107,
      "ĠhsidewS": 5108,
      "Ġsretcarahc": 5109,
      "ugi": 5110,
      "Ġegdel": 5111,
      "inhc": 5112,
      "aissuR": 5113,
      "tuB": 5114,
      "tahw": 5115,
      "vA": 5116,
      "semit": 5117,
      "Ġhcta": 5118,
      "Ġseiduts": 5119,
      "Ġstca": 5120,
      "Ġeunev": 5121,
      "Ġylia": 5122,
      "Ġesaercni": 5123,
      "lliB": 5124,
      "liar": 5125,
      "Ġskool": 5126,
      "pmav": 5127,
      "cre": 5128,
      "Ġgnigni": 5129,
      "gnola": 5130,
      "naf": 5131,
      "reeraC": 5132,
      "Ġylniam": 5133,
      "Ġesae": 5134,
      "feneb": 5135,
      "Ġecnahc": 5136,
      "ĠeL": 5137,
      "epS": 5138,
      "Ġelbi": 5139,
      "Ġgnima": 5140,
      "Ġik": 5141,
      "ezC": 5142,
      "ĠetipseD": 5143,
      "yaD": 5144,
      "Ġkcir": 5145,
      "doT": 5146,
      "Ġwodniw": 5147,
      "à¤": 5148,
      "Ġlanoiger": 5149,
      "Ġytiruces": 5150,
      "Ġemerp": 5151,
      "mixa": 5152,
      "kcaB": 5153,
      "tsinim": 5154,
      "htrA": 5155,
      "Ġrab": 5156,
      "Ġeye": 5157,
      "nniM": 5158,
      "ej": 5159,
      "85": 5160,
      "srota": 5161,
      "ĠknarF": 5162,
      "varg": 5163,
      "elo": 5164,
      "Ġsela": 5165,
      "redro": 5166,
      "Ġyug": 5167,
      "Ġnati": 5168,
      "Ġytnuoc": 5169,
      "nirp": 5170,
      "Ġtnuoma": 5171,
      "Ġsteg": 5172,
      "Ġdednetxe": 5173,
      "ĠlliB": 5174,
      "Ġyler": 5175,
      "Ġerutan": 5176,
      "luda": 5177,
      "Ġsnoitca": 5178,
      "sO": 5179,
      "ĠfO": 5180,
      "wolf": 5181,
      "oT": 5182,
      "yol": 5183,
      "barg": 5184,
      "Ġngierof": 5185,
      "Ġecafrus": 5186,
      "ng": 5187,
      "46": 5188,
      "Ġdekco": 5189,
      "ulcni": 5190,
      "Ġgnidaer": 5191,
      "sdroceR": 5192,
      "bur": 5193,
      "23": 5194,
      "lcyc": 5195,
      "Ġevitan": 5196,
      "Ġdray": 5197,
      "ocixeM": 5198,
      "Ġesor": 5199,
      "Ġrewsna": 5200,
      "yd": 5201,
      "noB": 5202,
      "dec": 5203,
      "Ġtinu": 5204,
      "ĠgnuoY": 5205,
      "sruo": 5206,
      "ĠeW": 5207,
      "citon": 5208,
      "of": 5209,
      "uK": 5210,
      "Ġdedaeh": 5211,
      "ĠseireS": 5212,
      "Ġyap": 5213,
      "Ġylevita": 5214,
      "al": 5215,
      "ywal": 5216,
      "rtnec": 5217,
      "ĠlanosreP": 5218,
      "Ġrepap": 5219,
      "Ġrotca": 5220,
      "Ġseiro": 5221,
      "Ġralucitrap": 5222,
      "Ġsesuoh": 5223,
      "Ġona": 5224,
      "Ġin": 5225,
      "Ġdesse": 5226,
      "Ġecruos": 5227,
      "Ġsnalp": 5228,
      "idep": 5229,
      "Ġtnecer": 5230,
      "teiV": 5231,
      "tuc": 5232,
      "noisiviD": 5233,
      "ĠlaicoS": 5234,
      "ĠtuB": 5235,
      "cirtsid": 5236,
      "vic": 5237,
      "ĠkcaJ": 5238,
      "Ġkcal": 5239,
      "loW": 5240,
      "veL": 5241,
      "iratnO": 5242,
      "Ġlatem": 5243,
      "IL": 5244,
      "stsitra": 5245,
      "rtcelE": 5246,
      "ĠpoT": 5247,
      "ainigriV": 5248,
      "ĠeporuE": 5249,
      "lopor": 5250,
      "ĠmoT": 5251,
      "Ġyppah": 5252,
      "llortnoc": 5253,
      "Ġ002": 5254,
      "Ġseirtnuoc": 5255,
      "ĠLF": 5256,
      "plucs": 5257,
      "ĠelddiM": 5258,
      "5691": 5259,
      "lover": 5260,
      "Ġekorb": 5261,
      "noloC": 5262,
      "Ġseilimaf": 5263,
      "Ġsesac": 5264,
      "org": 5265,
      "ĠynamreG": 5266,
      "ile": 5267,
      "Ġenigne": 5268,
      "dnuS": 5269,
      "ĠspihsnoipmahC": 5270,
      "esu": 5271,
      "uht": 5272,
      "Ġrehc": 5273,
      "meL": 5274,
      "Ġdewohs": 5275,
      "necs": 5276,
      "ĠhtlaeH": 5277,
      "picinuM": 5278,
      "niapS": 5279,
      "rehteN": 5280,
      "tsim": 5281,
      "bac": 5282,
      "tneK": 5283,
      "Ġnoitu": 5284,
      "Ġyteirav": 5285,
      "ĠretaL": 5286,
      "Ġybraen": 5287,
      "Ġthgiarts": 5288,
      "AM": 5289,
      "nomed": 5290,
      "Ġhtnom": 5291,
      "nutroppo": 5292,
      "reK": 5293,
      "Ġylde": 5294,
      "nime": 5295,
      "ĠIII": 5296,
      "capac": 5297,
      "rgorP": 5298,
      "ediV": 5299,
      "Ġnoitcurts": 5300,
      "saeler": 5301,
      "ttO": 5302,
      "ssalC": 5303,
      "llatsni": 5304,
      "baS": 5305,
      "ĠylbmessA": 5306,
      "Ġtruh": 5307,
      "Ġepa": 5308,
      "yhP": 5309,
      "Ġsucof": 5310,
      "4691": 5311,
      "beW": 5312,
      "iaT": 5313,
      "ona": 5314,
      "ĠAB": 5315,
      "ĠeulB": 5316,
      "Ġdetomorp": 5317,
      "Ġgnim": 5318,
      "riK": 5319,
      "Ġsgel": 5320,
      "Ġtsoc": 5321,
      "uort": 5322,
      "rtne": 5323,
      "6691": 5324,
      "Ġsedivorp": 5325,
      "Ġ2991": 5326,
      "yoj": 5327,
      "Ġmelborp": 5328,
      "giN": 5329,
      "riC": 5330,
      "ĠnoitatS": 5331,
      "Ġwollo": 5332,
      "Ġstsisnoc": 5333,
      "raeH": 5334,
      "ĠkooB": 5335,
      "Ġcitsa": 5336,
      "ĠrehtonA": 5337,
      "laK": 5338,
      "ano": 5339,
      "Ġruot": 5340,
      "ruK": 5341,
      "ltA": 5342,
      "raps": 5343,
      "Ġgnidrocer": 5344,
      "Ġylremrof": 5345,
      "Ġerauqs": 5346,
      "ĠlaicepS": 5347,
      "Ġdesserp": 5348,
      "dnepednI": 5349,
      "Ġled": 5350,
      "ĠrednaxelA": 5351,
      "Ġcirotsih": 5352,
      "Ġreganam": 5353,
      "dog": 5354,
      "dutS": 5355,
      "peed": 5356,
      "ilbiB": 5357,
      "Ġnoitcerid": 5358,
      "ĠeD": 5359,
      "nreB": 5360,
      "Ġdetaudarg": 5361,
      "ihpleda": 5362,
      "Ġllah": 5363,
      "tcaxe": 5364,
      "tsnoc": 5365,
      "iH": 5366,
      "Ġlarutluc": 5367,
      "erehw": 5368,
      "Ġskcart": 5369,
      "bazilE": 5370,
      "Ġdesoporp": 5371,
      "âĢĿ": 5372,
      "Ġdeltit": 5373,
      "Ġesaelp": 5374,
      "motua": 5375,
      "Ġdnammoc": 5376,
      "Ġkrowten": 5377,
      "Ġroirp": 5378,
      "Ġtnev": 5379,
      "Ġyekcoh": 5380,
      "malsI": 5381,
      "ĠnoisiveleT": 5382,
      "Ġelpmaxe": 5383,
      "erA": 5384,
      "sylana": 5385,
      "Ġdnom": 5386,
      "Ġecneirepxe": 5387,
      "Ġylthgils": 5388,
      "Ġ7991": 5389,
      "rutcafunam": 5390,
      "Ġdennalp": 5391,
      "lag": 5392,
      "nuS": 5393,
      "ĠnaeroK": 5394,
      "Â£": 5395,
      "rra": 5396,
      "draob": 5397,
      "csed": 5398,
      "Ġrenroc": 5399,
      "Ġretupmoc": 5400,
      "ĠeerhT": 5401,
      "noitacude": 5402,
      "Ġsnoitarepo": 5403,
      "htem": 5404,
      "serf": 5405,
      "uloveR": 5406,
      "Ġtnemanruot": 5407,
      "Ġhctaw": 5408,
      "hcna": 5409,
      "Ġepoh": 5410,
      "ffart": 5411,
      "ytraP": 5412,
      "Ġeve": 5413,
      "Ġ).": 5414,
      "lew": 5415,
      "xim": 5416,
      "Ġenizagam": 5417,
      "ĠdnalerI": 5418,
      "koT": 5419,
      "psus": 5420,
      "ĠnitaL": 5421,
      "skoob": 5422,
      "Ġdetangised": 5423,
      "notnA": 5424,
      "Ġgnittis": 5425,
      "pla": 5426,
      "Ġegrahc": 5427,
      "ĠnaM": 5428,
      "secna": 5429,
      "Ġyrotciv": 5430,
      "seci": 5431,
      "itnA": 5432,
      "senniM": 5433,
      "Ġdednetni": 5434,
      "elpoeP": 5435,
      "tup": 5436,
      "65": 5437,
      "PS": 5438,
      "Ġdad": 5439,
      "reneG": 5440,
      "Ġeivom": 5441,
      "Ġydemoc": 5442,
      "Ġseo": 5443,
      "Ġlacisyhp": 5444,
      "Ġsb": 5445,
      "Ġresolc": 5446,
      "ay": 5447,
      "skrow": 5448,
      "KU": 5449,
      "nuM": 5450,
      "CC": 5451,
      "dep": 5452,
      "Ġseitila": 5453,
      "Ġyltcaxe": 5454,
      "Ġsredro": 5455,
      "Ġsthgil": 5456,
      "ihpledalihP": 5457,
      "ato": 5458,
      "Ġron": 5459,
      "teme": 5460,
      "nretni": 5461,
      "ĠtroF": 5462,
      "Ġseog": 5463,
      "snocsiW": 5464,
      "lluf": 5465,
      "teop": 5466,
      "Ġnairag": 5467,
      "wob": 5468,
      "Ðµ": 5469,
      "Ġdedivid": 5470,
      "romeM": 5471,
      "ĠhtoB": 5472,
      "Ġmuida": 5473,
      "Ġytterp": 5474,
      "tiP": 5475,
      "Ġnair": 5476,
      "ĠlavitseF": 5477,
      "Ġdaerps": 5478,
      "Ġtaeb": 5479,
      "Ġedisgnola": 5480,
      "neht": 5481,
      "ĠlliH": 5482,
      "Ġyllaiciffo": 5483,
      "yk": 5484,
      "niart": 5485,
      "riM": 5486,
      "Ġlufituaeb": 5487,
      "snaicitilop": 5488,
      "dnaba": 5489,
      "Ġllec": 5490,
      "Ġelle": 5491,
      "inne": 5492,
      "Ġ4991": 5493,
      "elF": 5494,
      "Ġderrefsnart": 5495,
      "dohtem": 5496,
      "tserra": 5497,
      "ĠnacilbupeR": 5498,
      "motsuc": 5499,
      "htna": 5500,
      "Ġevitartsinimda": 5501,
      "reserp": 5502,
      "stneme": 5503,
      "Ġgniga": 5504,
      "iz": 5505,
      "sitats": 5506,
      "snes": 5507,
      "ĠselegnA": 5508,
      "yhparg": 5509,
      "ĠronrevoG": 5510,
      "Ġud": 5511,
      "cilfnoc": 5512,
      "dliuB": 5513,
      "Ġtsacdaorb": 5514,
      "ĠeoJ": 5515,
      "Ġllahs": 5516,
      "suS": 5517,
      "Ġregnis": 5518,
      "ĠemirP": 5519,
      "Ġrettel": 5520,
      "icisum": 5521,
      "BC": 5522,
      "Ġdiap": 5523,
      "ĠlaredeF": 5524,
      "rej": 5525,
      "getarts": 5526,
      "95": 5527,
      "ĠâĢĻ": 5528,
      "Ġderats": 5529,
      "Ġdetcurtsnoc": 5530,
      "naltA": 5531,
      "Äį": 5532,
      "cas": 5533,
      "Ġeert": 5534,
      "ĠJ": 5535,
      "elhta": 5536,
      "Ġseussi": 5537,
      "4491": 5538,
      "tropS": 5539,
      "rtsnomed": 5540,
      "Ġtnemeganam": 5541,
      "Ġ5991": 5542,
      "Ġdliub": 5543,
      "ivaheb": 5544,
      "niaM": 5545,
      "snoi": 5546,
      "troP": 5547,
      "doR": 5548,
      "Ġdezinagro": 5549,
      "75": 5550,
      "ĠelbatoN": 5551,
      "Ġlio": 5552,
      "Ġnoitcif": 5553,
      "ffA": 5554,
      "udnI": 5555,
      "TA": 5556,
      "Ġtoof": 5557,
      "Ġroop": 5558,
      "Ġdelaever": 5559,
      "llah": 5560,
      "Ġrecco": 5561,
      "iK": 5562,
      "ciR": 5563,
      "hcysp": 5564,
      "lipmoc": 5565,
      "liB": 5566,
      "Ġgniworg": 5567,
      "ĠneeuQ": 5568,
      "siV": 5569,
      "susnec": 5570,
      "lom": 5571,
      "ĠÄĩ": 5572,
      "Ġetairtapxe": 5573,
      "Ġsbulc": 5574,
      "tsevni": 5575,
      "Ġezno": 5576,
      "ĠyellaV": 5577,
      "Ġgnithgif": 5578,
      "ĠemerpuS": 5579,
      "atad": 5580,
      "Ġevird": 5581,
      "gella": 5582,
      "lufe": 5583,
      "neV": 5584,
      "yK": 5585,
      "ĠatnaS": 5586,
      "moS": 5587,
      "aL": 5588,
      "teR": 5589,
      "Ġdrawa": 5590,
      "sned": 5591,
      "lob": 5592,
      "Ġdekram": 5593,
      "Ġselim": 5594,
      "kcalb": 5595,
      "tsiD": 5596,
      "Ġslrig": 5597,
      "usrup": 5598,
      "ual": 5599,
      "inhcet": 5600,
      "Ġsretrauq": 5601,
      "lanruoj": 5602,
      "koo": 5603,
      "Ġybgur": 5604,
      "buC": 5605,
      "Ġko": 5606,
      "nrut": 5607,
      "3691": 5608,
      "Ġini": 5609,
      "ap": 5610,
      "Ġnoipma": 5611,
      "Ġllabesab": 5612,
      "tnecsed": 5613,
      "Ġore": 5614,
      "Ġaro": 5615,
      "Ġhtfif": 5616,
      "htolc": 5617,
      "nnA": 5618,
      "ĠnwoT": 5619,
      "ainavlysnneP": 5620,
      "lihC": 5621,
      "Ġytilapicinum": 5622,
      "hcruhc": 5623,
      "soppo": 5624,
      "Ġsehctam": 5625,
      "2691": 5626,
      "Ġgniees": 5627,
      "elpmi": 5628,
      "eruta": 5629,
      "tiw": 5630,
      "piuqe": 5631,
      "Ġxelpmoc": 5632,
      "licnuoC": 5633,
      "rocs": 5634,
      "cisuM": 5635,
      "ĠekiM": 5636,
      "Ġmom": 5637,
      "girB": 5638,
      "ĠrosseforP": 5639,
      "Ġdemaner": 5640,
      "Ġknab": 5641,
      "Ġdeppets": 5642,
      "taerht": 5643,
      "Ġlairetam": 5644,
      "soB": 5645,
      "Ġ56": 5646,
      "pmu": 5647,
      "tsoP": 5648,
      "htaerb": 5649,
      "ecivres": 5650,
      "tsetnoc": 5651,
      "spihs": 5652,
      "Ġow": 5653,
      "ĠCBB": 5654,
      "ĠecnerefnoC": 5655,
      "egdirb": 5656,
      "Ġdnoyeb": 5657,
      "erom": 5658,
      "wolle": 5659,
      "Ġriap": 5660,
      "Ġsmetsys": 5661,
      "senod": 5662,
      "Ġrehca": 5663,
      "Ã¸": 5664,
      "Ġtceffe": 5665,
      "Ġngie": 5666,
      "greme": 5667,
      "senodnI": 5668,
      "Ġsusne": 5669,
      "Ġima": 5670,
      "ewroN": 5671,
      "gnidaer": 5672,
      "Ġdehsup": 5673,
      "cits": 5674,
      "volS": 5675,
      "ine": 5676,
      "weL": 5677,
      "snaK": 5678,
      "Ġdezilaer": 5679,
      "raT": 5680,
      "rhT": 5681,
      "ĠnemoW": 5682,
      "Ġzza": 5683,
      "ĠyrtsiniM": 5684,
      "Ġlatipsoh": 5685,
      "Ġrednuof": 5686,
      "erdnA": 5687,
      "dnam": 5688,
      "Ġecneserp": 5689,
      "utitsnI": 5690,
      "Ġronim": 5691,
      "ilsuM": 5692,
      "Ġderia": 5693,
      "yap": 5694,
      "noinU": 5695,
      "yrots": 5696,
      "are": 5697,
      "Ġij": 5698,
      "Ġekops": 5699,
      "Ġretsam": 5700,
      "calper": 5701,
      "etorp": 5702,
      "Ġyliramirp": 5703,
      "rod": 5704,
      "evita": 5705,
      "Ġlacip": 5706,
      "Ġdezingocer": 5707,
      "yks": 5708,
      "ĠyraterceS": 5709,
      "yrau": 5710,
      "stneve": 5711,
      "99": 5712,
      "Ġevitisop": 5713,
      "dnatS": 5714,
      "Ġspa": 5715,
      "Ġtnatsissa": 5716,
      "FF": 5717,
      "SC": 5718,
      "Ġ06": 5719,
      "muesuM": 5720,
      "rotser": 5721,
      "isa": 5722,
      "ĠsiraP": 5723,
      "adirolF": 5724,
      "771": 5725,
      "ĠsemiT": 5726,
      "ĠetuoR": 5727,
      "leS": 5728,
      "Ġlarot": 5729,
      "tsap": 5730,
      "ĠrotceriD": 5731,
      "Ġgnihctaw": 5732,
      "siht": 5733,
      "Ġylhgih": 5734,
      "noitaicossA": 5735,
      "Ġylevit": 5736,
      "Ġevorp": 5737,
      "ĠreimerP": 5738,
      "vorpmi": 5739,
      "Ġlani": 5740,
      "lyaT": 5741,
      "Ġnabru": 5742,
      "uossiM": 5743,
      "Ġsinne": 5744,
      "Ġgnisol": 5745,
      "tin": 5746,
      "Ġecnad": 5747,
      "roloC": 5748,
      "iveR": 5749,
      "rtsinimdA": 5750,
      "sdraw": 5751,
      "tcA": 5752,
      "ĠsirhC": 5753,
      "Ġelibo": 5754,
      "Ġlles": 5755,
      "ruaL": 5756,
      "Ġezi": 5757,
      "ĠacirfA": 5758,
      "serut": 5759,
      "gnah": 5760,
      "noissimmoC": 5761,
      "1691": 5762,
      "uoH": 5763,
      "tsal": 5764,
      "sneeuQ": 5765,
      "ruoser": 5766,
      "Ġtnanetue": 5767,
      "ĠtnempoleveD": 5768,
      "Ġreffo": 5769,
      "Ġsemoceb": 5770,
      "Ġsam": 5771,
      "zaN": 5772,
      "retneC": 5773,
      "yltne": 5774,
      "Ġdelttes": 5775,
      "ĠssergnoC": 5776,
      "Ġlarur": 5777,
      "ror": 5778,
      "Ġrellams": 5779,
      "Ġerahs": 5780,
      "lai": 5781,
      "ruP": 5782,
      "snosaes": 5783,
      "regnis": 5784,
      "Ġyrub": 5785,
      "dnaloP": 5786,
      "ciped": 5787,
      "ĠlacideM": 5788,
      "mraf": 5789,
      "Ġezag": 5790,
      "redisnoc": 5791,
      "leC": 5792,
      "Ġsevig": 5793,
      "Ġseti": 5794,
      "Ġdellor": 5795,
      "Ã£": 5796,
      "pahC": 5797,
      "Ġkcol": 5798,
      "emoh": 5799,
      "rehtom": 5800,
      "Ġytisrevinu": 5801,
      "namrep": 5802,
      "orG": 5803,
      "Ġevitalsi": 5804,
      "tas": 5805,
      "Ġevitucexe": 5806,
      "Ġdevomer": 5807,
      "Ġlamron": 5808,
      "Ġrevetahw": 5809,
      "Ġyal": 5810,
      "Ġdessim": 5811,
      "edni": 5812,
      "Ġydo": 5813,
      "iecer": 5814,
      "2491": 5815,
      "llaW": 5816,
      "metnoc": 5817,
      "gua": 5818,
      "'ll": 5819,
      "selaW": 5820,
      "tsacdaorb": 5821,
      "ĠllabesaB": 5822,
      "Ġq": 5823,
      "Ġniht": 5824,
      "Ġtluciffid": 5825,
      "naci": 5826,
      "ver": 5827,
      "nga": 5828,
      "Ġwollef": 5829,
      "Ġnetto": 5830,
      "ksa": 5831,
      "Ġdeirub": 5832,
      "Ġecudorp": 5833,
      "retrauq": 5834,
      "Ġdelt": 5835,
      "merec": 5836,
      "Ġtxet": 5837,
      "Ġefas": 5838,
      "saelp": 5839,
      "hA": 5840,
      "Ð½": 5841,
      "gnad": 5842,
      "wtfos": 5843,
      "olpxe": 5844,
      "Ġdenoitnem": 5845,
      "xet": 5846,
      "trapa": 5847,
      "yB": 5848,
      "yaH": 5849,
      "yteicoS": 5850,
      "ĠnoissimmoC": 5851,
      "Ġlaut": 5852,
      "vaH": 5853,
      "Ġgniyr": 5854,
      "Ġhcuot": 5855,
      "sivda": 5856,
      "ab": 5857,
      "bmob": 5858,
      "Ġegne": 5859,
      "dduB": 5860,
      "ue": 5861,
      "TS": 5862,
      "netxe": 5863,
      "nroC": 5864,
      "rotcerid": 5865,
      "Ġstsitra": 5866,
      "Ġnekorb": 5867,
      "ilO": 5868,
      "Ġsehca": 5869,
      "ze": 5870,
      "iht": 5871,
      "ibihxe": 5872,
      "Ġdetacided": 5873,
      "Ġ1991": 5874,
      "lavi": 5875,
      "utitsnoC": 5876,
      "Ġslaog": 5877,
      "Ġraef": 5878,
      "Ġ0991": 5879,
      "Ġysae": 5880,
      "celloC": 5881,
      "Ġdaeha": 5882,
      "Ġycna": 5883,
      "aniloraC": 5884,
      "Ġecneulfni": 5885,
      "ĠnedloG": 5886,
      "tserw": 5887,
      "Ġsreidlos": 5888,
      "mile": 5889,
      "Ġdetapicitrap": 5890,
      "Ġ3991": 5891,
      "dauqS": 5892,
      "elC": 5893,
      "efe": 5894,
      "Ġselba": 5895,
      "ĠDC": 5896,
      "Ġsrevoc": 5897,
      "Ġgnihsu": 5898,
      "Ġeniram": 5899,
      "Ġnahta": 5900,
      "tuA": 5901,
      "idra": 5902,
      "nuP": 5903,
      "Ġladem": 5904,
      "34": 5905,
      "Ġneg": 5906,
      "toH": 5907,
      "gnidliub": 5908,
      "nneK": 5909,
      "ĠekuD": 5910,
      "bot": 5911,
      "Ġkaeps": 5912,
      "ĠainigriV": 5913,
      "Ġmaerts": 5914,
      "Ġtnemtraped": 5915,
      "luo": 5916,
      "Ġsehsi": 5917,
      "Ġwerc": 5918,
      "Ġetisbew": 5919,
      "Ġgnicna": 5920,
      "ĠÂ": 5921,
      "cam": 5922,
      "ĠknaB": 5923,
      "ĠruoT": 5924,
      "Ġlaitini": 5925,
      "Ġlausu": 5926,
      "caR": 5927,
      "Ġdecaf": 5928,
      "ane": 5929,
      "Ġcirtcele": 5930,
      "tsaE": 5931,
      "ruocne": 5932,
      "ĠkaeP": 5933,
      "hco": 5934,
      "ĠrednU": 5935,
      "sag": 5936,
      "nub": 5937,
      "Ġelcitra": 5938,
      "Ġ8891": 5939,
      "Ġdetcennoc": 5940,
      "ĠemiT": 5941,
      "gola": 5942,
      "Ġsesi": 5943,
      "Ġnoisserpxe": 5944,
      "88": 5945,
      "tL": 5946,
      "ruatser": 5947,
      "Ġsutats": 5948,
      "Ġhsif": 5949,
      "vraH": 5950,
      "buod": 5951,
      "Ġdetcudnoc": 5952,
      "efiw": 5953,
      "capS": 5954,
      "Ġspoort": 5955,
      "Ġrete": 5956,
      "woP": 5957,
      "tsed": 5958,
      "Ġgnitse": 5959,
      "Ġdekcip": 5960,
      "ĠeciloP": 5961,
      "ĠsgnoS": 5962,
      "Ġhtlaew": 5963,
      "Ġward": 5964,
      "sik": 5965,
      "Ġsuoires": 5966,
      "cennoC": 5967,
      "Ġtsoh": 5968,
      "oohs": 5969,
      "Ġreppu": 5970,
      "fihs": 5971,
      "htap": 5972,
      "8591": 5973,
      "gerO": 5974,
      "9391": 5975,
      "ĠnworB": 5976,
      "ecar": 5977,
      "Ġgnitarepo": 5978,
      "Ġav": 5979,
      "9591": 5980,
      "vaS": 5981,
      "Ġdetsoh": 5982,
      "ruD": 5983,
      "tnemtrap": 5984,
      "Ġdexim": 5985,
      "Ġthgilf": 5986,
      "ĠruhtrA": 5987,
      "Ġelbuod": 5988,
      "revocer": 5989,
      "Ġsli": 5990,
      "Ġdetpecca": 5991,
      "Ġstel": 5992,
      "hcnaM": 5993,
      "Ġderapmoc": 5994,
      "Ġllarevo": 5995,
      "Ġelbaton": 5996,
      "iliffa": 5997,
      "rehte": 5998,
      "Ġnaicitilop": 5999,
      "Ġsmees": 6000,
      "guR": 6001,
      "niatrec": 6002,
      "rehc": 6003,
      "resed": 6004,
      "Ġrettal": 6005,
      "Ġthguat": 6006,
      "ĠnaigewroN": 6007,
      "Ġtrihs": 6008,
      "ada": 6009,
      "ĠevetS": 6010,
      "Ġlicnuoc": 6011,
      "yob": 6012,
      "elcun": 6013,
      "ruH": 6014,
      "Ġenilno": 6015,
      "naB": 6016,
      "Ġdengissa": 6017,
      "Ġderdnuh": 6018,
      "Ġdehgual": 6019,
      "Ġegdelwonk": 6020,
      "Ġtnenimorp": 6021,
      "Ġytilauq": 6022,
      "ĠlacitiloP": 6023,
      "ngiapmac": 6024,
      "Ġeria": 6025,
      "Ġegati": 6026,
      "cul": 6027,
      "ihpo": 6028,
      "Ġtaob": 6029,
      "terts": 6030,
      "htgne": 6031,
      "ugibma": 6032,
      "spuorg": 6033,
      "orc": 6034,
      "Ġyllacip": 6035,
      "YN": 6036,
      "Ġybab": 6037,
      "rotca": 6038,
      "ĠemoH": 6039,
      "diR": 6040,
      "Ġtuhs": 6041,
      "Ġtndluo": 6042,
      "Ġnig": 6043,
      "trom": 6044,
      "roL": 6045,
      "tsaoc": 6046,
      "3491": 6047,
      "66": 6048,
      "urc": 6049,
      "molp": 6050,
      "Ġrebma": 6051,
      "gnellahc": 6052,
      "arI": 6053,
      "ffoc": 6054,
      "Ġseirots": 6055,
      "tsiser": 6056,
      "Ġdetseggus": 6057,
      "ĠttocS": 6058,
      "Ġawa": 6059,
      "7591": 6060,
      "muloc": 6061,
      "rtsulli": 6062,
      "Ġelg": 6063,
      "maj": 6064,
      "rebmun": 6065,
      "www": 6066,
      "Ġertnec": 6067,
      "6591": 6068,
      "reti": 6069,
      "llE": 6070,
      "Ġseitinummoc": 6071,
      "Ġtfos": 6072,
      "Ġswor": 6073,
      "Ġyratne": 6074,
      "Ġgu": 6075,
      "Ġsevael": 6076,
      "rederF": 6077,
      "Ġtaorht": 6078,
      "Ġpmu": 6079,
      "puorG": 6080,
      "Ġspets": 6081,
      "Ġhtuoy": 6082,
      "ĠeciffO": 6083,
      "1491": 6084,
      "Ġetsa": 6085,
      "Ġmialc": 6086,
      "nigirO": 6087,
      "Ä±": 6088,
      "Ġdniw": 6089,
      "liug": 6090,
      "Ġrorep": 6091,
      "Ġregnuoy": 6092,
      "Ġylnommoc": 6093,
      "Ġniamer": 6094,
      "ĠniatpaC": 6095,
      "Ġmm": 6096,
      "Ġloop": 6097,
      "ĠnacixeM": 6098,
      "Ġj": 6099,
      "Ġdelu": 6100,
      "ortnoc": 6101,
      "Ġpeels": 6102,
      "Ġsnoitisop": 6103,
      "lucirga": 6104,
      "Ġegap": 6105,
      "Ġderalced": 6106,
      "psni": 6107,
      "mirepxe": 6108,
      "hctik": 6109,
      "Ġyrtsudni": 6110,
      "muc": 6111,
      "Ġtisiv": 6112,
      "htnA": 6113,
      "Ġwollof": 6114,
      "arG": 6115,
      "âĢĺ": 6116,
      "mailrap": 6117,
      "Ġthguof": 6118,
      "Ġegairram": 6119,
      "AEN": 6120,
      "dahs": 6121,
      "sap": 6122,
      "giL": 6123,
      "eulav": 6124,
      "Ġita": 6125,
      "ĠkcoR": 6126,
      "Ġelbanu": 6127,
      "ACN": 6128,
      "45": 6129,
      "trA": 6130,
      "Ġssele": 6131,
      "AA": 6132,
      "sn": 6133,
      "Ġerawa": 6134,
      "Ġselur": 6135,
      "sen": 6136,
      "mots": 6137,
      "moH": 6138,
      "Ġsrats": 6139,
      "pmaH": 6140,
      "satna": 6141,
      "Ġlairep": 6142,
      "thgi": 6143,
      "luseR": 6144,
      "Ġdesucof": 6145,
      "Ġweiver": 6146,
      "rednU": 6147,
      "tol": 6148,
      "pmeT": 6149,
      "Ġrecudorp": 6150,
      "senneT": 6151,
      "sela": 6152,
      "fef": 6153,
      "ssev": 6154,
      "Ġytla": 6155,
      "6491": 6156,
      "Ġdesahcrup": 6157,
      "ĠleinaD": 6158,
      "cidem": 6159,
      "ĠboB": 6160,
      "Ġenecs": 6161,
      "reveS": 6162,
      "Ġsllet": 6163,
      "ĠnotsoB": 6164,
      "csi": 6165,
      "maL": 6166,
      "rtsa": 6167,
      "Ġseitivitca": 6168,
      "xaT": 6169,
      "PE": 6170,
      "tsae": 6171,
      "reseR": 6172,
      "llag": 6173,
      "Ġssik": 6174,
      "Ġycilop": 6175,
      "iri": 6176,
      "Ġlaitnetop": 6177,
      "efefef": 6178,
      "feirb": 6179,
      "Ġgniwolla": 6180,
      "etnu": 6181,
      "ĠocsicnarF": 6182,
      "neercs": 6183,
      "Ġdereffus": 6184,
      "Ġsit": 6185,
      "Ġnod": 6186,
      "Ġdeniag": 6187,
      "Ġniatnuom": 6188,
      "ĠdetalupoP": 6189,
      "Ġlufrewop": 6190,
      "urT": 6191,
      "Ġdemrifnoc": 6192,
      "citamehtam": 6193,
      "Ġtcetorp": 6194,
      "kops": 6195,
      "reiP": 6196,
      "narF": 6197,
      "Ġgnilb": 6198,
      "Ġsevres": 6199,
      "uts": 6200,
      "ĠpohsiB": 6201,
      "htimS": 6202,
      "cnarf": 6203,
      "Ġykcu": 6204,
      "ĠecitsuJ": 6205,
      "ĠlaniF": 6206,
      "Ġhsinif": 6207,
      "ĠnaV": 6208,
      "tor": 6209,
      "Ġ00": 6210,
      "Ġetaudarg": 6211,
      "86": 6212,
      "rruC": 6213,
      "Ġlevart": 6214,
      "Ġsmelborp": 6215,
      "Ġsdrocer": 6216,
      "efiL": 6217,
      "sde": 6218,
      "Ġelpmis": 6219,
      "Ãī": 6220,
      "Ġaru": 6221,
      "ara": 6222,
      "zirA": 6223,
      "Ġdetov": 6224,
      "Ġsag": 6225,
      "ivbo": 6226,
      "ĠytinummoC": 6227,
      "llu": 6228,
      "Ġgnidnuorrus": 6229,
      "vresnoc": 6230,
      "Ġsrebmun": 6231,
      "ĠydaL": 6232,
      "ĠerofeB": 6233,
      "srotca": 6234,
      "76": 6235,
      "|\"": 6236,
      "dauqs": 6237,
      "ĠssorC": 6238,
      "Ġroloc": 6239,
      "III": 6240,
      "spihsnoipmahC": 6241,
      "oz": 6242,
      "5591": 6243,
      "poC": 6244,
      "lgnA": 6245,
      "Ġsyob": 6246,
      "yojne": 6247,
      "SS": 6248,
      "coS": 6249,
      "Ġnward": 6250,
      "Ġtcefrep": 6251,
      "ĠtsaoC": 6252,
      "Ġsecnere": 6253,
      "Ġyllacipyt": 6254,
      "ytinummoc": 6255,
      "ad": 6256,
      "giD": 6257,
      "luJ": 6258,
      "be": 6259,
      "Ġerusserp": 6260,
      "tnavda": 6261,
      "roced": 6262,
      "Ġnoitautis": 6263,
      "Ġylevis": 6264,
      "ij": 6265,
      "urB": 6266,
      "roproc": 6267,
      "gnim": 6268,
      "cesnoc": 6269,
      "8491": 6270,
      "etatS": 6271,
      "Ġrepapswen": 6272,
      "retiL": 6273,
      "56": 6274,
      "Ġny": 6275,
      "por": 6276,
      "noS": 6277,
      "noillim": 6278,
      "snops": 6279,
      "neh": 6280,
      "eeps": 6281,
      "Ġdetamitse": 6282,
      "neves": 6283,
      "srevnoc": 6284,
      "Ġderepsihw": 6285,
      "ydob": 6286,
      "saP": 6287,
      "rebil": 6288,
      "ĠhtebazilE": 6289,
      "dlroW": 6290,
      "ĠeniL": 6291,
      "dniL": 6292,
      "rahS": 6293,
      "ĠĊĠĊĠĊĠĊ": 6294,
      "Ġdeifitnedi": 6295,
      "lanoita": 6296,
      "Ġderutpac": 6297,
      "ĠmiJ": 6298,
      "lek": 6299,
      "yhp": 6300,
      "ĠaibmuloC": 6301,
      "vnI": 6302,
      "Ġniatpac": 6303,
      "wO": 6304,
      "zagaM": 6305,
      "tsbus": 6306,
      "Ġeulav": 6307,
      "Ġlatigid": 6308,
      "Ġsedis": 6309,
      "Ġpihsnoipmahc": 6310,
      "Ġcimedaca": 6311,
      "Ġetag": 6312,
      "Ġerots": 6313,
      "hguoht": 6314,
      "Ġthguob": 6315,
      "Ġgniklaw": 6316,
      "Ġerutluc": 6317,
      "Ġesir": 6318,
      "Ġdecnalg": 6319,
      "Ġeltsac": 6320,
      "Ġlennosrep": 6321,
      "Ġediseb": 6322,
      "Ġlennahc": 6323,
      "lanif": 6324,
      "Ġnatilopor": 6325,
      "cat": 6326,
      "ĠadirolF": 6327,
      "7491": 6328,
      "Ġnoitrop": 6329,
      "cerroc": 6330,
      "Ġevas": 6331,
      "rtrop": 6332,
      "Ġdeknar": 6333,
      "dooh": 6334,
      "Ġ9891": 6335,
      "Ġstsiladem": 6336,
      "csoM": 6337,
      "Ġegami": 6338,
      "ÑĢ": 6339,
      "noisrev": 6340,
      "ubed": 6341,
      "Ġyraropmet": 6342,
      "roda": 6343,
      "uF": 6344,
      "Ġdesoppus": 6345,
      "ĠlanruoJ": 6346,
      "Ġ54": 6347,
      "sto": 6348,
      "Ġnoga": 6349,
      "hk": 6350,
      "minA": 6351,
      "tsetorp": 6352,
      "yca": 6353,
      "Ġecin": 6354,
      "Ġsriats": 6355,
      "rehS": 6356,
      "dnuow": 6357,
      "Ġtaefed": 6358,
      "ylevit": 6359,
      "rtnecnoc": 6360,
      "ĊĠĊ": 6361,
      "Ġnigeb": 6362,
      "syad": 6363,
      "ĠnepO": 6364,
      "Ġdevol": 6365,
      "orf": 6366,
      "nutrof": 6367,
      "Ġretne": 6368,
      "ĠhcaE": 6369,
      "ĠngieroF": 6370,
      "Ġtnemniat": 6371,
      "ymrA": 6372,
      "tih": 6373,
      "Ġnagro": 6374,
      "Ġtnemeerga": 6375,
      "Ġyroeht": 6376,
      "Ġyar": 6377,
      "ĠdnA": 6378,
      "olc": 6379,
      "tsy": 6380,
      "Ġis": 6381,
      "Ġetadidnac": 6382,
      "Ġesroh": 6383,
      "Ġskco": 6384,
      "Ġsevit": 6385,
      "Ġmode": 6386,
      "Ġila": 6387,
      "eltit": 6388,
      "87": 6389,
      "4591": 6390,
      "irba": 6391,
      "oda": 6392,
      "Ġeir": 6393,
      "tnedi": 6394,
      "Ġtihs": 6395,
      "dev": 6396,
      "tamit": 6397,
      "35": 6398,
      "Ġseicne": 6399,
      "Ġknu": 6400,
      "ĠwerdnA": 6401,
      "hoM": 6402,
      "Ġygolonhcet": 6403,
      "pagniS": 6404,
      "Ġsllaw": 6405,
      "3591": 6406,
      "nin": 6407,
      "ĠssenisuB": 6408,
      "noJ": 6409,
      "ĠsweN": 6410,
      "arp": 6411,
      "hgis": 6412,
      "Ġsol": 6413,
      "ĠoediV": 6414,
      "revE": 6415,
      "hcir": 6416,
      "Ġdeilper": 6417,
      "ĠertaehT": 6418,
      "sevita": 6419,
      "naD": 6420,
      "selgnis": 6421,
      "Ġtcatnoc": 6422,
      "Ġtaeh": 6423,
      "edulcni": 6424,
      "lS": 6425,
      "Ġsmargorp": 6426,
      "Ġtros": 6427,
      "Ġderahs": 6428,
      "cejbus": 6429,
      "Ġylegral": 6430,
      "LM": 6431,
      "Ġnworb": 6432,
      "Ġner": 6433,
      "Ġdeyortsed": 6434,
      "gnaR": 6435,
      "Ġeciohc": 6436,
      "noitidda": 6437,
      "curtsni": 6438,
      "ĠyrarbiL": 6439,
      "Ġgnillet": 6440,
      "Ġredrob": 6441,
      "Ġhgrub": 6442,
      "Ġyer": 6443,
      "mixam": 6444,
      "Ġ4891": 6445,
      "Ġyrg": 6446,
      "ruj": 6447,
      "Ġseir": 6448,
      "Ġksir": 6449,
      "ink": 6450,
      "cnivorp": 6451,
      "tar": 6452,
      "ges": 6453,
      "ĠnailizarB": 6454,
      "2591": 6455,
      "Ġdial": 6456,
      "Ġyd": 6457,
      "Ġrenwo": 6458,
      "laF": 6459,
      "Ġseert": 6460,
      "Ġderuo": 6461,
      "sttesuhcassaM": 6462,
      "enoi": 6463,
      "eppa": 6464,
      "Ġyromem": 6465,
      "sipE": 6466,
      "serP": 6467,
      "Ġgnillik": 6468,
      "ĠertneC": 6469,
      "lewt": 6470,
      "dlog": 6471,
      "dnaltocS": 6472,
      "Ġdetpoda": 6473,
      "Ġmees": 6474,
      "ĠroinuJ": 6475,
      "regiN": 6476,
      "Ġnaidem": 6477,
      "Ġdenibmoc": 6478,
      "rotS": 6479,
      "Ġaka": 6480,
      "etihW": 6481,
      "Ġesoprup": 6482,
      "9491": 6483,
      "Ġesiw": 6484,
      "Ġsdeen": 6485,
      "Ġderrucco": 6486,
      "ĠretniW": 6487,
      "Ġsreffo": 6488,
      "edo": 6489,
      "itciv": 6490,
      "nwonk": 6491,
      "ĠcitnaltA": 6492,
      "Ġenon": 6493,
      "Ġknaht": 6494,
      "Ġgnira": 6495,
      "Ġgnippa": 6496,
      "aisA": 6497,
      "Ġpop": 6498,
      "issi": 6499,
      "Ġaya": 6500,
      "ĠAN": 6501,
      "ugutroP": 6502,
      "Ġelim": 6503,
      "mas": 6504,
      "ĠsI": 6505,
      "reblA": 6506,
      "ĠetaneS": 6507,
      "seilimaf": 6508,
      "bor": 6509,
      "dnas": 6510,
      "maD": 6511,
      "Ġyllufe": 6512,
      "ĠsenoJ": 6513,
      "laog": 6514,
      "Ġpohsib": 6515,
      "yhpargoiB": 6516,
      "baC": 6517,
      "hsif": 6518,
      "Ġlacissalc": 6519,
      "Ġdenael": 6520,
      "Ġlacitirc": 6521,
      "hctam": 6522,
      "ĠocixeM": 6523,
      "minim": 6524,
      "Ġsecnaraeppa": 6525,
      "ssiM": 6526,
      "ĠgnoL": 6527,
      "lehca": 6528,
      "Ġrenniw": 6529,
      "ĠemaG": 6530,
      "nafnI": 6531,
      "yolp": 6532,
      "Ġtilps": 6533,
      "rfa": 6534,
      "cificeps": 6535,
      "tnioppa": 6536,
      "ĠirS": 6537,
      "riahC": 6538,
      "lO": 6539,
      "Ġylbissop": 6540,
      "sahp": 6541,
      "Ġseitic": 6542,
      "mS": 6543,
      "ruobleM": 6544,
      "retnuoc": 6545,
      "vresbo": 6546,
      "rotciv": 6547,
      "Ġgnirrats": 6548,
      "Ġari": 6549,
      "illi": 6550,
      "ĠekiL": 6551,
      "gnuH": 6552,
      "Ġyradnoces": 6553,
      "wecapS": 6554,
      "PA": 6555,
      "Ġey": 6556,
      "ĊĊĠĊ": 6557,
      "Ġdetacude": 6558,
      "gnire": 6559,
      "inna": 6560,
      "Ã¢": 6561,
      "Ġrellabtoof": 6562,
      "Ġnoitcnuf": 6563,
      "noitalupop": 6564,
      "noisivele": 6565,
      "revda": 6566,
      "miJ": 6567,
      "erutluc": 6568,
      "Ġthgis": 6569,
      "Ġseitrap": 6570,
      "Ġssam": 6571,
      "96": 6572,
      "hcraeser": 6573,
      "Ġolos": 6574,
      "Ġstnemele": 6575,
      "mmocer": 6576,
      "eripmE": 6577,
      "ĠladeM": 6578,
      "Ġnmad": 6579,
      "Ġyrassecen": 6580,
      "Ġhcnarb": 6581,
      "Ġpil": 6582,
      "Ġylediw": 6583,
      "24": 6584,
      "Ġedarg": 6585,
      "Ġylisae": 6586,
      "Ġretaerg": 6587,
      "Ġsnigeb": 6588,
      "reviled": 6589,
      "itS": 6590,
      "rebmemer": 6591,
      "woI": 6592,
      "ĠeviL": 6593,
      "egaugnal": 6594,
      "Ġsdloh": 6595,
      "ĠselaW": 6596,
      "iddA": 6597,
      "ĠdloG": 6598,
      "aH": 6599,
      "tuor": 6600,
      "krA": 6601,
      "nid": 6602,
      "oihO": 6603,
      "Ġyrtne": 6604,
      "rezti": 6605,
      "yaW": 6606,
      "Ġnaira": 6607,
      "ecnere": 6608,
      "Ġsseug": 6609,
      "Ġtte": 6610,
      "Ġgninruter": 6611,
      "aid": 6612,
      "seu": 6613,
      "Ġgniraew": 6614,
      "Ġetov": 6615,
      "daR": 6616,
      "leK": 6617,
      "ĠeripmE": 6618,
      "dirB": 6619,
      "paN": 6620,
      "ilit": 6621,
      "oms": 6622,
      "soprup": 6623,
      "idom": 6624,
      "Ġhturt": 6625,
      "Ġdenil": 6626,
      "ok": 6627,
      "Ġsrac": 6628,
      "ĠnosnhoJ": 6629,
      "Ð¾Ð": 6630,
      "Ġyllacit": 6631,
      "Ġelbati": 6632,
      "Ġeis": 6633,
      "ĠsicnarF": 6634,
      "dniH": 6635,
      "Ġmraw": 6636,
      "rovaf": 6637,
      "Ġve": 6638,
      "soporp": 6639,
      "Ġdebbarg": 6640,
      "Ġsreciffo": 6641,
      "ihsaf": 6642,
      "Ġswolla": 6643,
      "Ġdetanimon": 6644,
      "dnalaeZ": 6645,
      "Ġtsurt": 6646,
      "lau": 6647,
      "1591": 6648,
      "Ġselb": 6649,
      "Ġmoc": 6650,
      "aR": 6651,
      "cap": 6652,
      "nurB": 6653,
      "Ġhcaorppa": 6654,
      "ibih": 6655,
      "ĠsnoitaN": 6656,
      "Ġnoitaicossa": 6657,
      "Ġlauxes": 6658,
      "Ġroti": 6659,
      "Ġgnirps": 6660,
      "seira": 6661,
      "Ġdetluser": 6662,
      "tsoc": 6663,
      "nimoD": 6664,
      "ĠgnoS": 6665,
      "Ġgnissap": 6666,
      "lleW": 6667,
      "Ġgnihcaer": 6668,
      "Ġgnidna": 6669,
      "77": 6670,
      "Ġgnillac": 6671,
      "draC": 6672,
      "mrA": 6673,
      "reme": 6674,
      "nÃ¡": 6675,
      "wah": 6676,
      "dI": 6677,
      "Ġ7891": 6678,
      "Ġalli": 6679,
      "Ġdraug": 6680,
      "ĠairotciV": 6681,
      "itaorC": 6682,
      "tsany": 6683,
      "Ġgnipeek": 6684,
      "Ġtroffe": 6685,
      "ĠylimaF": 6686,
      "Ġsksa": 6687,
      "Ġeguh": 6688,
      "luG": 6689,
      "Ġsek": 6690,
      "âĢł": 6691,
      "Ġdesufer": 6692,
      "Ġdetnarg": 6693,
      "Ġeviecer": 6694,
      "lumis": 6695,
      "gilletni": 6696,
      "noitamrof": 6697,
      "cte": 6698,
      "run": 6699,
      "napxe": 6700,
      "ĠdleiF": 6701,
      "Ġmrif": 6702,
      "Ġderipsni": 6703,
      "ĠhctawecapS": 6704,
      "Ġgnitluser": 6705,
      "Ãº": 6706,
      "VD": 6707,
      "ytrap": 6708,
      "Ġelur": 6709,
      "Ġhcraes": 6710,
      "ĠeÃ©": 6711,
      "nnahC": 6712,
      "Ġterces": 6713,
      "ĠelpoepstropS": 6714,
      "Ġmottob": 6715,
      "Ġyraropmetnoc": 6716,
      "tsiger": 6717,
      "Ġtius": 6718,
      "Ġstceffe": 6719,
      "Ġoto": 6720,
      "Ġdekci": 6721,
      "Ġnnam": 6722,
      "dik": 6723,
      "dias": 6724,
      "ĠsproC": 6725,
      "Ġhsirap": 6726,
      "giT": 6727,
      "lot": 6728,
      "eli": 6729,
      "stniop": 6730,
      "hka": 6731,
      "Ġnehctik": 6732,
      "cal": 6733,
      "vivrus": 6734,
      "Ġ,(": 6735,
      "Ġgnidivorp": 6736,
      "Ġroda": 6737,
      "Ġâ": 6738,
      "ĠsmailliW": 6739,
      "Ġeciwt": 6740,
      "Ġwols": 6741,
      "Ġtserof": 6742,
      "sionillI": 6743,
      "ĠairaM": 6744,
      "Ġ0891": 6745,
      "haB": 6746,
      "Ġ6891": 6747,
      "ĠnroB": 6748,
      "eneV": 6749,
      "htlaeh": 6750,
      "maK": 6751,
      "Ġsem": 6752,
      "Ġseunitnoc": 6753,
      "Ġnna": 6754,
      "Ġrelli": 6755,
      "rgimmi": 6756,
      "Ġdetad": 6757,
      "kcart": 6758,
      "cav": 6759,
      "RE": 6760,
      "yesreJ": 6761,
      "gnin": 6762,
      "Ġneercs": 6763,
      "Ġcitse": 6764,
      "sitas": 6765,
      "cepxe": 6766,
      "Ġnosir": 6767,
      "Ġlairo": 6768,
      "ĠnommeL": 6769,
      "ĠaniloraC": 6770,
      "tsam": 6771,
      "Ġssene": 6772,
      "kiN": 6773,
      "Ġtnecrep": 6774,
      "ĠttiK": 6775,
      "Ġseuq": 6776,
      "Ġhtworg": 6777,
      "idni": 6778,
      "htrib": 6779,
      "ryl": 6780,
      "nacirfA": 6781,
      "giler": 6782,
      "89": 6783,
      "sE": 6784,
      "8191": 6785,
      "eneb": 6786,
      "uoB": 6787,
      "Ġnoisses": 6788,
      "iaf": 6789,
      "Ġnesohc": 6790,
      "Ġdeipucco": 6791,
      "Ġtops": 6792,
      "Ġyltnecer": 6793,
      "oi": 6794,
      "ĠaigroeG": 6795,
      "koorB": 6796,
      "Ġeit": 6797,
      "Ġstnaw": 6798,
      "daB": 6799,
      "vaw": 6800,
      "Ġgnitsixe": 6801,
      "aB": 6802,
      "illa": 6803,
      "dnopserroc": 6804,
      "seirtnuoc": 6805,
      "Ġtnuocca": 6806,
      "ecorp": 6807,
      "Ġdenimreted": 6808,
      "Ġsknaht": 6809,
      "tnemelpmi": 6810,
      "ĠhsikruT": 6811,
      "Ġssenk": 6812,
      "recudorp": 6813,
      "Ġsnik": 6814,
      "ugibmasid": 6815,
      "Ġgnirocs": 6816,
      "dew": 6817,
      "ĠnehpetS": 6818,
      "rehtegot": 6819,
      "Ġgel": 6820,
      "sek": 6821,
      "Ġdenifed": 6822,
      "ykoT": 6823,
      "Ġeznorb": 6824,
      "noitacudE": 6825,
      "hz": 6826,
      "ucexE": 6827,
      "Ġstnediser": 6828,
      "ras": 6829,
      "ecaf": 6830,
      "Ġname": 6831,
      "dulcnoc": 6832,
      "Ġstroffe": 6833,
      "rav": 6834,
      "Ġsnoitcele": 6835,
      "ĠaeS": 6836,
      "cifit": 6837,
      "taeht": 6838,
      "noitca": 6839,
      "AB": 6840,
      "slanif": 6841,
      "Ġrotide": 6842,
      "Ġylwen": 6843,
      "Ġtnemtaert": 6844,
      "sya": 6845,
      "orcim": 6846,
      "Ġdets": 6847,
      "noitcudorp": 6848,
      "ĠezirP": 6849,
      "Ġsepyt": 6850,
      "ssop": 6851,
      "14": 6852,
      "ĠybguR": 6853,
      "pohs": 6854,
      "CI": 6855,
      "htab": 6856,
      "rellabtoof": 6857,
      "Ġdetfil": 6858,
      "vaC": 6859,
      "psa": 6860,
      "ptth": 6861,
      "raped": 6862,
      "Ġerofereht": 6863,
      "Ġytira": 6864,
      "nopmoc": 6865,
      "Ġylsuoi": 6866,
      "Ġsdnoces": 6867,
      "Ġsetis": 6868,
      "manruoT": 6869,
      "tsnoC": 6870,
      "tsaf": 6871,
      "Ġssorc": 6872,
      "Ġsredluohs": 6873,
      "ĠnamuH": 6874,
      "Ġgnikaeps": 6875,
      "ĠssiM": 6876,
      "Ġselcitra": 6877,
      "gnot": 6878,
      "tros": 6879,
      "ceerG": 6880,
      "Ġnettog": 6881,
      "Ġsnoitseuq": 6882,
      "ĠlA": 6883,
      "Ġllih": 6884,
      "cc": 6885,
      "ĠhcezC": 6886,
      "cse": 6887,
      "sot": 6888,
      "ĠoÃ£": 6889,
      "zza": 6890,
      "reztiwS": 6891,
      "htnom": 6892,
      "8391": 6893,
      "ruaM": 6894,
      "gneB": 6895,
      "ĠĠĠ": 6896,
      "Ġtpecnoc": 6897,
      "ylevitcepser": 6898,
      "Ġdednapxe": 6899,
      "droG": 6900,
      "hcuot": 6901,
      "Ġska": 6902,
      "ĠrebmeM": 6903,
      "Ġecnerefnoc": 6904,
      "Ġsui": 6905,
      "NI": 6906,
      "dnik": 6907,
      "rehtorb": 6908,
      "Ġyticapac": 6909,
      "Ġllup": 6910,
      "ĠtroP": 6911,
      "Å«": 6912,
      "ĠnagihciM": 6913,
      "tniaS": 6914,
      "ogacihC": 6915,
      "Ġtnelis": 6916,
      "miger": 6917,
      "Ġgnipe": 6918,
      "lavitseF": 6919,
      "Ġtsaoc": 6920,
      "yhpo": 6921,
      "locniL": 6922,
      "Ġdeyats": 6923,
      "gnoc": 6924,
      "ĠssiwS": 6925,
      "Ġfa": 6926,
      "Ġdnuob": 6927,
      "Ġtid": 6928,
      "Ġdekcatta": 6929,
      "ĠrevO": 6930,
      "weivretni": 6931,
      "kcap": 6932,
      "balA": 6933,
      "lkO": 6934,
      "doolb": 6935,
      "MA": 6936,
      "htrow": 6937,
      "dnaH": 6938,
      "ĠyrraH": 6939,
      "selc": 6940,
      "Ġdecuder": 6941,
      "Ġkcaj": 6942,
      "Ġdetani": 6943,
      "Ġdemra": 6944,
      "ĠniatirB": 6945,
      "Ñģ": 6946,
      "naH": 6947,
      "Ġnez": 6948,
      "halkO": 6949,
      "awa": 6950,
      "nemrA": 6951,
      "nul": 6952,
      "ĠreeraC": 6953,
      "Ġnrub": 6954,
      "etam": 6955,
      "tiT": 6956,
      "smaet": 6957,
      "Ġdiova": 6958,
      "porp": 6959,
      "limaH": 6960,
      "mard": 6961,
      "seda": 6962,
      "gaN": 6963,
      "kciw": 6964,
      "ĠretlaW": 6965,
      "ĠynoT": 6966,
      "Ġgnisuoh": 6967,
      "Ġekal": 6968,
      "riaF": 6969,
      "Ġeruoy": 6970,
      "Ġyret": 6971,
      "Ġab": 6972,
      "Ġcifitneics": 6973,
      "cetihcrA": 6974,
      "Ġ,'": 6975,
      "yrellaG": 6976,
      "laf": 6977,
      "troper": 6978,
      "Ġnus": 6979,
      "7391": 6980,
      "Ġnoitnev": 6981,
      "Ġ5891": 6982,
      "Ġratiug": 6983,
      "ĠkeerC": 6984,
      "6391": 6985,
      "retaW": 6986,
      "itog": 6987,
      "saera": 6988,
      "Ġyratnemucod": 6989,
      "rohs": 6990,
      "Ġseidob": 6991,
      "rh": 6992,
      "igleB": 6993,
      "Ġcin": 6994,
      "Ġkcolb": 6995,
      "15": 6996,
      "riaf": 6997,
      "htaeD": 6998,
      "Ġgnicar": 6999,
      "molpid": 7000,
      "stse": 7001,
      "Ġetatse": 7002,
      "Ġtsedlo": 7003,
      "Ġslevel": 7004,
      "ĠremroF": 7005,
      "Ġdenrael": 7006,
      "urf": 7007,
      "kc": 7008,
      "noitaugibmasid": 7009,
      "Ġyrrac": 7010,
      "veN": 7011,
      "79": 7012,
      "cirtser": 7013,
      "ĠilearsI": 7014,
      "Ġsnosaes": 7015,
      "Ġkcip": 7016,
      "icsnoc": 7017,
      "ytlucaf": 7018,
      "rdlihC": 7019,
      "rutaS": 7020,
      "Ġpmac": 7021,
      "cudni": 7022,
      "yaR": 7023,
      "Ġsraet": 7024,
      "elor": 7025,
      "Ġ53": 7026,
      "erged": 7027,
      "Ġdrac": 7028,
      "Ġcihpargo": 7029,
      "lggurts": 7030,
      "legna": 7031,
      "gir": 7032,
      "Ġezila": 7033,
      "Ġnoo": 7034,
      "Ġynne": 7035,
      "selegnA": 7036,
      "meR": 7037,
      "cejer": 7038,
      "Ġeroc": 7039,
      "Ġolle": 7040,
      "nyL": 7041,
      "Ġedoc": 7042,
      "nilc": 7043,
      "Ġgnitaerc": 7044,
      "gniw": 7045,
      "moD": 7046,
      "ASU": 7047,
      "ĠneewteB": 7048,
      "ĠlairomeM": 7049,
      "uom": 7050,
      "Ġsdray": 7051,
      "ilattaB": 7052,
      "Ġdeciton": 7053,
      "llaF": 7054,
      "Ð°Ð": 7055,
      "ĠssalC": 7056,
      "Ġdrol": 7057,
      "Ġgniniatnoc": 7058,
      "rujni": 7059,
      "darB": 7060,
      "tU": 7061,
      "Ġyllufsseccus": 7062,
      "sloohcs": 7063,
      "civnoc": 7064,
      "Ġlave": 7065,
      "ordyh": 7066,
      "ĠgnoK": 7067,
      "ĠnredoM": 7068,
      "Ġnive": 7069,
      "TI": 7070,
      "Ġytini": 7071,
      "ĠnoD": 7072,
      "ĠlraE": 7073,
      "laed": 7074,
      "nipo": 7075,
      "Ġtnemelttes": 7076,
      "Ġrehpo": 7077,
      "Ġeuqinu": 7078,
      "Ġetam": 7079,
      "Ġnik": 7080,
      "siL": 7081,
      "Ġpoleved": 7082,
      "Ġhtgnerts": 7083,
      "Ġegamad": 7084,
      "Ġelit": 7085,
      "naT": 7086,
      "Ġdedeeccus": 7087,
      "Ġsredael": 7088,
      "ssorC": 7089,
      "ĠruoF": 7090,
      "HN": 7091,
      "Ġemirc": 7092,
      "Ġdetpmetta": 7093,
      "nworB": 7094,
      "pircsed": 7095,
      "tniap": 7096,
      "ĠgnomA": 7097,
      "dlof": 7098,
      "seh": 7099,
      "aG": 7100,
      "Ġ2791": 7101,
      "Ġthginot": 7102,
      "Ġssim": 7103,
      "Ġdecnavda": 7104,
      "Ġlaro": 7105,
      "Ġgniwonk": 7106,
      "tnempoleved": 7107,
      "Ġdnes": 7108,
      "nK": 7109,
      "ĠlanoisseforP": 7110,
      "DA": 7111,
      "59": 7112,
      "Ġtonnac": 7113,
      "uC": 7114,
      "nilC": 7115,
      "htag": 7116,
      "raN": 7117,
      "Ġhtaeneb": 7118,
      "rgA": 7119,
      "Ġytivitca": 7120,
      "ulcxe": 7121,
      "ES": 7122,
      "ala": 7123,
      "Ġgnittes": 7124,
      "Ġdetisiv": 7125,
      "Ġsnwot": 7126,
      "liuB": 7127,
      "Ġtneverp": 7128,
      "ĠesuaceB": 7129,
      "yhpargoilbiB": 7130,
      "Ġhteet": 7131,
      "seman": 7132,
      "Ġgninioj": 7133,
      "grus": 7134,
      "Ġelacs": 7135,
      "hsib": 7136,
      "Ġ3891": 7137,
      "mur": 7138,
      "Ġyrd": 7139,
      "secivres": 7140,
      "hcraM": 7141,
      "Ġredrum": 7142,
      "Ġderf": 7143,
      "BG": 7144,
      "Ġdeilppa": 7145,
      "Ġsetel": 7146,
      "Ġsisab": 7147,
      "Ġdeniatbo": 7148,
      "idE": 7149,
      "Ġretsinim": 7150,
      "Ġsehcru": 7151,
      "Ġecnartne": 7152,
      "Ġtif": 7153,
      "Ġdednah": 7154,
      "ĠroineS": 7155,
      "ĠdrihT": 7156,
      "tekcirc": 7157,
      "tropsnarT": 7158,
      "dooG": 7159,
      "Ġsrood": 7160,
      "esac": 7161,
      "kroW": 7162,
      "sthg": 7163,
      "Ġ2891": 7164,
      "hcnerF": 7165,
      "Ġza": 7166,
      "Ġgniylf": 7167,
      "Ġetirw": 7168,
      "Ġgnilia": 7169,
      "yA": 7170,
      "Ġklof": 7171,
      "nagihciM": 7172,
      "Ġnoisiv": 7173,
      "Ġseceip": 7174,
      "ĠniaM": 7175,
      "Ġanne": 7176,
      "ĠainavlysnneP": 7177,
      "Ġepacse": 7178,
      "covda": 7179,
      "Ġdeli": 7180,
      "dub": 7181,
      "ĠhsinaD": 7182,
      "ĠnairB": 7183,
      "hciN": 7184,
      "noisiced": 7185,
      "cilbuP": 7186,
      "tsitra": 7187,
      "ediw": 7188,
      "ĠyendyS": 7189,
      "ĠeM": 7190,
      "Ġ6791": 7191,
      "cideM": 7192,
      "Ġtnia": 7193,
      "Ġneppah": 7194,
      "droJ": 7195,
      "Ġdetib": 7196,
      "ĠeerF": 7197,
      "Ġciffart": 7198,
      "Ġgo": 7199,
      "Ġ)%": 7200,
      "iva": 7201,
      "ĠniatnuoM": 7202,
      "redne": 7203,
      "Ġthgit": 7204,
      "Ġynna": 7205,
      "Ġweivretni": 7206,
      "eld": 7207,
      "Ġyza": 7208,
      "gnoL": 7209,
      "Ġ,)(": 7210,
      "5391": 7211,
      "ĠnosaeS": 7212,
      "Ġselgnis": 7213,
      "ĠyrtnuoC": 7214,
      "Ġytpme": 7215,
      "Ġecnivorp": 7216,
      "nimer": 7217,
      "htaf": 7218,
      "Ġstneserp": 7219,
      "ĠretsaM": 7220,
      "rauQ": 7221,
      "Ġtcudorp": 7222,
      "cisyhp": 7223,
      "noeL": 7224,
      "kcop": 7225,
      "pmys": 7226,
      "Ġsmialc": 7227,
      "Ġdenoissimmoc": 7228,
      "cebeuQ": 7229,
      "Ġtseug": 7230,
      "cser": 7231,
      "myS": 7232,
      "Ġdetautis": 7233,
      "Ġtcapmi": 7234,
      "Ġgnisuac": 7235,
      "ĠlavaN": 7236,
      "25": 7237,
      "roG": 7238,
      "Ġsrekrow": 7239,
      "ĠepaC": 7240,
      "Ġtropsnart": 7241,
      "ĠlanoigeR": 7242,
      "Ġhtap": 7243,
      "Ġmui": 7244,
      "rak": 7245,
      "ĠaideM": 7246,
      "AP": 7247,
      "lguoD": 7248,
      "Ġotre": 7249,
      "Ġnosirp": 7250,
      "citcennoC": 7251,
      "Ġerutcip": 7252,
      "norhc": 7253,
      "rtsehcro": 7254,
      "Ġyltrohs": 7255,
      "sroh": 7256,
      "bre": 7257,
      "rdnA": 7258,
      "Ġrag": 7259,
      "Ġnoisu": 7260,
      "pircseD": 7261,
      "uE": 7262,
      "Ġtto": 7263,
      "ppissi": 7264,
      "mertxe": 7265,
      "4191": 7266,
      "saesid": 7267,
      "veihca": 7268,
      "Ġyhp": 7269,
      "Ġniv": 7270,
      "Ġylf": 7271,
      "Ġslaudividni": 7272,
      "rebmetpeS": 7273,
      "Ġsnoitidnoc": 7274,
      "yD": 7275,
      "Ġletoh": 7276,
      "Ġelu": 7277,
      "Ġylevitaler": 7278,
      "ĠthgiN": 7279,
      "vaeH": 7280,
      "lpi": 7281,
      "ĠtreblA": 7282,
      "daeH": 7283,
      "ĠdrofxO": 7284,
      "naciremA": 7285,
      "tsE": 7286,
      "taK": 7287,
      "gnitsil": 7288,
      "Ġsthgi": 7289,
      "lliW": 7290,
      "Ġoo": 7291,
      "ssam": 7292,
      "Äĥ": 7293,
      "Ġsnoitazinagro": 7294,
      "Ġ;(": 7295,
      "zaK": 7296,
      "ĠevitaN": 7297,
      "Ġssab": 7298,
      "laD": 7299,
      "ĠtahW": 7300,
      "loM": 7301,
      "ciderp": 7302,
      "stneduts": 7303,
      "tihW": 7304,
      "Ġdetiderc": 7305,
      "Ġgnirevoc": 7306,
      "bmoloC": 7307,
      "Ġniar": 7308,
      "Ġpohs": 7309,
      "Ġswonk": 7310,
      "ugnitsid": 7311,
      "Ġsllac": 7312,
      "Ġtneici": 7313,
      "drac": 7314,
      "esaeler": 7315,
      "ĠrewoP": 7316,
      "Ġrehcaet": 7317,
      "ĠAACN": 7318,
      "ocsiD": 7319,
      "Ġytefas": 7320,
      "Ġgnihcaet": 7321,
      "ĠruoY": 7322,
      "Ġstaht": 7323,
      "36": 7324,
      "Ġlayor": 7325,
      "ille": 7326,
      "ĠnoitadnuoF": 7327,
      "rol": 7328,
      "noppo": 7329,
      "Ġnoitaerc": 7330,
      "Ġdesoppo": 7331,
      "Ġ9791": 7332,
      "knaL": 7333,
      "nniF": 7334,
      "naisiuoL": 7335,
      "Ġlamrof": 7336,
      "Ġmuesum": 7337,
      "yW": 7338,
      "Ġyleritne": 7339,
      "Ġdohtem": 7340,
      "nats": 7341,
      "Ġdeniart": 7342,
      "luS": 7343,
      "Ġstcudorp": 7344,
      "Ġnoitulo": 7345,
      "Ġyteicos": 7346,
      "noR": 7347,
      "Ġytisned": 7348,
      "draH": 7349,
      "dah": 7350,
      "ĠeuD": 7351,
      "ipi": 7352,
      "Ġ8691": 7353,
      "ĠllabteksaB": 7354,
      "Ġseton": 7355,
      "Ġten": 7356,
      "dnaM": 7357,
      "yg": 7358,
      "Ġxat": 7359,
      "Ġeettimmoc": 7360,
      "Ġlaciport": 7361,
      "seM": 7362,
      "ĠdlanoD": 7363,
      "maid": 7364,
      "Ġtnsaw": 7365,
      "llod": 7366,
      "nuf": 7367,
      "Ġenna": 7368,
      "ĠyloH": 7369,
      "Ġecnelis": 7370,
      "Ġylivaeh": 7371,
      "rid": 7372,
      "nuT": 7373,
      "ĠnaeJ": 7374,
      "mmi": 7375,
      "llaB": 7376,
      "Ġhcamots": 7377,
      "yhr": 7378,
      "Ġorro": 7379,
      "Ġpih": 7380,
      "egnahc": 7381,
      "rÃ©": 7382,
      "ĠsgnidliuB": 7383,
      "Ġegnahcxe": 7384,
      "ĠlacirotsiH": 7385,
      "sv": 7386,
      "daeL": 7387,
      "Ġsehtolc": 7388,
      "Ġwolley": 7389,
      "eciffo": 7390,
      "Ġnamriahc": 7391,
      "truoc": 7392,
      "Ġsrehtorb": 7393,
      "ytnewt": 7394,
      "idi": 7395,
      "boB": 7396,
      "rood": 7397,
      "syaw": 7398,
      "veileb": 7399,
      "cnuj": 7400,
      "9191": 7401,
      "Ġdegrahc": 7402,
      "niv": 7403,
      "ĠsserP": 7404,
      "ppississiM": 7405,
      "Ġgnitniap": 7406,
      "alo": 7407,
      "Ġdevorppa": 7408,
      "Ġdeifilauq": 7409,
      "Ġteiuq": 7410,
      "Ġlairtsudni": 7411,
      "tnorf": 7412,
      "itogen": 7413,
      "Ġnoitcennoc": 7414,
      "CS": 7415,
      "knab": 7416,
      "Ġtnuoc": 7417,
      "ereh": 7418,
      "tamitlu": 7419,
      "Ġdetar": 7420,
      "isnart": 7421,
      "nwoD": 7422,
      "Ġpord": 7423,
      "Ġdekil": 7424,
      "dnaR": 7425,
      "LF": 7426,
      "usnoc": 7427,
      "ĠeroM": 7428,
      "keeW": 7429,
      "Ġgnitneserper": 7430,
      "CF": 7431,
      "Ġenot": 7432,
      "iraM": 7433,
      "ĠeniraM": 7434,
      "Ġenihcam": 7435,
      "Ġytnewt": 7436,
      "Ġylira": 7437,
      "ĠnairagnuH": 7438,
      "Ġgnivird": 7439,
      "Ġylraelc": 7440,
      "Ġyrarbil": 7441,
      "ÑĤ": 7442,
      "ffeJ": 7443,
      "Ġ--": 7444,
      "ĠlaruR": 7445,
      "Ġcime": 7446,
      "Ġdetseretni": 7447,
      "Ġstes": 7448,
      "hZ": 7449,
      "dla": 7450,
      "Ġecnerefer": 7451,
      "baR": 7452,
      "htrae": 7453,
      "Ġeig": 7454,
      "ĠhtlaewnommoC": 7455,
      "ĠoihO": 7456,
      "egalliv": 7457,
      "Ġag": 7458,
      "ĠecalP": 7459,
      "58": 7460,
      "norivnE": 7461,
      "omocol": 7462,
      "orteD": 7463,
      "78": 7464,
      "Ġsdnuos": 7465,
      "lleB": 7466,
      "Ġdenialpxe": 7467,
      "Ġ23": 7468,
      "Ġdetivni": 7469,
      "3391": 7470,
      "ĠnairtsuA": 7471,
      "Ġnob": 7472,
      "Ġeeffoc": 7473,
      "Ġhtxis": 7474,
      "nais": 7475,
      "Ġeraf": 7476,
      "98": 7477,
      "namuh": 7478,
      "Ġgod": 7479,
      "stluser": 7480,
      "tluser": 7481,
      "Ġsserd": 7482,
      "Ġtsigolo": 7483,
      "Ġelli": 7484,
      "god": 7485,
      "ĠlareveS": 7486,
      "ytse": 7487,
      "rtnoC": 7488,
      "seod": 7489,
      "ĠotreuP": 7490,
      "aeroK": 7491,
      "palloc": 7492,
      "Ġgniwohs": 7493,
      "evif": 7494,
      "Ġ1891": 7495,
      "ĠoslA": 7496,
      "rohT": 7497,
      "desu": 7498,
      "craM": 7499,
      "Ġsalo": 7500,
      "Ġmrofrep": 7501,
      "Ġeton": 7502,
      "Ġdegrem": 7503,
      "oiratnO": 7504,
      "yluJ": 7505,
      "Ġgnilles": 7506,
      "Ġdworc": 7507,
      "Ġtnetnoc": 7508,
      "Ġsdaeh": 7509,
      "VOC": 7510,
      "tsus": 7511,
      "Ġnoitubirtsid": 7512,
      "ooms": 7513,
      "Ġllor": 7514,
      "inuj": 7515,
      "ciF": 7516,
      "Ġkciuq": 7517,
      "leW": 7518,
      "Ġgnignirb": 7519,
      "ãĥ": 7520,
      "Ġffe": 7521,
      "Ġgniviecer": 7522,
      "70": 7523,
      "hposolihp": 7524,
      "icer": 7525,
      "Ġoge": 7526,
      "Ġyratnem": 7527,
      "ĠeseugutroP": 7528,
      "ilimaf": 7529,
      "Ġgniret": 7530,
      "rotom": 7531,
      "ĠtoH": 7532,
      "irret": 7533,
      "Ġdeyolpme": 7534,
      "Ġecaep": 7535,
      "ĠtuobA": 7536,
      "Ġknird": 7537,
      "Ġdetserra": 7538,
      "yrtsudni": 7539,
      "aj": 7540,
      "Ġgnidnif": 7541,
      "ĠdaeH": 7542,
      "tirreT": 7543,
      "dehsi": 7544,
      "rtsehcrO": 7545,
      "ylop": 7546,
      "Ġsrellabtoof": 7547,
      "syhP": 7548,
      ").": 7549,
      "erehT": 7550,
      "mmiws": 7551,
      "enuJ": 7552,
      "Ġgurd": 7553,
      "eetti": 7554,
      "Ġemulov": 7555,
      "Ġmroftalp": 7556,
      "Ġlam": 7557,
      "rebot": 7558,
      "Ġsthguoht": 7559,
      "Ġregnif": 7560,
      "Ġstroper": 7561,
      "Ġdehcti": 7562,
      "Ġrehti": 7563,
      "Ġdellortnoc": 7564,
      "Ġwerht": 7565,
      "irD": 7566,
      "niatirB": 7567,
      "Ġeseco": 7568,
      "valso": 7569,
      "rew": 7570,
      "ĠcimalsI": 7571,
      "Ġlleb": 7572,
      "kaB": 7573,
      "Ġpma": 7574,
      "ĠdnuoR": 7575,
      "Ġlamina": 7576,
      "dnaB": 7577,
      "Ġwob": 7578,
      "Ġcitna": 7579,
      "tO": 7580,
      "daed": 7581,
      "kcor": 7582,
      "Ġevisser": 7583,
      "ĠyawhgiH": 7584,
      "Ġnits": 7585,
      "ĠlatipsoH": 7586,
      "kaT": 7587,
      "Ġgnineve": 7588,
      "ĠSO": 7589,
      "Ġlairt": 7590,
      "ĠRAEN": 7591,
      "hne": 7592,
      "strop": 7593,
      "Ġerow": 7594,
      "Ġgniyrrac": 7595,
      "ĠorrocoS": 7596,
      "tah": 7597,
      "ula": 7598,
      "9291": 7599,
      "mehcs": 7600,
      "Ġllib": 7601,
      "ugnaL": 7602,
      "Ġnret": 7603,
      "Ġnoipmahc": 7604,
      "ota": 7605,
      "ĠdoG": 7606,
      "Ġetisoppo": 7607,
      "ĠRAENIL": 7608,
      "httaM": 7609,
      "Ġtneuqesbus": 7610,
      "ĠdraoblliB": 7611,
      "0091": 7612,
      "Ġslacov": 7613,
      "sba": 7614,
      "Ġyliad": 7615,
      "sitrevda": 7616,
      "7191": 7617,
      "Ġenalp": 7618,
      "tnalp": 7619,
      "Ġrewot": 7620,
      "hctip": 7621,
      "Ġsmoor": 7622,
      "Ġevitu": 7623,
      "urcer": 7624,
      "Ġtnioj": 7625,
      "talsi": 7626,
      "tsoC": 7627,
      "gerG": 7628,
      "Ġthgirb": 7629,
      "Ġdessorc": 7630,
      "Ġdetsisnoc": 7631,
      "Ġdiarfa": 7632,
      "Ġraew": 7633,
      "viL": 7634,
      "Ġtnempiuqe": 7635,
      "maJ": 7636,
      "Ġnoitartsinimda": 7637,
      "Ġhsiw": 7638,
      "erutcurts": 7639,
      "nyS": 7640,
      "eneg": 7641,
      "lps": 7642,
      "Ġdeci": 7643,
      "Ġsrel": 7644,
      "Ġdeveihca": 7645,
      "lehs": 7646,
      "elli": 7647,
      "Ġali": 7648,
      "Ġsyug": 7649,
      "CU": 7650,
      "Ġale": 7651,
      "nuocne": 7652,
      "Ġtrecnoc": 7653,
      "Ġrednammoc": 7654,
      "4391": 7655,
      "Ġyrell": 7656,
      "rebotcO": 7657,
      "Ġylfeirb": 7658,
      "ylloH": 7659,
      "lrig": 7660,
      "smetsys": 7661,
      "Ġgnimrofrep": 7662,
      "arB": 7663,
      "Ġstnalp": 7664,
      "Ġkciht": 7665,
      "paR": 7666,
      "Ġgab": 7667,
      "yn": 7668,
      "suoH": 7669,
      "Ġtnenamrep": 7670,
      "ĠecapS": 7671,
      "rfni": 7672,
      "ved": 7673,
      "Ġknar": 7674,
      "Ġesol": 7675,
      "sreht": 7676,
      "bata": 7677,
      "Ġelpmet": 7678,
      "seid": 7679,
      "Ġevaw": 7680,
      "Ġ8791": 7681,
      "vac": 7682,
      "serpmi": 7683,
      "naeJ": 7684,
      "Ġerutcetihcra": 7685,
      "eJ": 7686,
      "gaE": 7687,
      "Ġdeniatnoc": 7688,
      "ĠyrtnafnI": 7689,
      "uqil": 7690,
      "Ġlait": 7691,
      "Ġyawyna": 7692,
      "tibahni": 7693,
      "Ġdeit": 7694,
      "llahC": 7695,
      "lopa": 7696,
      "Ġymene": 7697,
      "Ġyltneuqerf": 7698,
      "Ġylerab": 7699,
      "Ġdeludehcs": 7700,
      "kcatta": 7701,
      "Ġdesirprus": 7702,
      "Ġregnessap": 7703,
      "secruoS": 7704,
      "97": 7705,
      "Ġcisab": 7706,
      "Ġleets": 7707,
      "0191": 7708,
      "Ġdetrevnoc": 7709,
      "Ġ4791": 7710,
      "Ġesimorp": 7711,
      "urC": 7712,
      "Ġstcejorp": 7713,
      "Ġkcurts": 7714,
      "mottO": 7715,
      "ĠylatI": 7716,
      "ĠecnivorP": 7717,
      "Ġsisylana": 7718,
      "sem": 7719,
      "VI": 7720,
      "napmoC": 7721,
      "Ġteni": 7722,
      "Ġgninnalp": 7723,
      "nnut": 7724,
      "Ġlapicnirp": 7725,
      "Ġpihsredael": 7726,
      "ruen": 7727,
      "ubirtta": 7728,
      "iawaH": 7729,
      "nnam": 7730,
      "napsloc": 7731,
      "sirc": 7732,
      "leN": 7733,
      "ihcnarf": 7734,
      "evoL": 7735,
      "Ġevitce": 7736,
      "aT": 7737,
      "Ġsedosipe": 7738,
      "Ġlabolg": 7739,
      "iuqer": 7740,
      "vorppa": 7741,
      "Ġsulp": 7742,
      "Ġylppus": 7743,
      "80": 7744,
      "ĠscipmylO": 7745,
      "Ġniarb": 7746,
      "nmy": 7747,
      "eruB": 7748,
      "Ġevitceffe": 7749,
      "Ġyllanoit": 7750,
      "ĠygolonhceT": 7751,
      "pip": 7752,
      "vok": 7753,
      "lraC": 7754,
      "cetorP": 7755,
      "temeC": 7756,
      "Ġytinutroppo": 7757,
      "90": 7758,
      "Ġtnega": 7759,
      "Ġstpmetta": 7760,
      "Ġeo": 7761,
      "Ġsdnif": 7762,
      "ĠevitalsigeL": 7763,
      "hgiF": 7764,
      "Ġsen": 7765,
      "Ġyrotirret": 7766,
      "iraV": 7767,
      "ĠlarebiL": 7768,
      "itar": 7769,
      "cua": 7770,
      "Ġtae": 7771,
      "cnaL": 7772,
      "Ġrevird": 7773,
      "Ġsdnats": 7774,
      "toP": 7775,
      "Ġnrael": 7776,
      "sria": 7777,
      "noK": 7778,
      "lucric": 7779,
      "Ġsnoitaler": 7780,
      "SP": 7781,
      "Ġdenni": 7782,
      "hguor": 7783,
      "2391": 7784,
      "noititepmoc": 7785,
      "DIVOC": 7786,
      "Ġerawtfos": 7787,
      "Ġ5791": 7788,
      "sttiP": 7789,
      "Ġnay": 7790,
      "dam": 7791,
      "Ġ0791": 7792,
      "yadot": 7793,
      "Ġskni": 7794,
      "Ġrehtien": 7795,
      "Ġmrots": 7796,
      "ĠsamtsirhC": 7797,
      "neve": 7798,
      "mulA": 7799,
      "Ġhtrae": 7800,
      "nidE": 7801,
      "tselaP": 7802,
      "ragraM": 7803,
      "ĠynohtnA": 7804,
      "ĠdravraH": 7805,
      "Ġdeltitne": 7806,
      "Ġderaperp": 7807,
      "Ġsnoitutitsni": 7808,
      "SN": 7809,
      "Ġderewsna": 7810,
      "Ġtiri": 7811,
      "Ġsdrawa": 7812,
      "Ġesohc": 7813,
      "sdi": 7814,
      "sahpme": 7815,
      "ĠaÃŃ": 7816,
      "Ġyltnerappa": 7817,
      "snoitcele": 7818,
      "Ġserugif": 7819,
      "à¸": 7820,
      "wohS": 7821,
      "Ġtneserper": 7822,
      "emoR": 7823,
      "Ġgnidrager": 7824,
      "ĠrorepmE": 7825,
      "Ġgnidnuof": 7826,
      "hoj": 7827,
      "ĠtnemigeR": 7828,
      "Ġrentrap": 7829,
      "Ġlaitnediserp": 7830,
      "suoc": 7831,
      "Ġnori": 7832,
      "Ġreit": 7833,
      "boj": 7834,
      "Ġyraretil": 7835,
      "snia": 7836,
      "nilreB": 7837,
      "Ġregni": 7838,
      "ĠyekcoH": 7839,
      "Ġevi": 7840,
      "dnaxelA": 7841,
      "irporppa": 7842,
      "Ġsretrauqdaeh": 7843,
      "ysP": 7844,
      "Ġdeifit": 7845,
      "Ġpirt": 7846,
      "Ġrefsnart": 7847,
      "itpa": 7848,
      "snaicisum": 7849,
      "redefnoC": 7850,
      "tsiniM": 7851,
      "ima": 7852,
      "kaD": 7853,
      "sme": 7854,
      "Ġ7791": 7855,
      "hpargotohp": 7856,
      "Ġnoitcetorp": 7857,
      "ĠlacoL": 7858,
      "Ġyeh": 7859,
      "ĠylnO": 7860,
      "lbuD": 7861,
      "tuF": 7862,
      "yeht": 7863,
      "ssia": 7864,
      "gnuoy": 7865,
      "Ġgnikaerb": 7866,
      "mucric": 7867,
      "Ġcitsemod": 7868,
      "dalgnaB": 7869,
      "aP": 7870,
      "Ġstcirtsid": 7871,
      "ubirt": 7872,
      "uY": 7873,
      "1391": 7874,
      "muN": 7875,
      "ulav": 7876,
      "67": 7877,
      "htraE": 7878,
      "Ġretniw": 7879,
      "nablA": 7880,
      "ylana": 7881,
      "Ġthguos": 7882,
      "Ġderih": 7883,
      "Ġsmu": 7884,
      "Ġgnisaercni": 7885,
      "Ġwolf": 7886,
      "rÃ¼": 7887,
      "Ġsetad": 7888,
      "Ġderebmemer": 7889,
      "senil": 7890,
      "ĠnainiarkU": 7891,
      "Ġlanois": 7892,
      "Ġtalf": 7893,
      "nuR": 7894,
      "Ġyletamitlu": 7895,
      "8291": 7896,
      "Ġyrani": 7897,
      "Ġgnitroppus": 7898,
      "ĠSM": 7899,
      "Ġgnirats": 7900,
      "Ġevitanretla": 7901,
      "gev": 7902,
      "llop": 7903,
      "noN": 7904,
      "iwt": 7905,
      "lus": 7906,
      "oH": 7907,
      "Ġmumixam": 7908,
      "Ġelcihev": 7909,
      "naem": 7910,
      "7291": 7911,
      "Ġ003": 7912,
      "bmys": 7913,
      "tserW": 7914,
      "Ġstrats": 7915,
      "Ġ4691": 7916,
      "ilA": 7917,
      "Ġlanoitacude": 7918,
      "2291": 7919,
      "Ġdettimda": 7920,
      "Ġllat": 7921,
      "ĠyevruS": 7922,
      "Ġdeh": 7923,
      "ĠotnoroT": 7924,
      "50": 7925,
      "lusni": 7926,
      "ertnoM": 7927,
      "nosi": 7928,
      "cinummoC": 7929,
      "rethguad": 7930,
      "ĠneB": 7931,
      "snakrA": 7932,
      "Ġgnie": 7933,
      "Ġsupmac": 7934,
      "Ġevisnetxe": 7935,
      "ĠevitucexE": 7936,
      "illA": 7937,
      "nedewS": 7938,
      "tapxE": 7939,
      "noitacif": 7940,
      "pihsre": 7941,
      "Ġsisne": 7942,
      "ohC": 7943,
      "Ġ,)\"": 7944,
      "zeneV": 7945,
      "Ġneta": 7946,
      "duS": 7947,
      "Ġskram": 7948,
      "Ġlacinhcet": 7949,
      "Ġstsil": 7950,
      "dnarb": 7951,
      "hgfA": 7952,
      "dliW": 7953,
      "Ġylesolc": 7954,
      "Ġdnuorgkcab": 7955,
      "elif": 7956,
      "kaM": 7957,
      "duo": 7958,
      "Ġraelcun": 7959,
      "Ġ3791": 7960,
      "mob": 7961,
      "Ġgnihsinif": 7962,
      "Ġgninrael": 7963,
      "Ġib": 7964,
      "virP": 7965,
      "noG": 7966,
      "kcaj": 7967,
      "Ġyoj": 7968,
      "Ġsg": 7969,
      "Ġsnos": 7970,
      "tsalb": 7971,
      "kcirC": 7972,
      "Ġnoitat": 7973,
      "Ġemeht": 7974,
      "Ġlautca": 7975,
      "Ġfeirb": 7976,
      "Ġliar": 7977,
      "Ġegduj": 7978,
      "SM": 7979,
      "Ġfeiler": 7980,
      "esne": 7981,
      "rehni": 7982,
      "ĠaissuR": 7983,
      "ruoj": 7984,
      "cime": 7985,
      "Ġdetcelloc": 7986,
      "ica": 7987,
      "nrE": 7988,
      "nemid": 7989,
      "dnuop": 7990,
      "seireS": 7991,
      "Ġflesruoy": 7992,
      "Ġdlohesuoh": 7993,
      "Ġseruta": 7994,
      "roppus": 7995,
      "Ġesirprus": 7996,
      "hpa": 7997,
      "ĠnoskcaJ": 7998,
      "pop": 7999,
      "aira": 8000,
      "csdnal": 8001,
      "oib": 8002,
      "nek": 8003,
      "esab": 8004,
      "ĠnomiS": 8005,
      "Ġaira": 8006,
      "ĠetairtapxE": 8007,
      "ssergnoC": 8008,
      "Ġlab": 8009,
      "ihdduB": 8010,
      "ĠtraP": 8011,
      "livic": 8012,
      "ĠtoN": 8013,
      "Ġsnoisrev": 8014,
      "Ġnoitasrevnoc": 8015,
      "manteiV": 8016,
      "ĠMF": 8017,
      "Ġdevired": 8018,
      "sdnalrehteN": 8019,
      "rgime": 8020,
      "llaD": 8021,
      "ĠnalA": 8022,
      "Ġevitucesnoc": 8023,
      "laviuqe": 8024,
      "av": 8025,
      "cived": 8026,
      "Ġgnizi": 8027,
      "peN": 8028,
      "rema": 8029,
      "Ġeson": 8030,
      "hce": 8031,
      "Ġgnillaf": 8032,
      "Ġdetiaw": 8033,
      "Ġsdleif": 8034,
      "Ġsrettel": 8035,
      "Ġniag": 8036,
      "Ġnoitazila": 8037,
      "rwaL": 8038,
      "kaew": 8039,
      "skooB": 8040,
      "nidrooc": 8041,
      "etihw": 8042,
      "Ġevila": 8043,
      "nisnocsiW": 8044,
      "Ġlebal": 8045,
      "ĠegatireH": 8046,
      "ĠlarutluC": 8047,
      "Ġsroti": 8048,
      "enO": 8049,
      "Ġdeggur": 8050,
      "ĠruobaL": 8051,
      "node": 8052,
      "mota": 8053,
      "doolf": 8054,
      "Ġstra": 8055,
      "sob": 8056,
      "ĠnosliW": 8057,
      "orhtna": 8058,
      "garf": 8059,
      "ĠrolyaT": 8060,
      "srenniw": 8061,
      "Ġ1791": 8062,
      "tcejorp": 8063,
      "ĠsasnaK": 8064,
      "Ġtre": 8065,
      "Ġelcyc": 8066,
      "Ġcinap": 8067,
      "ĠeunevA": 8068,
      "naj": 8069,
      "ĠVI": 8070,
      "seL": 8071,
      "AL": 8072,
      "ĠleumaS": 8073,
      "savni": 8074,
      "elihC": 8075,
      "etnulov": 8076,
      "gurd": 8077,
      "Ġgniwor": 8078,
      "ĠytiruceS": 8079,
      "norf": 8080,
      "lar": 8081,
      "sdnalsI": 8082,
      "Ġdetubirtnoc": 8083,
      "ĠsionillI": 8084,
      "ete": 8085,
      "ĠaihpledalihP": 8086,
      "ĠbarA": 8087,
      "Ġnedoow": 8088,
      "Ġsegalliv": 8089,
      "ĠnuS": 8090,
      "gru": 8091,
      "nreF": 8092,
      "Ġtnemtrapa": 8093,
      "Ġstaes": 8094,
      "Ġdenodnaba": 8095,
      "ĠnÃ¡": 8096,
      "llarap": 8097,
      "inI": 8098,
      "IC": 8099,
      "Ġnekops": 8100,
      "leef": 8101,
      "Ġdetniap": 8102,
      "menic": 8103,
      "Ġ@": 8104,
      "Ġman": 8105,
      "deP": 8106,
      "egats": 8107,
      "Ġsnopaew": 8108,
      "Ġdekcol": 8109,
      "68": 8110,
      "ĠhtuoY": 8111,
      "rowe": 8112,
      "ĠmilsuM": 8113,
      "Ġyleti": 8114,
      "Ġnedd": 8115,
      "ĠskroW": 8116,
      "Ġeripmav": 8117,
      "ylbme": 8118,
      "Ġdecneulfni": 8119,
      "Ġslanif": 8120,
      "Ġtcnu": 8121,
      "ĠLFN": 8122,
      "Ġssertca": 8123,
      "Ġevlewt": 8124,
      "Ġgniksa": 8125,
      "ĠnopU": 8126,
      "ĠtnanetueiL": 8127,
      "ruoF": 8128,
      "tsissA": 8129,
      "Ġdnarb": 8130,
      "laci": 8131,
      "Ġertaeht": 8132,
      "Ġyalpsid": 8133,
      "ĠlearsI": 8134,
      "Ġtsir": 8135,
      "cra": 8136,
      "Ġeugnot": 8137,
      "Ġydal": 8138,
      "puts": 8139,
      "Ġderetsiger": 8140,
      "ĠkcirederF": 8141,
      "1291": 8142,
      "Ġsnamuh": 8143,
      "5291": 8144,
      "tti": 8145,
      "riah": 8146,
      "ĠretaW": 8147,
      "hB": 8148,
      "loF": 8149,
      "kiM": 8150,
      "sru": 8151,
      "Ġyrts": 8152,
      "eton": 8153,
      "guani": 8154,
      "Ġesnefed": 8155,
      "Ġdegga": 8156,
      "Ġskcatta": 8157,
      "Ġ9691": 8158,
      "Ġsecaf": 8159,
      "noisseforp": 8160,
      "Ġdesserpxe": 8161,
      "kcotS": 8162,
      "eso": 8163,
      "ĠlairepmI": 8164,
      "tnemurtsni": 8165,
      "blA": 8166,
      "Ġsecruos": 8167,
      "Ġ5491": 8168,
      "nalP": 8169,
      "69": 8170,
      "Ġartxe": 8171,
      "4291": 8172,
      "losba": 8173,
      "Ġsessap": 8174,
      "truoC": 8175,
      "Ġsrefer": 8176,
      "Ġkcots": 8177,
      "Ġtfarc": 8178,
      "Ġgnipoleved": 8179,
      "setu": 8180,
      "yekruT": 8181,
      "wetS": 8182,
      "tnevda": 8183,
      "name": 8184,
      "Ġroyam": 8185,
      "Ġriaf": 8186,
      "loR": 8187,
      "rran": 8188,
      "6291": 8189,
      "noigeR": 8190,
      "levelC": 8191,
      "ytiliba": 8192,
      "Ġnoitareneg": 8193,
      "Ġsniart": 8194,
      "shtnom": 8195,
      "yawroN": 8196,
      "Ġegnarts": 8197,
      "AF": 8198,
      "60": 8199,
      "lirpA": 8200,
      "Ġegassem": 8201,
      "Ġronoh": 8202,
      "gileR": 8203,
      "Ġ\";": 8204,
      "loD": 8205,
      "goL": 8206,
      "Ġhctac": 8207,
      "tsaM": 8208,
      "drofxO": 8209,
      "Ġ7691": 8210,
      "Ġronrevog": 8211,
      "slevon": 8212,
      "Ġselas": 8213,
      "hga": 8214,
      "Ġkcehc": 8215,
      "Ġaht": 8216,
      "ĠmaS": 8217,
      "crexe": 8218,
      "ĠnoitamrofnI": 8219,
      "Ġsthgin": 8220,
      "elbat": 8221,
      "Ġseirt": 8222,
      "ĠdnaL": 8223,
      "nyl": 8224,
      "ronoh": 8225,
      "Ġnaina": 8226,
      "az": 8227,
      "Ġselor": 8228,
      "ĠcirE": 8229,
      "woC": 8230,
      "tseb": 8231,
      "Ġsdael": 8232,
      "ĠytupeD": 8233,
      "uqesnoc": 8234,
      "snecil": 8235,
      "hcrem": 8236,
      "Ġyarg": 8237,
      "mon": 8238,
      "Ġdemussa": 8239,
      "ilf": 8240,
      "Ġdegagne": 8241,
      "ecnamrofrep": 8242,
      "ecaps": 8243,
      "Ġ0691": 8244,
      "teiuq": 8245,
      "Ġlanretni": 8246,
      "yawa": 8247,
      "Ġdnasuoht": 8248,
      "Ġnoon": 8249,
      "Ġseitilicaf": 8250,
      "Ġgniniat": 8251,
      "ĠsegalliV": 8252,
      "noitaN": 8253,
      "Ġsrotca": 8254,
      "Ġderif": 8255,
      "ĠseidutS": 8256,
      "Ġsliated": 8257,
      "Ġepahs": 8258,
      "OR": 8259,
      "arb": 8260,
      "taehT": 8261,
      "Ġ004": 8262,
      "Ġedir": 8263,
      "gla": 8264,
      "Ġeib": 8265,
      "ĠtsinummoC": 8266,
      "sserp": 8267,
      "ER": 8268,
      "vaR": 8269,
      "etad": 8270,
      "duB": 8271,
      "40": 8272,
      "uqa": 8273,
      "citsu": 8274,
      "Ġdehgis": 8275,
      "Ġain": 8276,
      "faS": 8277,
      "Ġyrrow": 8278,
      "dommoc": 8279,
      "woL": 8280,
      "secar": 8281,
      "cnivnoc": 8282,
      "Ġsda": 8283,
      "Ġswal": 8284,
      "Ġelbuort": 8285,
      "Ġytirohtua": 8286,
      "setats": 8287,
      "HC": 8288,
      "tnemanruot": 8289,
      "3291": 8290,
      "Ġdetide": 8291,
      "ngerp": 8292,
      "Ġsrewop": 8293,
      "Ġnoitisoppo": 8294,
      "Ġgnikcab": 8295,
      "EU": 8296,
      "drum": 8297,
      "Ġseltit": 8298,
      "Ġdepahs": 8299,
      "Ġyrasrev": 8300,
      "rucca": 8301,
      "Ġslaiciffo": 8302,
      "ĠnilreB": 8303,
      "ĠtsaL": 8304,
      "ĠnaigleB": 8305,
      "2191": 8306,
      "stluseR": 8307,
      "Ġdecneirepxe": 8308,
      "Ġyawhgih": 8309,
      "aigroeG": 8310,
      "Ġrotcod": 8311,
      "Ġteews": 8312,
      "nay": 8313,
      "Ġraer": 8314,
      "ĠpilihP": 8315,
      "ĠnoitaredeF": 8316,
      "caS": 8317,
      "delwonk": 8318,
      "ĠdnaltocS": 8319,
      "30": 8320,
      "PC": 8321,
      "gnita": 8322,
      "liP": 8323,
      "nehp": 8324,
      "tfarcria": 8325,
      "rbme": 8326,
      "ĠtropriA": 8327,
      "005": 8328,
      "Ġsserdda": 8329,
      "Ġsledom": 8330,
      "dues": 8331,
      "Ġdedrager": 8332,
      "pmocca": 8333,
      "Ġnialpxe": 8334,
      "ĠsiweL": 8335,
      "neL": 8336,
      "Ġarepo": 8337,
      "pec": 8338,
      "nÃ³": 8339,
      "egap": 8340,
      "Ġtneca": 8341,
      "ufer": 8342,
      "Ġgnicudorp": 8343,
      "sitra": 8344,
      "Ġstib": 8345,
      "Ġcigam": 8346,
      "ĠniveK": 8347,
      "ĠÃ©soJ": 8348,
      "ferP": 8349,
      "ohw": 8350,
      "rutan": 8351,
      "ĠkcirtaP": 8352,
      "Ġsuta": 8353,
      "Ġsuoneg": 8354,
      "Ġgnidnatsrednu": 8355,
      "muht": 8356,
      "Ġseh": 8357,
      "Ġgnivlovni": 8358,
      "dliw": 8359,
      "uohs": 8360,
      "Ġdelur": 8361,
      "ĠgnireenignE": 8362,
      "Ġenile": 8363,
      "Ġpam": 8364,
      "tirips": 8365,
      "torp": 8366,
      "sleW": 8367,
      "Ġdetceffa": 8368,
      "lpicsid": 8369,
      "eniL": 8370,
      "ffuB": 8371,
      "ĠthgiL": 8372,
      "ĠtseroF": 8373,
      "qarI": 8374,
      "Ġhsilbatse": 8375,
      "nomrah": 8376,
      "Ġgnihsa": 8377,
      "ĠtnednepednI": 8378,
      "varT": 8379,
      "Ġhguorob": 8380,
      "Ġytilaer": 8381,
      "Ġdetalsnart": 8382,
      "Ġrelle": 8383,
      "ĠyesreJ": 8384,
      "sessertca": 8385,
      "Ä«": 8386,
      "sar": 8387,
      "Ġ08": 8388,
      "tnom": 8389,
      "Ġail": 8390,
      "rebmevoN": 8391,
      "ffats": 8392,
      "Ġnoitom": 8393,
      "Ġtnemetats": 8394,
      "Ġksed": 8395,
      "tops": 8396,
      "Ġecnereffid": 8397,
      "tohP": 8398,
      "Ġynnu": 8399,
      "smurd": 8400,
      "xaS": 8401,
      "Ġgnillup": 8402,
      "Ġhcnual": 8403,
      "Ġtluda": 8404,
      "picit": 8405,
      "Ġdeugra": 8406,
      "nniW": 8407,
      "ĠdrawoH": 8408,
      "gnam": 8409,
      "Ġdessik": 8410,
      "Ġtegrat": 8411,
      "Ġdetamina": 8412,
      "6191": 8413,
      "ĠxoF": 8414,
      "ĠsivaD": 8415,
      "Ġdehcatta": 8416,
      "Ġub": 8417,
      "ĠtcejorP": 8418,
      "aidem": 8419,
      "vdA": 8420,
      "ssele": 8421,
      "Ġset": 8422,
      "Ġnworg": 8423,
      "Ġgnipleh": 8424,
      "Ġmraf": 8425,
      "Ġecirp": 8426,
      "dnetni": 8427,
      "niboR": 8428,
      "ĠÅį": 8429,
      "bol": 8430,
      "Ġtndluoc": 8431,
      "Ġsessalc": 8432,
      "leber": 8433,
      "5191": 8434,
      "snoitats": 8435,
      "yolped": 8436,
      "47": 8437,
      "Ġzzaj": 8438,
      "Ġswodniw": 8439,
      "lleb": 8440,
      "yde": 8441,
      "liahT": 8442,
      "nosaer": 8443,
      "elu": 8444,
      "rcs": 8445,
      "Ġdliw": 8446,
      "Ġhcni": 8447,
      "Ġsreg": 8448,
      "Ġrailimaf": 8449,
      "ĠroirP": 8450,
      "ĠmiK": 8451,
      "Ġetamilc": 8452,
      "Ġetamit": 8453,
      "Ġgnitad": 8454,
      "leuzeneV": 8455,
      "ĠlenoloC": 8456,
      "boN": 8457,
      "ĠlarutaN": 8458,
      "Ġevitatneserper": 8459,
      "Ġrennid": 8460,
      "Ġnoitomorp": 8461,
      "Ġytilicaf": 8462,
      "Ġtolip": 8463,
      "ĠhsleW": 8464,
      "hgrub": 8465,
      "llim": 8466,
      "enoip": 8467,
      "siH": 8468,
      "losnoc": 8469,
      "Ġtnemhsilbatse": 8470,
      "niS": 8471,
      "idis": 8472,
      "lataC": 8473,
      "ĠmuidatS": 8474,
      "Ġsllaf": 8475,
      "ĠevaD": 8476,
      "dnap": 8477,
      "uor": 8478,
      "ĠlacisuM": 8479,
      "Ġlavitsef": 8480,
      "cnad": 8481,
      "fir": 8482,
      "losi": 8483,
      "xif": 8484,
      "Ġtcepser": 8485,
      "noskcaJ": 8486,
      "yvaN": 8487,
      "ĠlraC": 8488,
      "muida": 8489,
      "Ġesiwrehto": 8490,
      "dbA": 8491,
      "ĠennA": 8492,
      "Ġdegnarra": 8493,
      "noP": 8494,
      "Ġdehcuot": 8495,
      "duR": 8496,
      "poH": 8497,
      "noisacco": 8498,
      "sitatS": 8499,
      "Ġetarepo": 8500,
      "geV": 8501,
      "ĠtenretnI": 8502,
      "Ġhgual": 8503,
      "luclac": 8504,
      "amo": 8505,
      "elt": 8506,
      "guY": 8507,
      "Ġyc": 8508,
      "Ġfoor": 8509,
      "Ġika": 8510,
      "mulov": 8511,
      "sretcarahc": 8512,
      "rolpxe": 8513,
      "ĠepoP": 8514,
      "Ġgnitti": 8515,
      "Ġeniw": 8516,
      "hcaM": 8517,
      "raeP": 8518,
      "ĠnauJ": 8519,
      "Ġerar": 8520,
      "Ġslamina": 8521,
      "pareht": 8522,
      "Ġtsetaerg": 8523,
      "ocla": 8524,
      "Ġynit": 8525,
      "tnemevom": 8526,
      "dnuoS": 8527,
      "Ġmas": 8528,
      "liK": 8529,
      "Ġava": 8530,
      "Ġgnili": 8531,
      "daP": 8532,
      "Ġdaol": 8533,
      "ĠtnemeganaM": 8534,
      "ĠlennahC": 8535,
      "Ġytilibis": 8536,
      "Ġnaelc": 8537,
      "Ġemarf": 8538,
      "Ġnoillib": 8539,
      "IM": 8540,
      "naK": 8541,
      "ĠmadA": 8542,
      "ĠwohS": 8543,
      "Ġtabmoc": 8544,
      "Ġgnitsisnoc": 8545,
      "Ġdauqs": 8546,
      "toT": 8547,
      "gnat": 8548,
      "eahcra": 8549,
      "Ġrega": 8550,
      "Ġseitirohtua": 8551,
      "Ġtseggi": 8552,
      "lucirgA": 8553,
      "pat": 8554,
      "irtaP": 8555,
      "Ġyawe": 8556,
      "Ġenia": 8557,
      "Ġnaw": 8558,
      "netni": 8559,
      "aeS": 8560,
      "lep": 8561,
      "Ġsmubla": 8562,
      "ĠÃ¡": 8563,
      "ĠaisA": 8564,
      "Ġ6691": 8565,
      "Ġroinuj": 8566,
      "Ġgnireenigne": 8567,
      "ronrevoG": 8568,
      "ĠsdnalsI": 8569,
      "Ġenu": 8570,
      "tsanyd": 8571,
      "suH": 8572,
      "Ġsrucco": 8573,
      "Ġlacimehc": 8574,
      "aN": 8575,
      "Ġsdik": 8576,
      "Ġdeniatniam": 8577,
      "sesac": 8578,
      "Ġsusnec": 8579,
      "Ġelbapac": 8580,
      "itepmoC": 8581,
      "RS": 8582,
      "htuom": 8583,
      "reviL": 8584,
      "migeR": 8585,
      "Ġpal": 8586,
      "luF": 8587,
      "Ġnretsaeht": 8588,
      "loT": 8589,
      "ĠtsoP": 8590,
      "Ġeneg": 8591,
      "Ġsselnu": 8592,
      "Ġnoitalu": 8593,
      "Ġswollof": 8594,
      "Ġ63": 8595,
      "caps": 8596,
      "Ġtiforp": 8597,
      "zama": 8598,
      "ag": 8599,
      "Ġdednuorrus": 8600,
      "ecroF": 8601,
      "noitcnuf": 8602,
      "ĠruO": 8603,
      "Ġderednow": 8604,
      "Ġtropria": 8605,
      "lloC": 8606,
      "Ġtrapa": 8607,
      "nrA": 8608,
      "Ġevitagen": 8609,
      "rorret": 8610,
      "ĠniapS": 8611,
      "Ġreccos": 8612,
      "Ġsretirw": 8613,
      "Ġlacihpargo": 8614,
      "Ġgniward": 8615,
      "Ġsetov": 8616,
      "ĠnoitarepO": 8617,
      "geB": 8618,
      "gnir": 8619,
      "mret": 8620,
      "10": 8621,
      "ssaP": 8622,
      "ĠinmulA": 8623,
      "elpmoC": 8624,
      "redrum": 8625,
      "Ġegatnavda": 8626,
      "Ġerised": 8627,
      "ĠY": 8628,
      "ĠdooG": 8629,
      "ĠhtraE": 8630,
      "Ġedutit": 8631,
      "49": 8632,
      "Ġnoitcaer": 8633,
      "dnefed": 8634,
      "Ġnrow": 8635,
      "Ġsdrib": 8636,
      "Ġ5691": 8637,
      "iwS": 8638,
      "ĠlabolG": 8639,
      "48": 8640,
      "yrub": 8641,
      "Ġdevresbo": 8642,
      "htE": 8643,
      "Ġsinnet": 8644,
      "Ġdeggurhs": 8645,
      "soc": 8646,
      "tropsnart": 8647,
      "iff": 8648,
      "Ġredisnoc": 8649,
      "Ġ07": 8650,
      "seka": 8651,
      "teL": 8652,
      "Ġllif": 8653,
      "Ġlauqe": 8654,
      "hpro": 8655,
      "ĠnaibreS": 8656,
      "Ġysatna": 8657,
      "Ġmsila": 8658,
      "Ġlatnemnorivne": 8659,
      "Ġzi": 8660,
      "Ġetomorp": 8661,
      "rtu": 8662,
      "Ġylemertxe": 8663,
      "ĠnamottO": 8664,
      "Ġxodoht": 8665,
      "decorp": 8666,
      "Ġsertem": 8667,
      "aina": 8668,
      "Ġdengiser": 8669,
      "gniht": 8670,
      "uhtiL": 8671,
      "kcat": 8672,
      "knaB": 8673,
      "Ġgnignahc": 8674,
      "3191": 8675,
      "iruossiM": 8676,
      "Ġthgieh": 8677,
      "Ġtbuod": 8678,
      "ĠnoitaroproC": 8679,
      "Ġonaip": 8680,
      "zt": 8681,
      "ĠegdirB": 8682,
      "Ġdesucca": 8683,
      "Ġnoisnapxe": 8684,
      "Ġ33": 8685,
      "ladem": 8686,
      "Ġdepparw": 8687,
      "Ġgnicaf": 8688,
      "Ġskca": 8689,
      "Ġnoitan": 8690,
      "Ġdetsu": 8691,
      "Ġodra": 8692,
      "Ġeterc": 8693,
      "ehC": 8694,
      "Ġdils": 8695,
      "cius": 8696,
      "etna": 8697,
      "ehW": 8698,
      "Ã´": 8699,
      "ledA": 8700,
      "purretni": 8701,
      "sretekcirc": 8702,
      "26": 8703,
      "Ġdella": 8704,
      "Ġrehsi": 8705,
      "ĠhtaeD": 8706,
      "Ġdetcetorp": 8707,
      "uqnoc": 8708,
      "nabeL": 8709,
      "Ġyllacificeps": 8710,
      "Ġtnac": 8711,
      "cnuonna": 8712,
      "scitsitats": 8713,
      "Ġnaol": 8714,
      "Ġdenrecnoc": 8715,
      "ekam": 8716,
      "Ġesiar": 8717,
      "ohP": 8718,
      "Ġnoitacilppa": 8719,
      "Ġdesiarp": 8720,
      "sregnis": 8721,
      "Ġevorpmi": 8722,
      "idepxe": 8723,
      "Ġniets": 8724,
      "flesmih": 8725,
      "Ġnoitibihxe": 8726,
      "redom": 8727,
      "Ġnoitingocer": 8728,
      "Ġtiuc": 8729,
      "eV": 8730,
      "adna": 8731,
      "Ġesrow": 8732,
      "ĠkrowteN": 8733,
      "tnemmoc": 8734,
      "Ġtnemer": 8735,
      "ĠilA": 8736,
      "iraC": 8737,
      "xelpmoc": 8738,
      "ĠlatigiD": 8739,
      "Ġcinortcele": 8740,
      "Ġworran": 8741,
      "worran": 8742,
      "Ġsniw": 8743,
      "kaeps": 8744,
      "Ġtpecca": 8745,
      "Ġlapicinum": 8746,
      "Ġyllaitne": 8747,
      "Ġ8491": 8748,
      "Ð¸Ð": 8749,
      "vren": 8750,
      "Ġau": 8751,
      "Ġair": 8752,
      "llip": 8753,
      "salG": 8754,
      "ĠregoR": 8755,
      "Ġlanimirc": 8756,
      "mert": 8757,
      "noitu": 8758,
      "natsikaP": 8759,
      "Ġidu": 8760,
      "Ġeloh": 8761,
      "airtsuA": 8762,
      "gnoK": 8763,
      "mehC": 8764,
      "ĠsmublA": 8765,
      "Ġsnug": 8766,
      "yz": 8767,
      "recnoC": 8768,
      "Ġsesser": 8769,
      "pih": 8770,
      "Â°": 8771,
      "Ġnoitanibmoc": 8772,
      "eunev": 8773,
      "Ġniatnoc": 8774,
      "Ġworro": 8775,
      "ĠnatiloporteM": 8776,
      "Ġsllec": 8777,
      "Ġcimoc": 8778,
      "rotceriD": 8779,
      "artrop": 8780,
      "oot": 8781,
      "ygre": 8782,
      "BGL": 8783,
      "ssalg": 8784,
      "Ġmad": 8785,
      "geled": 8786,
      "diS": 8787,
      "krap": 8788,
      "Ġmht": 8789,
      "ooG": 8790,
      "gor": 8791,
      "carco": 8792,
      "Ġiro": 8793,
      "pircsu": 8794,
      "elttab": 8795,
      "Ġgnittup": 8796,
      "valsoguY": 8797,
      "niamer": 8798,
      "senoJ": 8799,
      "ĠyadnuS": 8800,
      "ĠhguohT": 8801,
      "Ġdettimmoc": 8802,
      "itneicS": 8803,
      "Ġdepoh": 8804,
      "Ġdrib": 8805,
      "htoM": 8806,
      "senippilihP": 8807,
      "dnet": 8808,
      "daL": 8809,
      "ĠegdirbmaC": 8810,
      "ĠoinotnA": 8811,
      "Ġsez": 8812,
      "NU": 8813,
      "ĠyaR": 8814,
      "upmoc": 8815,
      "Ġkcap": 8816,
      "nimef": 8817,
      "swohs": 8818,
      "Ġevord": 8819,
      "Ġsecnamrofrep": 8820,
      "16": 8821,
      "Ġgniraeppa": 8822,
      "Ġnoitacilbup": 8823,
      "ralohcs": 8824,
      "Ġpuc": 8825,
      "Ġzti": 8826,
      "Ġluos": 8827,
      "Ġerehwemos": 8828,
      "Ġecnetsixe": 8829,
      "ĠreyalP": 8830,
      "Ġstnedi": 8831,
      "ĠrotcoD": 8832,
      "Ġeldnah": 8833,
      "lloR": 8834,
      "Ġerutarepmet": 8835,
      "Ġniahc": 8836,
      "ix": 8837,
      "deirF": 8838,
      "Ġaga": 8839,
      "Ġtnemtnioppa": 8840,
      "ĠecnO": 8841,
      "sgnidliub": 8842,
      "ĠseL": 8843,
      "pmohT": 8844,
      "egdirbmaC": 8845,
      "Ġseitisrev": 8846,
      "Ġaw": 8847,
      "Ġsciryl": 8848,
      "Ġylniatrec": 8849,
      "dtL": 8850,
      "Ġdenethg": 8851,
      "Ġyldi": 8852,
      "Ġmaerd": 8853,
      "zah": 8854,
      "Ġus": 8855,
      "Ġdetpada": 8856,
      "Ġsga": 8857,
      "ĠnaP": 8858,
      "dnammoC": 8859,
      "ãĤ": 8860,
      "ĠxirP": 8861,
      "Ġdexif": 8862,
      "Ġdednuos": 8863,
      "thguo": 8864,
      "ĠxaM": 8865,
      "div": 8866,
      "dnarB": 8867,
      "ette": 8868,
      "Ġyrgna": 8869,
      "ledom": 8870,
      "ĠsalguoD": 8871,
      "lortnoc": 8872,
      "Ġdehsilo": 8873,
      "Ġlavi": 8874,
      "Ġgnisirp": 8875,
      "anaidnI": 8876,
      "redlo": 8877,
      "Ġdereimerp": 8878,
      "yeK": 8879,
      "semiT": 8880,
      "dner": 8881,
      "hcta": 8882,
      "Ã¥": 8883,
      "Ġdereviled": 8884,
      "Ġlooc": 8885,
      "Ġlacipyt": 8886,
      "enizagam": 8887,
      "Ġtamrof": 8888,
      "Ġhceeps": 8889,
      "Ġgniraeh": 8890,
      "Ġgnilliw": 8891,
      "remE": 8892,
      "maN": 8893,
      "Ġelpoepstrops": 8894,
      "tliub": 8895,
      "Ġsuoregnad": 8896,
      "Ġdeina": 8897,
      "sweN": 8898,
      "naitsirhC": 8899,
      "deB": 8900,
      "lletas": 8901,
      "dnammoc": 8902,
      "rebmeceD": 8903,
      "ĠenitnegrA": 8904,
      "Ġworg": 8905,
      "Ġknil": 8906,
      "idaR": 8907,
      "loK": 8908,
      "Ġciteht": 8909,
      "Ġgnignis": 8910,
      "ĠsttesuhcassaM": 8911,
      "Ġnoitidnoc": 8912,
      "noitadnuoF": 8913,
      "bar": 8914,
      "Ġtseggib": 8915,
      "ceferP": 8916,
      "Ġdesserd": 8917,
      "Ġworht": 8918,
      "Ġsebircsed": 8919,
      "dnar": 8920,
      "Ġgnidnuf": 8921,
      "taerT": 8922,
      "selb": 8923,
      "geM": 8924,
      "lsigel": 8925,
      "roS": 8926,
      "gnaL": 8927,
      "htlaew": 8928,
      "á»": 8929,
      "rbA": 8930,
      "1191": 8931,
      "Ġnuf": 8932,
      "ĠemuloV": 8933,
      "celes": 8934,
      "ibo": 8935,
      "Ġytud": 8936,
      "sal": 8937,
      "sreganam": 8938,
      "Ġecuder": 8939,
      "lohtaC": 8940,
      "ĠnaD": 8941,
      "Ġrehtaew": 8942,
      "hpso": 8943,
      "dac": 8944,
      "Ġkcurt": 8945,
      "gnirpS": 8946,
      "ele": 8947,
      "rhs": 8948,
      "Ġprahs": 8949,
      "repsed": 8950,
      "Ġsnezitic": 8951,
      "Ġrorroh": 8952,
      "Ġsnaf": 8953,
      "rabraB": 8954,
      "Ġdir": 8955,
      "ssassa": 8956,
      "ÐµÐ": 8957,
      "uN": 8958,
      "Ġsder": 8959,
      "psE": 8960,
      "Ġsehsa": 8961,
      "smailliW": 8962,
      "Ġetepmoc": 8963,
      "Ġnoitasi": 8964,
      "ussa": 8965,
      "dnalreztiwS": 8966,
      "strA": 8967,
      "Ġnoitcudortni": 8968,
      "elihw": 8969,
      "ĠmiT": 8970,
      "tnecrep": 8971,
      "Ġdneps": 8972,
      "sdlohesuoh": 8973,
      "yhpargoeG": 8974,
      "ĠagiL": 8975,
      "0981": 8976,
      "eniuG": 8977,
      "ĠeriF": 8978,
      "Ġsegami": 8979,
      "ĠorP": 8980,
      "Ġgniz": 8981,
      "noitpeceR": 8982,
      "Ġecneidua": 8983,
      "ĠatosenniM": 8984,
      "esle": 8985,
      "Ġyub": 8986,
      "uqA": 8987,
      "Ġleuf": 8988,
      "ĠnaJ": 8989,
      "vetS": 8990,
      "Ġdedulcnoc": 8991,
      "ĠnainamoR": 8992,
      "dnuorgkcaB": 8993,
      "Ġ43": 8994,
      "nogerO": 8995,
      "ĠannA": 8996,
      "itpaB": 8997,
      "kaO": 8998,
      "ĠtnemniatretnE": 8999,
      "itnatsbus": 9000,
      "roK": 9001,
      "ĠmetsyS": 9002,
      "ciD": 9003,
      "Ġdeinapmocca": 9004,
      "ocsid": 9005,
      "ĠASU": 9006,
      "len": 9007,
      "Ġlarde": 9008,
      "Ġyo": 9009,
      "Ġnwa": 9010,
      "Ġytua": 9011,
      "muK": 9012,
      "Ġ09": 9013,
      "ivA": 9014,
      "ÅŁ": 9015,
      "Ġ2691": 9016,
      "ĠeltsaC": 9017,
      "revir": 9018,
      "tsisni": 9019,
      "Ġ3691": 9020,
      "rik": 9021,
      "Ġnwonknu": 9022,
      "ĠcimonocE": 9023,
      "neT": 9024,
      "aibmuloC": 9025,
      "Ġderrats": 9026,
      "Ġgnidnal": 9027,
      "Ġelbatrofmoc": 9028,
      "Ġevisnefed": 9029,
      "Ġwohemos": 9030,
      "rimdA": 9031,
      "atosenniM": 9032,
      "EM": 9033,
      "Ġsdaor": 9034,
      "neeuQ": 9035,
      "Ġliat": 9036,
      "doD": 9037,
      "nkcin": 9038,
      "puc": 9039,
      "pmorp": 9040,
      "iJ": 9041,
      "ĠtnioP": 9042,
      "Ġteop": 9043,
      "Ġsevi": 9044,
      "mliF": 9045,
      "utS": 9046,
      "smrof": 9047,
      "Ġbew": 9048,
      "uoR": 9049,
      "Ġhs": 9050,
      "Ġdetalu": 9051,
      "Ġderujni": 9052,
      "ÅĦ": 9053,
      "Ġdellatsni": 9054,
      "nitnoC": 9055,
      "WW": 9056,
      "poP": 9057,
      "Ġtew": 9058,
      "ĠngiseD": 9059,
      "yloP": 9060,
      "xua": 9061,
      "redi": 9062,
      "Ġsnoiger": 9063,
      "Ġsdohtem": 9064,
      "issop": 9065,
      "irtsudni": 9066,
      "racs": 9067,
      "uqE": 9068,
      "Ġgnito": 9069,
      "Ġrecnac": 9070,
      "roti": 9071,
      "Ġxi": 9072,
      "Ġtnom": 9073,
      "temolik": 9074,
      "driht": 9075,
      "Ġesaesid": 9076,
      "rubus": 9077,
      "Ġ6591": 9078,
      "Ġgnisolc": 9079,
      "Ġgnisir": 9080,
      "foS": 9081,
      "lossid": 9082,
      "kcaJ": 9083,
      "27": 9084,
      "lpmocca": 9085,
      "kcol": 9086,
      "dneH": 9087,
      "yar": 9088,
      "htgnel": 9089,
      "ewS": 9090,
      "ĠnosrednA": 9091,
      "Ġler": 9092,
      "Ġtnecajda": 9093,
      "trohS": 9094,
      "gnahC": 9095,
      "Ġyeno": 9096,
      "noisses": 9097,
      "lliw": 9098,
      "aK": 9099,
      "Ġdehs": 9100,
      "Ġevissam": 9101,
      "naR": 9102,
      "ĠlimaT": 9103,
      "Ġsdnasuoht": 9104,
      "giS": 9105,
      "mmah": 9106,
      "ĠymmiJ": 9107,
      "Ġdetnirp": 9108,
      "Ġniatniam": 9109,
      "Ġsreh": 9110,
      "ĠnodroG": 9111,
      "ĠnatsikaP": 9112,
      "ĠlaeR": 9113,
      "trof": 9114,
      "woR": 9115,
      "Ġtsilanruoj": 9116,
      "ĠsnaciremA": 9117,
      "CM": 9118,
      "rovid": 9119,
      "robal": 9120,
      "luv": 9121,
      "ĠroyaM": 9122,
      "tegrat": 9123,
      "Ġgninrae": 9124,
      "rei": 9125,
      "napswor": 9126,
      "yrarbiL": 9127,
      "geS": 9128,
      "cnas": 9129,
      "ĠhsinniF": 9130,
      "Ġroiretni": 9131,
      "notsE": 9132,
      "Ġtcetihcra": 9133,
      "baf": 9134,
      "rusni": 9135,
      "gib": 9136,
      "Ġseenk": 9137,
      "Ġeromyna": 9138,
      "ĪĴ": 9139,
      "Ġecalper": 9140,
      "iy": 9141,
      "Ġgnitsac": 9142,
      "hsilbuP": 9143,
      "neme": 9144,
      "ĠrehpotsirhC": 9145,
      "nepO": 9146,
      "sehcaoc": 9147,
      "CR": 9148,
      "iuqe": 9149,
      "Ġkeehc": 9150,
      "sthgir": 9151,
      "Ġdilos": 9152,
      "Ġslairetam": 9153,
      "tilim": 9154,
      "Ġmoordeb": 9155,
      "Ġenitna": 9156,
      "ĠnordauqS": 9157,
      "ÈĻ": 9158,
      "ĠtropsnarT": 9159,
      "nrettap": 9160,
      "Ġdetubirtsid": 9161,
      "Ġnoitagitsevni": 9162,
      "Ġgnitoohs": 9163,
      "ĠdroF": 9164,
      "daets": 9165,
      "yteicos": 9166,
      "xi": 9167,
      "Ġgnikco": 9168,
      "NA": 9169,
      "baF": 9170,
      "Ġdeirrow": 9171,
      "niatnuoM": 9172,
      "SB": 9173,
      "Ġdrows": 9174,
      "Ġ83": 9175,
      "ĠZ": 9176,
      "Ġtcilfnoc": 9177,
      "nedi": 9178,
      "talP": 9179,
      "icerppa": 9180,
      "lareneg": 9181,
      "erter": 9182,
      "Ġdootsrednu": 9183,
      "uoC": 9184,
      "Ġnoitidart": 9185,
      "pihsnwoT": 9186,
      "Ġylteiuq": 9187,
      "inifed": 9188,
      "uda": 9189,
      "Ġgnirut": 9190,
      "Ġtrahc": 9191,
      "Ġecnassia": 9192,
      "Ġyrotcaf": 9193,
      "norp": 9194,
      "8091": 9195,
      "itinI": 9196,
      "Ġ4491": 9197,
      "Ġnoitav": 9198,
      "ĠxelA": 9199,
      "dommocca": 9200,
      "Ġerusne": 9201,
      "TU": 9202,
      "brezA": 9203,
      "soK": 9204,
      "riP": 9205,
      "Ġcire": 9206,
      "ĠoS": 9207,
      "duL": 9208,
      "tegev": 9209,
      "iabrezA": 9210,
      "tsina": 9211,
      "Ġerohs": 9212,
      "seiro": 9213,
      "retev": 9214,
      "dnetta": 9215,
      "Ġnaj": 9216,
      "Ġdam": 9217,
      "ilg": 9218,
      "Ġelcnu": 9219,
      "snois": 9220,
      "Ġresopmoc": 9221,
      "Ġdenrub": 9222,
      "Ġdeknil": 9223,
      "Ġyllamrof": 9224,
      "Ġseire": 9225,
      "Ġtekcirc": 9226,
      "Ġdelbmu": 9227,
      "liH": 9228,
      "cniV": 9229,
      "Ġstcep": 9230,
      "Ġscitsi": 9231,
      "stnemu": 9232,
      "eugael": 9233,
      "Ġnah": 9234,
      "Ġsees": 9235,
      "gnimriB": 9236,
      "Ġhserf": 9237,
      "Ġenob": 9238,
      "elP": 9239,
      "psid": 9240,
      "rele": 9241,
      "eY": 9242,
      "Ġoci": 9243,
      "Ġoj": 9244,
      "Î±": 9245,
      "yP": 9246,
      "sreteP": 9247,
      "ĠhcaeB": 9248,
      "segaugnal": 9249,
      "Ġneeuq": 9250,
      "ymedacA": 9251,
      "noT": 9252,
      "tuper": 9253,
      "tseg": 9254,
      "Ġtaerht": 9255,
      "niets": 9256,
      "olB": 9257,
      "eerf": 9258,
      "Ġteelf": 9259,
      "weiveR": 9260,
      "Ġsweiv": 9261,
      "Ġavo": 9262,
      "ĠsecneicS": 9263,
      "Ġenimreted": 9264,
      "Ġffuts": 9265,
      "vI": 9266,
      "Ġnihc": 9267,
      "aksa": 9268,
      "Ġas": 9269,
      "Ġgnimmargorp": 9270,
      "ĠrevliS": 9271,
      "rams": 9272,
      "ĠttaM": 9273,
      "Ġsaedi": 9274,
      "yllanoit": 9275,
      "ĠwoH": 9276,
      "Ġtseilrae": 9277,
      "Ġesahp": 9278,
      "Ġyranidro": 9279,
      "nuG": 9280,
      "sdrawa": 9281,
      "Ġnote": 9282,
      "Ġ2591": 9283,
      "ylbmessA": 9284,
      "dnarG": 9285,
      "nier": 9286,
      "Ġdetati": 9287,
      "Ġneddih": 9288,
      "Ġtcnitsid": 9289,
      "retsam": 9290,
      "emaG": 9291,
      "Ġteb": 9292,
      "Ġseitreporp": 9293,
      "Ġekirts": 9294,
      "Ġlangis": 9295,
      "ĠĠĊ": 9296,
      "tiM": 9297,
      "Ġecnavda": 9298,
      "worf": 9299,
      "Ġsgniw": 9300,
      "Ġlausiv": 9301,
      "erutaretil": 9302,
      "ahc": 9303,
      "Ġsdnab": 9304,
      "Ġeriuqer": 9305,
      "rehC": 9306,
      "Ġnetsil": 9307,
      "ĠodaroloC": 9308,
      "seinapmoc": 9309,
      "ĠsecroF": 9310,
      "muC": 9311,
      "Ġylraluger": 9312,
      "Ġlavan": 9313,
      "Ġze": 9314,
      "Ġris": 9315,
      "Ġlainoloc": 9316,
      "Ġtaoc": 9317,
      "ĠnoraB": 9318,
      "Ġlor": 9319,
      "rosba": 9320,
      "Ġsfe": 9321,
      "swo": 9322,
      "niaP": 9323,
      "2202": 9324,
      "Ġstneitap": 9325,
      "Ġdetfihs": 9326,
      "naY": 9327,
      "Ġselcihev": 9328,
      "Ġdevorpmi": 9329,
      "ĠretsehcnaM": 9330,
      "Ġim": 9331,
      "Ġseipoc": 9332,
      "ĠtuO": 9333,
      "isrevortnoc": 9334,
      "ĠreppU": 9335,
      "sevit": 9336,
      "Ġyeb": 9337,
      "Ġsio": 9338,
      "naecO": 9339,
      "ropmet": 9340,
      "Ġdetarapes": 9341,
      "nosirpmi": 9342,
      "Ġstuo": 9343,
      "Ġlarutlucirga": 9344,
      "Ġelibom": 9345,
      "ĠaerA": 9346,
      "yas": 9347,
      "hpsom": 9348,
      "ĠderflA": 9349,
      "etutitsnI": 9350,
      "ãģ": 9351,
      "Ġstneipi": 9352,
      "ĠsweJ": 9353,
      "Ġyltneg": 9354,
      "Ġdevivrus": 9355,
      "Ġelap": 9356,
      "rÃ¶": 9357,
      "Ġdnetta": 9358,
      "traH": 9359,
      "moP": 9360,
      "ĠecurB": 9361,
      "seussi": 9362,
      "37": 9363,
      "love": 9364,
      "ulcnoc": 9365,
      "ĠteragraM": 9366,
      "solihP": 9367,
      "ĠsecivreS": 9368,
      "Ġyldneirf": 9369,
      "ĠylliB": 9370,
      "Ġtnemeriter": 9371,
      "nah": 9372,
      "nego": 9373,
      "Ġnoitnem": 9374,
      "ndid": 9375,
      "Ġnrecnoc": 9376,
      "ĠsevitatneserpeR": 9377,
      "narreti": 9378,
      "Ġytici": 9379,
      "nwonknu": 9380,
      "poci": 9381,
      "Ġsnaici": 9382,
      "Ġyllacita": 9383,
      "Ġgnuh": 9384,
      "Ġedih": 9385,
      "dnoceS": 9386,
      "20": 9387,
      "Ġgnisa": 9388,
      "Ġgnireffo": 9389,
      "Ġeciton": 9390,
      "Ġcinhte": 9391,
      "ebb": 9392,
      "uf": 9393,
      "var": 9394,
      "ieK": 9395,
      "ecivreS": 9396,
      "noitazinagro": 9397,
      "Ġstsa": 9398,
      "Ġgnitats": 9399,
      "Ġderit": 9400,
      "Ġ2491": 9401,
      "Ġnoitcnuj": 9402,
      "traeh": 9403,
      "ĠeviF": 9404,
      "Ġkaep": 9405,
      "Ġhtneves": 9406,
      "Ġnairotsih": 9407,
      "Ġdehcaorppa": 9408,
      "CD": 9409,
      "Ġerutpac": 9410,
      "raep": 9411,
      "namow": 9412,
      "doof": 9413,
      "Ġylhguor": 9414,
      "htoG": 9415,
      "Ġsegaugnal": 9416,
      "lopo": 9417,
      "Ġyrujni": 9418,
      "elg": 9419,
      "ĠshtoM": 9420,
      "tolP": 9421,
      "Ġ1691": 9422,
      "Ġtnirp": 9423,
      "Ġssenkrad": 9424,
      "Ġgniyduts": 9425,
      "terces": 9426,
      "voner": 9427,
      "Ġedisa": 9428,
      "rar": 9429,
      "Ġerusaelp": 9430,
      "Ġdnarg": 9431,
      "Ġgnipoh": 9432,
      "39": 9433,
      "Ġretrauq": 9434,
      "air": 9435,
      "Ġsiseht": 9436,
      "nosir": 9437,
      "ertnec": 9438,
      "RN": 9439,
      "PI": 9440,
      "voL": 9441,
      ")(": 9442,
      "Ġreporp": 9443,
      "Ġecnatropmi": 9444,
      "Ġyzarc": 9445,
      "Ġsngis": 9446,
      "notsoB": 9447,
      "Ġgnirts": 9448,
      "laid": 9449,
      "thgiL": 9450,
      "letnI": 9451,
      "Ġhtneet": 9452,
      "ĠpU": 9453,
      "revop": 9454,
      "ĠoiR": 9455,
      "Ġneb": 9456,
      "Ġrucco": 9457,
      "dib": 9458,
      "Ġlehca": 9459,
      "Ġesahcrup": 9460,
      "Ġyllamron": 9461,
      "buR": 9462,
      "Ġelgna": 9463,
      "Ġtahwemos": 9464,
      "Ġob": 9465,
      "ĠAM": 9466,
      "nitraM": 9467,
      "}|": 9468,
      "roi": 9469,
      "ĠsnoipmahC": 9470,
      "Ġnirg": 9471,
      "ĠynnhoJ": 9472,
      "tpecca": 9473,
      "noisivid": 9474,
      "ĠevitavresnoC": 9475,
      "mrif": 9476,
      "Ġdesiv": 9477,
      "Ġsecruoser": 9478,
      "niP": 9479,
      "soC": 9480,
      "Ġyltfos": 9481,
      "Ġnevird": 9482,
      "oreh": 9483,
      "SO": 9484,
      "ĠssecnirP": 9485,
      "hctiM": 9486,
      "ureP": 9487,
      "ĠPM": 9488,
      "kcuB": 9489,
      "des": 9490,
      "Ġredi": 9491,
      "ĠĠĠĠĠĠĠĠĠĠĠĠĠĠĠĠ": 9492,
      "ĠAFIF": 9493,
      "slaog": 9494,
      "lleH": 9495,
      "roper": 9496,
      "ĠizaN": 9497,
      "darP": 9498,
      "pargotohp": 9499,
      "Ġnyl": 9500,
      "eessenneT": 9501,
      "Ġgnissorc": 9502,
      "eeuqs": 9503,
      "Ġsesuac": 9504,
      "leV": 9505,
      "saV": 9506,
      "niK": 9507,
      "Ġtekcop": 9508,
      "Ġgnidda": 9509,
      "sreciffo": 9510,
      "lots": 9511,
      "ĠpihsnwoT": 9512,
      "0881": 9513,
      "ĊĊĠĊĠĊ": 9514,
      "Ġdetubed": 9515,
      "nilloC": 9516,
      "Ġnoisser": 9517,
      "Ġdesimorp": 9518,
[...]
